{
  "version": "1.0",
  "truncation": {
    "direction": "Right",
    "max_length": 128,
    "strategy": "LongestFirst",
    "stride": 0
  },
  "padding": {
    "strategy": {
      "Fixed": 128
    },
    "direction": "Right",
    "pad_to_multiple_of": null,
    "pad_id": 3,
    "pad_type_id": 0,
    "pad_token": "[PAD]"
  },
  "added_tokens": [
    {
      "id": 0,
      "content": "[UNK]",
      "single_word": false,
      "lstrip": false,
      "rstrip": false,
      "normalized": false,
      "special": true
    },
    {
      "id": 1,
      "content": "[CLS]",
      "single_word": false,
      "lstrip": false,
      "rstrip": false,
      "normalized": false,
      "special": true
    },
    {
      "id": 2,
      "content": "[SEP]",
      "single_word": false,
      "lstrip": false,
      "rstrip": false,
      "normalized": false,
      "special": true
    },
    {
      "id": 3,
      "content": "[PAD]",
      "single_word": false,
      "lstrip": false,
      "rstrip": false,
      "normalized": false,
      "special": true
    },
    {
      "id": 4,
      "content": "[MASK]",
      "single_word": false,
      "lstrip": false,
      "rstrip": false,
      "normalized": false,
      "special": true
    }
  ],
  "normalizer": null,
  "pre_tokenizer": {
    "type": "ByteLevel",
    "add_prefix_space": true,
    "trim_offsets": true,
    "use_regex": true
  },
  "post_processor": null,
  "decoder": null,
  "model": {
    "type": "BPE",
    "dropout": null,
    "unk_token": "[UNK]",
    "continuing_subword_prefix": null,
    "end_of_word_suffix": null,
    "fuse_unk": false,
    "byte_fallback": false,
    "ignore_merges": false,
    "vocab": {
      "[UNK]": 0,
      "[CLS]": 1,
      "[SEP]": 2,
      "[PAD]": 3,
      "[MASK]": 4,
      "!": 5,
      "\"": 6,
      "#": 7,
      "$": 8,
      "%": 9,
      "&": 10,
      "'": 11,
      "(": 12,
      ")": 13,
      "*": 14,
      "+": 15,
      ",": 16,
      "-": 17,
      ".": 18,
      "/": 19,
      "0": 20,
      "1": 21,
      "2": 22,
      "3": 23,
      "4": 24,
      "5": 25,
      "6": 26,
      "7": 27,
      "8": 28,
      "9": 29,
      ":": 30,
      ";": 31,
      "=": 32,
      "?": 33,
      "@": 34,
      "A": 35,
      "B": 36,
      "C": 37,
      "D": 38,
      "E": 39,
      "F": 40,
      "G": 41,
      "H": 42,
      "I": 43,
      "J": 44,
      "K": 45,
      "L": 46,
      "M": 47,
      "N": 48,
      "O": 49,
      "P": 50,
      "Q": 51,
      "R": 52,
      "S": 53,
      "T": 54,
      "U": 55,
      "V": 56,
      "W": 57,
      "X": 58,
      "Y": 59,
      "Z": 60,
      "[": 61,
      "\\": 62,
      "]": 63,
      "^": 64,
      "_": 65,
      "`": 66,
      "a": 67,
      "b": 68,
      "c": 69,
      "d": 70,
      "e": 71,
      "f": 72,
      "g": 73,
      "h": 74,
      "i": 75,
      "j": 76,
      "k": 77,
      "l": 78,
      "m": 79,
      "n": 80,
      "o": 81,
      "p": 82,
      "q": 83,
      "r": 84,
      "s": 85,
      "t": 86,
      "u": 87,
      "v": 88,
      "w": 89,
      "x": 90,
      "y": 91,
      "z": 92,
      "{": 93,
      "|": 94,
      "}": 95,
      "~": 96,
      "¡": 97,
      "¢": 98,
      "£": 99,
      "¤": 100,
      "¥": 101,
      "¦": 102,
      "§": 103,
      "¨": 104,
      "©": 105,
      "ª": 106,
      "«": 107,
      "¬": 108,
      "®": 109,
      "¯": 110,
      "°": 111,
      "±": 112,
      "²": 113,
      "³": 114,
      "´": 115,
      "µ": 116,
      "¶": 117,
      "·": 118,
      "¸": 119,
      "¹": 120,
      "º": 121,
      "»": 122,
      "¼": 123,
      "½": 124,
      "¾": 125,
      "¿": 126,
      "Â": 127,
      "Ã": 128,
      "Ä": 129,
      "Å": 130,
      "Æ": 131,
      "Ç": 132,
      "È": 133,
      "É": 134,
      "Ê": 135,
      "Ë": 136,
      "Ì": 137,
      "Í": 138,
      "Î": 139,
      "Ï": 140,
      "Ð": 141,
      "Ñ": 142,
      "Ò": 143,
      "Ó": 144,
      "Ô": 145,
      "Õ": 146,
      "Ö": 147,
      "×": 148,
      "Ø": 149,
      "Ù": 150,
      "Ú": 151,
      "Û": 152,
      "Ü": 153,
      "Þ": 154,
      "ß": 155,
      "à": 156,
      "á": 157,
      "â": 158,
      "ã": 159,
      "ä": 160,
      "å": 161,
      "æ": 162,
      "ç": 163,
      "è": 164,
      "é": 165,
      "ê": 166,
      "ë": 167,
      "ì": 168,
      "í": 169,
      "î": 170,
      "ï": 171,
      "ð": 172,
      "ó": 173,
      "Ā": 174,
      "ā": 175,
      "Ă": 176,
      "Ą": 177,
      "ą": 178,
      "Ĉ": 179,
      "Ċ": 180,
      "ď": 181,
      "Đ": 182,
      "Ė": 183,
      "ė": 184,
      "ę": 185,
      "Ě": 186,
      "ě": 187,
      "Ġ": 188,
      "ġ": 189,
      "Ģ": 190,
      "ģ": 191,
      "Ĥ": 192,
      "ĥ": 193,
      "Ħ": 194,
      "ħ": 195,
      "Ĩ": 196,
      "ĩ": 197,
      "Ī": 198,
      "ī": 199,
      "Ĭ": 200,
      "ĭ": 201,
      "Į": 202,
      "į": 203,
      "İ": 204,
      "ı": 205,
      "Ĳ": 206,
      "ĳ": 207,
      "Ĵ": 208,
      "ĵ": 209,
      "Ķ": 210,
      "ķ": 211,
      "ĸ": 212,
      "Ĺ": 213,
      "ĺ": 214,
      "Ļ": 215,
      "ļ": 216,
      "Ľ": 217,
      "ľ": 218,
      "Ŀ": 219,
      "ŀ": 220,
      "Ł": 221,
      "ł": 222,
      "Ń": 223,
      "Ġì": 224,
      "Ġë": 225,
      "ìĿ": 226,
      "íķ": 227,
      "Ġê": 228,
      "ëĭ": 229,
      "ìĿ´": 230,
      "ëĬ": 231,
      "ê³": 232,
      "ê°": 233,
      "ì§": 234,
      "ëĬĶ": 235,
      "ĠĊ": 236,
      "ëĭ¤": 237,
      "íķĺ": 238,
      "ìĹ": 239,
      "ê³ł": 240,
      "ãħ": 241,
      "ìŀ": 242,
      "ìķ": 243,
      "ëĵ": 244,
      "..": 245,
      "ìĦ": 246,
      "Ġí": 247,
      "ì§Ģ": 248,
      "ĠìĿ": 249,
      "´ë": 250,
      "ê²": 251,
      "ê°Ģ": 252,
      "Ġìķ": 253,
      "ëı": 254,
      "ãħĭ": 255,
      "ìł": 256,
      "ëĵ¤": 257,
      "Ĥĺ": 258,
      "Ŀ¼": 259,
      "ìĭ": 260,
      "ê¸": 261,
      "Ġìŀ": 262,
      "íķľ": 263,
      "Ġìł": 264,
      "¸ë": 265,
      "ìĹĲ": 266,
      "ëıĦ": 267,
      "¬ë": 268,
      "ìĿĢ": 269,
      "¼ë": 270,
      "ãħĭãħĭ": 271,
      "êµ": 272,
      "ĮĢ": 273,
      "ëĿ¼": 274,
      "¡ľ": 275,
      "ëĭĪ": 276,
      "ê±": 277,
      "ë§": 278,
      "ìĿĦ": 279,
      "ìļ": 280,
      "ìĦľ": 281,
      "ìľ": 282,
      "Ġê°": 283,
      "ìĸ": 284,
      "Ġë§": 285,
      "Ġì§": 286,
      "ë¦": 287,
      "ìĤ": 288,
      "Ġê·": 289,
      "ê¸°": 290,
      "©´": 291,
      "Īë": 292,
      "Ġëĭ": 293,
      "ê²Į": 294,
      "Ġë°": 295,
      "ĠìĤ": 296,
      "ĠìĹ": 297,
      "Ħë": 298,
      "ìĿĺ": 299,
      "ìĿ¸": 300,
      "ìŀĲ": 301,
      "ĠìĿ´": 302,
      "ê±°": 303,
      "ì£": 304,
      "íķ´": 305,
      "ëį": 306,
      "ìķĦ": 307,
      "Īĺ": 308,
      "ëĤĺ": 309,
      "Ġë¬": 310,
      "¶Ģ": 311,
      "Ħ¤": 312,
      "Ġíķĺ": 313,
      "Ġêµ": 314,
      "ëł": 315,
      "ë¦¬": 316,
      "¯¼": 317,
      "ĠìķĦ": 318,
      "ìĸ´": 319,
      "ë¥": 320,
      "Ġëª": 321,
      "Ġìĸ": 322,
      "ìľ¼ë": 323,
      "Ġìĭ": 324,
      "³´": 325,
      "ìķ¼": 326,
      "êµŃ": 327,
      "ìļĶ": 328,
      "Ġê·¸ë": 329,
      "ìĭľ": 330,
      "ìĥ": 331,
      "ë©´": 332,
      "Ġìłķ": 333,
      "Ġê²": 334,
      "ĠëĮĢ": 335,
      "ìĽ": 336,
      "ë°": 337,
      "ë¡ľ": 338,
      "Ġê³": 339,
      "ë§Į": 340,
      "ìĬ": 341,
      "ìĤ¬": 342,
      "ì²": 343,
      "ĠìĦ": 344,
      "ê¹": 345,
      "Ġì§Ģ": 346,
      "ĠëĤ": 347,
      "ëį°": 348,
      "ĠëĤĺ": 349,
      "ì¹": 350,
      "...": 351,
      "ĥĲ": 352,
      "ëĮĢ": 353,
      "ìĺ": 354,
      "ìłķ": 355,
      "ì£¼": 356,
      "ë¯¼": 357,
      "ìĪĺ": 358,
      "ëĦ¤": 359,
      "¡°": 360,
      "ĠìĿ´ë": 361,
      "Ġëı": 362,
      "ĠêµŃ": 363,
      "Ġíķ": 364,
      "ì¤": 365,
      "ì°": 366,
      "Ġìĺ": 367,
      "Ġê¸": 368,
      "ìľ¼ë¡ľ": 369,
      "ìłľ": 370,
      "ëĭ¹": 371,
      "Ġíķľ": 372,
      "Ġìľ": 373,
      "Ġëĭ¤": 374,
      "íķĺëĬĶ": 375,
      "íĺ": 376,
      "!!": 377,
      "ĠìŀĪ": 378,
      "Ġìļ": 379,
      "ìĨ": 380,
      "Ĳĺ": 381,
      "ëĭĪëĭ¤": 382,
      "ê¹Į": 383,
      "ĠìŀĲ": 384,
      "Ġìĥ": 385,
      "ãħĭãħĭãħĭãħĭ": 386,
      "ìĽĲ": 387,
      "ìĭł": 388,
      "Ġê°Ģ": 389,
      "Ġì£": 390,
      "ëĵ¤ìĿ´": 391,
      "ëĥĲ": 392,
      "íķĺê³ł": 393,
      "ĠìĤ¬": 394,
      "ë¥¼": 395,
      "ë¶Ģ": 396,
      "Ġê±": 397,
      "ë¬": 398,
      "ì¹ĺ": 399,
      "ìĥģ": 400,
      "ìŀ¥": 401,
      "Ġì¢": 402,
      "ĠìĹĨ": 403,
      "íĸ": 404,
      "ëª": 405,
      "ëŁ": 406,
      "ĠìĻ": 407,
      "ëĤ": 408,
      "Ġë¹": 409,
      "íĮ": 410,
      "Ġê¸°": 411,
      "¯¸": 412,
      "ŀĺ": 413,
      "Ġë¬¸": 414,
      "??": 415,
      "Ġì°": 416,
      "¬ëŀ": 417,
      "ĠìķĪ": 418,
      "ê²ĥ": 419,
      "ê²ł": 420,
      "Ĩµ": 421,
      "ìĻ": 422,
      "Ġì¤": 423,
      "~~": 424,
      "ë²": 425,
      "íĻ": 426,
      "Ġë¶": 427,
      "ìĹĲìĦľ": 428,
      "ê¸Ī": 429,
      "Ġë§Ĳ": 430,
      "íĥ": 431,
      "¬ëŀĮ": 432,
      "Ġë³": 433,
      "Ġê·¸": 434,
      "ëĬĶëį°": 435,
      "ĠëĦ": 436,
      "Ġëį": 437,
      "¦¬": 438,
      "ê±´": 439,
      "ê³¼": 440,
      "Ġì¡°": 441,
      "ê°Ħ": 442,
      "ĠìłĢ": 443,
      "¶Į": 444,
      "ĠìĪĺ": 445,
      "ê·": 446,
      "Ġë³´": 447,
      "ìĬ¤": 448,
      "ìłģ": 449,
      "Ġë²": 450,
      "ìĦ¸": 451,
      "ëħ": 452,
      "ĠìĨ": 453,
      "ìŀ¬": 454,
      "ĠëŃ": 455,
      "íĨµ": 456,
      "Ġì²": 457,
      "Ġë¬´": 458,
      "ķĮ": 459,
      "ĠìĿ¸": 460,
      "Ġê°ľ": 461,
      "ìĸ´ë": 462,
      "Ġëª¨": 463,
      "ë¶": 464,
      "ĠêµŃë¯¼": 465,
      "Ġê³µ": 466,
      "Ġë¶Ģ": 467,
      "ìĿ¼": 468,
      "ìĦł": 469,
      "ë³": 470,
      "Ġëĵ": 471,
      "Ġìĭľ": 472,
      "ë§Ĳ": 473,
      "ëŀ": 474,
      "íŀ": 475,
      "ëıĻ": 476,
      "ê¶Į": 477,
      "ìĦ±": 478,
      "ëĭ¤ê³ł": 479,
      "êµ¬": 480,
      "íķ´ë": 481,
      "ĠëįĶ": 482,
      "....": 483,
      "ĠíĻ": 484,
      "Ġê¹": 485,
      "ìĨĮ": 486,
      "Ġíĺ": 487,
      "ĠìķĦëĭĪ": 488,
      "ìĿ´ëĭ¤": 489,
      "Ġãħ": 490,
      "Ġëª»": 491,
      "Ġìļ°": 492,
      "ë¹": 493,
      "ĠìĤ¬ëŀĮ": 494,
      "íķł": 495,
      "ë³´": 496,
      "ìłĦ": 497,
      "Ł°": 498,
      "ëł¤": 499,
      "Ġìŀĺ": 500,
      "ļĮ": 501,
      "ĠìłĦ": 502,
      "Ġì§Ħ": 503,
      "ĠìĥĿ": 504,
      "ì¢": 505,
      "Ġìĸ´ë": 506,
      "íŀĪ": 507,
      "ëĵ¤ìĿĢ": 508,
      "´Ģ": 509,
      "ì§Ħ": 510,
      "Ġê±°": 511,
      "į°": 512,
      "Ġì¤ĳ": 513,
      "ë¦¬ë": 514,
      "¨¹": 515,
      "¥¼": 516,
      "ì¡°": 517,
      "ìĻĢ": 518,
      "ê°ģ": 519,
      "ìĿĮ": 520,
      "ìĤ°": 521,
      "Ġìłľ": 522,
      "Ġ1": 523,
      "ëĭ¨": 524,
      "ĠìĻľ": 525,
      "Ġëĺ": 526,
      "Ġëĭ¹": 527,
      "ë§Ī": 528,
      "ìĿ´ëĿ¼": 529,
      "ìĹĨ": 530,
      "ì§ľ": 531,
      "Ġíķ´": 532,
      "ìĭĿ": 533,
      "Ġì¹": 534,
      "ĠíĮ": 535,
      "ëĬĶê±°": 536,
      "ĠìĿ¼": 537,
      "Ġãħĭãħĭ": 538,
      "êµ¬ë": 539,
      "Ġë¯¸": 540,
      "íļĮ": 541,
      "ëł¹": 542,
      "Ġë°Ķ": 543,
      "ìĺ¤": 544,
      "ë¬¸": 545,
      "ìĭ¬": 546,
      "ł¤": 547,
      "ìĥĿ": 548,
      "ìĹ¬": 549,
      "ì¶": 550,
      "ĠëĲĺ": 551,
      "ìĦĿ": 552,
      "Ġê²ĥ": 553,
      "ìĹĪ": 554,
      "ĠëĪ": 555,
      "Ġë§Į": 556,
      "íĻĶ": 557,
      "ìľ¼ë©´": 558,
      "ĠìķĪë": 559,
      "ĳĲ": 560,
      "ĠìĽ": 561,
      "ĠìĦ¸": 562,
      "Ġë¯¼": 563,
      "ìŀĪ": 564,
      "íĶ": 565,
      "ĠëĤĺëĿ¼": 566,
      "ĻìĿĢ": 567,
      "íħ": 568,
      "Ġìĸ´": 569,
      "ìŀĦ": 570,
      "íĸĪ": 571,
      "ìļ©": 572,
      "ĵ°": 573,
      "Ĳľ": 574,
      "ìĭ¤": 575,
      "ëĵł": 576,
      "ê°ľ": 577,
      "Ġìĺ¤": 578,
      "Ġíĥ": 579,
      "ĠìĹ¬": 580,
      "ĳľ": 581,
      "Ġì¶": 582,
      "íı": 583,
      "Ġê³ł": 584,
      "ĨĪ": 585,
      "Ġíĸ": 586,
      "íĬ": 587,
      "ìķĪ": 588,
      "ì¤Ģ": 589,
      "§Į": 590,
      "Ħ°": 591,
      "ĠëŃĲ": 592,
      "Ġëħ": 593,
      "ì¤ĳ": 594,
      "ªħ": 595,
      "ìĿ¸ë": 596,
      "Ġì£¼": 597,
      "ì¡": 598,
      "Ġíı": 599,
      "Ġë¬¸ìŀ¬": 600,
      "ĠìķĮ": 601,
      "íķĺë©´": 602,
      "ĠìķĬ": 603,
      "ëħĦ": 604,
      "ì²´": 605,
      "íķ´ìĦľ": 606,
      "ĠìĨĮ": 607,
      "ìľł": 608,
      "Ġê²½": 609,
      "ìļ°": 610,
      "íĮĮ": 611,
      "íĨµëł¹": 612,
      "´Ĳ": 613,
      "ĠëĭĪ": 614,
      "Ġë§İ": 615,
      "ĠìĦł": 616,
      "ë¥´": 617,
      "Ġìľ¤": 618,
      "êµĲ": 619,
      "ì°¨": 620,
      "ëĵľ": 621,
      "íĤ": 622,
      "ĠìĿ¼ë": 623,
      "ĠìĥĿê°ģ": 624,
      "ıĦ": 625,
      "ìĹħ": 626,
      "íĦ°": 627,
      "ëĭ¤ëĬĶ": 628,
      "ìŀħ": 629,
      "Ġíķł": 630,
      "ĠëĤ¨": 631,
      "ĠìĿ´ëŁ°": 632,
      "ì§ģ": 633,
      "Ġë§Ī": 634,
      "ê´Ģ": 635,
      "ê¹Įì§Ģ": 636,
      "Ġìľł": 637,
      "Ġì¢ĭ": 638,
      "Ġì§ĳ": 639,
      "ë°ľ": 640,
      "Ġë¹Ħ": 641,
      "ì§Ī": 642,
      "ê³µ": 643,
      "ĠíķĺëĬĶ": 644,
      "¬´": 645,
      "ëªħ": 646,
      "íķĺì§Ģ": 647,
      "ê²½": 648,
      "ëĲĺ": 649,
      "Ł¬": 650,
      "ĠìķĦë": 651,
      "ìľĦ": 652,
      "ìŀĳ": 653,
      "ì²ĺ": 654,
      "Ġë§ŀ": 655,
      "ĠìĤ´": 656,
      "ëĭĺ": 657,
      "ìĿ´ëĤĺ": 658,
      "Ġì§Ħì§ľ": 659,
      "ĠìĿĺ": 660,
      "łĩ": 661,
      "ĥ¥": 662,
      "Ġ2": 663,
      "ìĬµ": 664,
      "íķĺê²Į": 665,
      "ĠëĤ´": 666,
      "ĠìľĦ": 667,
      "ìĦ¸ìļĶ": 668,
      "©ëĭĪëĭ¤": 669,
      "ĶĶ": 670,
      "¡ł": 671,
      "íĳľ": 672,
      "ìĨį": 673,
      "ìłĢ": 674,
      "Ġìĥģ": 675,
      "ëĭĪê¹Į": 676,
      "Ġê¹Ģ": 677,
      "ĠëĮĢíĨµëł¹": 678,
      "Ġë¯¼ì£¼": 679,
      "Ġë°ĺ": 680,
      "ì°°": 681,
      "ìĪ": 682,
      "Ġìĭł": 683,
      "íĸī": 684,
      "ìķĦë": 685,
      "ìļ´": 686,
      "ìĶ": 687,
      "Ġì£½": 688,
      "íķľëĭ¤": 689,
      "ãĦ": 690,
      "ëįĺ": 691,
      "ĪëĤĺ": 692,
      "Ġëĵ¤": 693,
      "Ġë°Ľ": 694,
      "ìĤ¬ë": 695,
      "ëł¥": 696,
      "ìľ¼": 697,
      "ëķĮ": 698,
      "íħĮ": 699,
      "Ġê²Ģ": 700,
      "ìķĺ": 701,
      "½Ķ": 702,
      "ë©": 703,
      "ê³Ħ": 704,
      "íķĺëĭ¤": 705,
      "ĠëĪĦ": 706,
      "ë¯¸": 707,
      "ãħİ": 708,
      "ëįĶ": 709,
      "Ġìĵ°": 710,
      "ĠëĬ": 711,
      "ìĹ°": 712,
      "³Ĳ": 713,
      "ëĿ¼ê³ł": 714,
      "Ġãħĭãħĭãħĭãħĭ": 715,
      "ì¦": 716,
      "Ġê°Ĳ": 717,
      "íĽ": 718,
      "ìĿ¸ëį°": 719,
      "ëŁ¬": 720,
      "ĠëĶ": 721,
      "ê±¸": 722,
      "ë¶Ħ": 723,
      "Ġì§Ģê¸Ī": 724,
      "ĠíĽ": 725,
      "±ħ": 726,
      "ìĹĲê²Į": 727,
      "Ġìŀħ": 728,
      "ë¹Ħ": 729,
      "Ġëģ": 730,
      "ìĹŃ": 731,
      "¬ëĿ¼": 732,
      "ëłĪ": 733,
      "ĠìķĦëĭ": 734,
      "ê·¸ë": 735,
      "ë°©": 736,
      "Ġê·¸ëĥ¥": 737,
      "Ġê¼": 738,
      "Ġìłķì¹ĺ": 739,
      "íķ´ëĿ¼": 740,
      "ì§Ģë§Į": 741,
      "Ġë¬¸ìŀ¬ìĿ¸": 742,
      "ë£": 743,
      "Ġìķł": 744,
      "Ġì¤ĳêµŃ": 745,
      "³¸": 746,
      "Ġíķ´ë": 747,
      "00": 748,
      "íĤ¤": 749,
      "ĠëĤ´ë": 750,
      "Ġë°ķ": 751,
      "ìĺģ": 752,
      "íģ": 753,
      "ĠëĺĲ": 754,
      "ìĹ´": 755,
      "µľ": 756,
      "Ġëĸ": 757,
      "Ġì¢Ģ": 758,
      ",,": 759,
      "ĠìĦľ": 760,
      "ĠëıĪ": 761,
      "Ġìŀ¥": 762,
      "Ġì°¸": 763,
      "ìķ¼ì§Ģ": 764,
      "ĠíĶ": 765,
      "ðŁ": 766,
      "ĠìĦ±": 767,
      "ìŀ¬ë": 768,
      "ëĵ¯": 769,
      "Ġì´": 770,
      "Ġë¯¼ì£¼ëĭ¹": 771,
      "ëģ": 772,
      "ì¼": 773,
      "łĩê²Į": 774,
      "ì£Ħ": 775,
      "ĠëĮĢíķľ": 776,
      "Ġë°©": 777,
      "íĺ¸": 778,
      "ĠëĦĪë": 779,
      "ëĮĢë¡ľ": 780,
      "ĻìĿ´": 781,
      "ëª¨": 782,
      "ì¢ħ": 783,
      "íĿ": 784,
      "ê°Ĳ": 785,
      "ë¬´": 786,
      "Ġë³´ë": 787,
      "Ġë¯": 788,
      "ĠíĹ": 789,
      "Ġì²ĺ": 790,
      "ê¸ī": 791,
      "ëĬ¥": 792,
      "êµ°": 793,
      "ĠìĹŃ": 794,
      "ì§ĵ": 795,
      "ì¡±": 796,
      "ĠëĦĪ": 797,
      "ĠìĿ¸ê°Ħ": 798,
      "ĠëĨ": 799,
      "ĠëķĮ": 800,
      "Ġë¶Ī": 801,
      "ë¶Ī": 802,
      "Ġë¶ģ": 803,
      "Ġë²ķ": 804,
      "ê¸Ģ": 805,
      "Ġìµľ": 806,
      "ì²Ń": 807,
      "êµ¬ëĤĺ": 808,
      "Ġë°±": 809,
      "íķľíħĮ": 810,
      "ĠìŀĪëĬĶ": 811,
      "ĠìĬ": 812,
      "ì§ĳ": 813,
      "Ġë©": 814,
      "ãħ¡": 815,
      "ëª»": 816,
      "ì´": 817,
      "ìķł": 818,
      "Ġì½Ķ": 819,
      "ëĳĲ": 820,
      "ĠíķľêµŃ": 821,
      "ĠëıĻ": 822,
      "íĮĲ": 823,
      "Ġë¨": 824,
      "ëĦ¤ìļĶ": 825,
      "Ġì°¨": 826,
      "Ġìłķê¶Į": 827,
      "Ġìĸ´ëĸ": 828,
      "Ġãħĭãħĭãħĭ": 829,
      "!!!": 830,
      "ì²ľ": 831,
      "ëŀĳ": 832,
      "ĠìĽĲ": 833,
      "ìĬµëĭĪëĭ¤": 834,
      "ëŁ°": 835,
      "Ġ3": 836,
      "ĠìĿ´ìłľ": 837,
      "ìĿ´ê³ł": 838,
      "Ġìłķë¶Ģ": 839,
      "ë¥¸": 840,
      "ĠìķĦëĭĮ": 841,
      "Ġíķĺê³ł": 842,
      "Ġë¹¨": 843,
      "Ġì¢Į": 844,
      "ëĵ±": 845,
      "ëĬĶê²Į": 846,
      "ë¯¼êµŃ": 847,
      "Ī¬": 848,
      "ìĬ¨": 849,
      "Ġë¬¸ìłľ": 850,
      "ê°ĻìĿĢ": 851,
      "ë°Ķ": 852,
      "Ġìĭ¤": 853,
      "ĠíĸĪ": 854,
      "ì¤Ħ": 855,
      "Ġê²°": 856,
      "Ġìłģ": 857,
      "ĠìĿ¼ë³¸": 858,
      "Ġê°ķ": 859,
      "íĥĢ": 860,
      "íķ¨": 861,
      "Ġì¶Ķ": 862,
      "íĹ": 863,
      "ãħī": 864,
      "Ġì§Ģì§Ģ": 865,
      "OO": 866,
      "ëłĪê¸°": 867,
      "Ġìŀ¬": 868,
      "íĬ¸": 869,
      "ìŀ¬ëªħ": 870,
      "Ġê·¸ëŁ": 871,
      "íķ©ëĭĪëĭ¤": 872,
      "ãħĭãħĭãħĭãħĭãħĭãħĭãħĭãħĭ": 873,
      "Ġ5": 874,
      "ĠíĬ": 875,
      "ĠìĪ": 876,
      "ê²©": 877,
      "Ġê·¸ëŀĺ": 878,
      "ë¨¹": 879,
      "Ġìļ°ë¦¬": 880,
      "Ġë°ľ": 881,
      "Ġìĺģ": 882,
      "ë²Ī": 883,
      "Ġêµ¬": 884,
      "ìĽĮ": 885,
      "İ¸": 886,
      "ìĤ¬ëŀĮ": 887,
      "ëŀĺ": 888,
      "ĤĺëĿ¼": 889,
      "ê¸¸": 890,
      "ĠëıĦ": 891,
      "Ġìłķìĭł": 892,
      "Ġë°°": 893,
      "¼ë§": 894,
      "Ġìľ¤ìĦĿ": 895,
      "ĪëĦ¤": 896,
      "Ġë¨¹": 897,
      "ì£ł": 898,
      "Ġë¬´ìĬ¨": 899,
      "ëĤľ": 900,
      "ê»": 901,
      "ëĤ¨": 902,
      "Įĵ": 903,
      "Ĳł": 904,
      "Ĩł": 905,
      "ëĦ": 906,
      "ĠëĮĢíķľë¯¼êµŃ": 907,
      "íķĻ": 908,
      "Ġê´Ģ": 909,
      "íķ´ìķ¼": 910,
      "ëĤ´": 911,
      "ë³´ë": 912,
      "Ġë§Įëĵ¤": 913,
      "ë¡": 914,
      "ë°ķ": 915,
      "ĠêµĲ": 916,
      "ëŁ¼": 917,
      "ìĸ´ìĦľ": 918,
      "Ġíŀĺ": 919,
      "ìħ": 920,
      "ëĿ¼ëıĦ": 921,
      "ê¾": 922,
      "ë©°": 923,
      "ìĿ´ì§Ģ": 924,
      "Ġê·¸ëŁ°": 925,
      "Ġê°ĻìĿĢ": 926,
      "ëĨĪ": 927,
      "ìĤ´": 928,
      "ìł¸": 929,
      "ĠëıĮ": 930,
      "ë²ķ": 931,
      "ìĸµ": 932,
      "ĠìĹ°": 933,
      "ëŀĢ": 934,
      "ë¡ľëĤĺ": 935,
      "ĠíĿ": 936,
      "ìĶ¨": 937,
      "ì¢Ģ": 938,
      "Ġìłķë§Ĳ": 939,
      "¦¬ê³ł": 940,
      "ëĲľ": 941,
      "íĺķ": 942,
      "Ĩĵ": 943,
      "Ġë³¸": 944,
      "Ġì²Ń": 945,
      "ìŀħëĭĪëĭ¤": 946,
      "ìĿ¸ê°Ģ": 947,
      "ì¶ľ": 948,
      "Ĥ´": 949,
      "ìľ¼ëĭĪ": 950,
      "ìĸĳ": 951,
      "Ġê°Ļ": 952,
      "ĠëĦĺ": 953,
      "ĠìĿ´ìŀ¬ëªħ": 954,
      "ì¼ľ": 955,
      "Ġì¹ĺ": 956,
      "ìļ¸": 957,
      "ê²łëĭ¤": 958,
      "ĠíĻķ": 959,
      "ĠíĺĦ": 960,
      "Ġê³Ħ": 961,
      "ê¹¨": 962,
      "ì£¼ë": 963,
      "ì³Ĳ": 964,
      "ĠìłĦë": 965,
      "ìłģìľ¼ë¡ľ": 966,
      "¼ì§Ģ": 967,
      "ì¹ľ": 968,
      "Ġê´": 969,
      "Ġìĸĳ": 970,
      "íĥľ": 971,
      "Ħë¡ľ": 972,
      "Ġëª¨ë¥´": 973,
      "Ġì¹ľ": 974,
      "ìķĻ": 975,
      "ê²¨": 976,
      "ĠëĦĪë¬´": 977,
      "ìĿ´ëĥĲ": 978,
      "ê·¼": 979,
      "ì±ħ": 980,
      "ĠíķĺëĤĺ": 981,
      "Ġë¶ģíķľ": 982,
      "Ġëħ¸": 983,
      "Ġë§Ŀ": 984,
      "Ġìļķ": 985,
      "ĠíĶ¼": 986,
      "ĠëĤľ": 987,
      "Ġëĭ¨": 988,
      "Ġê²Ģì°°": 989,
      "???": 990,
      "ë¶ĢíĦ°": 991,
      "Ġì½Ķë¡ľëĤĺ": 992,
      "ìŀĲëĵ¤": 993,
      "ìĿ¼ë": 994,
      "ìŀĲê°Ģ": 995,
      "ì£¼ìĿĺ": 996,
      "Ġìŀ¡": 997,
      "ìŀĸ": 998,
      "ĠëŃĶ": 999,
      "ê²ĥëıĦ": 1000,
      "ë©´ìĦľ": 1001,
      "ë³´ëĭ¤": 1002,
      "ì²ĺëŁ¼": 1003,
      "íĿ¬": 1004,
      "ĠìĤ¬ë": 1005,
      "Įĵê¸Ģ": 1006,
      "Ġìľ¤ìĦĿìĹ´": 1007,
      "Ġë°±ìĭł": 1008,
      "ê¸´": 1009,
      "ĠìłĢëŁ°": 1010,
      "ĠìĹĨëĬĶ": 1011,
      "Ġë¯¸êµŃ": 1012,
      "ĦëĮĢ": 1013,
      "Ġíģ": 1014,
      "Ġì¦": 1015,
      "ìĿ´ê°Ģ": 1016,
      "ì©": 1017,
      "ĠìŀĲê¸°": 1018,
      "Ġíķĺì§Ģ": 1019,
      "Ġê±´": 1020,
      "ãħİãħİ": 1021,
      "Ġì¡°êµŃ": 1022,
      "ĠëĨĪ": 1023,
      "ëĵ¤ìķĦ": 1024,
      "Ġë§¤": 1025,
      "ĠëĳĲ": 1026,
      "ë°Ľ": 1027,
      "íķĺëĦ¤": 1028,
      "ĠíĻĶ": 1029,
      "ìĿ´ëĦ¤": 1030,
      "įĺ": 1031,
      "Ħë³´": 1032,
      "ĠìĦ¸ê¸Ī": 1033,
      "ë§¤": 1034,
      "!!!!": 1035,
      "ìłģìĿ¸": 1036,
      "ĠìĻ¸": 1037,
      "Ġë§ī": 1038,
      "Ġ4": 1039,
      "ĠíĨµ": 1040,
      "ë´Ĳ": 1041,
      "ëĬĶì§Ģ": 1042,
      "ê²łì§Ģ": 1043,
      "ĠëģĿ": 1044,
      "ĠíĮĲ": 1045,
      "ê²°": 1046,
      "ĠìĨĲ": 1047,
      "ĠìķĪëĲĺ": 1048,
      "Ġìļ°ë¦¬ë": 1049,
      "ãħł": 1050,
      "ì¦Ŀ": 1051,
      "ĠëĴ": 1052,
      "Ġì£¼ë": 1053,
      "Ġìĸ¼ë§": 1054,
      "~~~": 1055,
      "ì§Ģê³ł": 1056,
      "Ġë¶Ħ": 1057,
      "¬´ë": 1058,
      "íĺľ": 1059,
      "ëĶ": 1060,
      "ĠëĶ°": 1061,
      "ìĿ¸ìĿ´": 1062,
      "ìĿ´ëĿ¼ê³ł": 1063,
      "ìķĦìĦľ": 1064,
      "íĶ¼": 1065,
      "Ġëª°": 1066,
      "ìķħ": 1067,
      "Ġ.": 1068,
      "ĠìļĶ": 1069,
      "·¨": 1070,
      "ë¬¼": 1071,
      "ìķ½": 1072,
      "ĠëĮĵê¸Ģ": 1073,
      "íĴ": 1074,
      "ë£Į": 1075,
      "Ġíķľëĭ¤": 1076,
      "ĠìĬ¤": 1077,
      "¸ë¦¬": 1078,
      "Ġë¬¼": 1079,
      "Ġìĭ¬": 1080,
      "ãħĭãħĭãħĭ": 1081,
      "ê°Ļ": 1082,
      "Ġê°Ħ": 1083,
      "Ġìĭ¶": 1084,
      "ë°°": 1085,
      "ëĵ¤ìĿĺ": 1086,
      "ë²Į": 1087,
      "¦¬ë": 1088,
      "ëŁ½": 1089,
      "ĠìŀĪëĭ¤": 1090,
      "ë¦°": 1091,
      "ĠìĹĨëĭ¤": 1092,
      "Ġãħĭ": 1093,
      "ìĽĶ": 1094,
      "ĠíĬ¹": 1095,
      "ìĨĮë¦¬": 1096,
      "Ġìĸ´ëĸ»": 1097,
      "ĠëĤĺìĺ¤": 1098,
      "ª½": 1099,
      "ìĵ°": 1100,
      "ìĺĢ": 1101,
      "Ġíĸī": 1102,
      "ĠíĪ¬": 1103,
      "ĠìĿ´ê²Į": 1104,
      "ìŀĸìķĦ": 1105,
      "ë§Ŀ": 1106,
      "Ġìį": 1107,
      "ìŀ¡": 1108,
      "¸ë¡ł": 1109,
      "Ġì¡": 1110,
      "ĠìķĦëĭĪëĿ¼": 1111,
      "ëĬĲ": 1112,
      "¸ëł": 1113,
      "ĠëĪĦê°Ģ": 1114,
      "ê²Ģ": 1115,
      "ëĵ¤ìĿĦ": 1116,
      "ĠìķĦì§ģ": 1117,
      "Ġìĸ´ëĶĶ": 1118,
      "Ŀ½": 1119,
      "ê¼": 1120,
      "ë§Ĳê³ł": 1121,
      "Ġì¢ħ": 1122,
      "ìĺ¨": 1123,
      "Ġìķŀ": 1124,
      "Ġìŀĺëª»": 1125,
      "Ġê·¸ëłĩê²Į": 1126,
      "íĥĿ": 1127,
      "ĠëĲľ": 1128,
      "ì²ł": 1129,
      "Ġì¤Ħ": 1130,
      "Ġìĵ°ëłĪê¸°": 1131,
      "ĠêµŃê°Ģ": 1132,
      "ë¬¸ìĹĲ": 1133,
      "íĺĢ": 1134,
      "ë¦¬ê³ł": 1135,
      "íĮ¨": 1136,
      "íĭ": 1137,
      "Ġìĸ´ëĸ»ê²Į": 1138,
      "Ġë²Į": 1139,
      "ĠíĮĮ": 1140,
      "Ġíıī": 1141,
      "ëĤł": 1142,
      "ì§ĢëıĦ": 1143,
      "Ġëıħ": 1144,
      "ìŁ": 1145,
      "ìĸ´ìķ¼": 1146,
      "ĠãĦ": 1147,
      "íķĺëĥĲ": 1148,
      "ìłĲ": 1149,
      "ëĵ¤ëıĦ": 1150,
      "Ġìĺ¬ë": 1151,
      "Ġê·¸ë¦¬ê³ł": 1152,
      "Ġêµ°": 1153,
      "Ġìłľë°ľ": 1154,
      "ìĪľ": 1155,
      "Ġê³¼": 1156,
      "Ġë²Ķ": 1157,
      "Ġìļ°ë¦¬ëĤĺëĿ¼": 1158,
      "Ġë§İìĿ´": 1159,
      "Ġëªħ": 1160,
      "Ġìĸ¸": 1161,
      "Ĩį": 1162,
      "³´ë": 1163,
      "ëĭ¤ê°Ģ": 1164,
      "Ġê¸°ìĤ¬": 1165,
      "½ĳ": 1166,
      "ìķĬ": 1167,
      "ìłķë¶Ģ": 1168,
      "íķĺëĤĺ": 1169,
      "âĢ": 1170,
      "ì¶Ķ": 1171,
      "Ġëĵ±": 1172,
      "ê°ķ": 1173,
      "Ġëĺĳ": 1174,
      "²ķ": 1175,
      "Ĩĵê³ł": 1176,
      "ĠìĺĪ": 1177,
      "ê´": 1178,
      "Ġãħİ": 1179,
      "Ġë¯¿": 1180,
      "ë¡Ŀ": 1181,
      "ìĹĨëĬĶ": 1182,
      "ĠíķĻ": 1183,
      "ìľ¨": 1184,
      "íĹĺ": 1185,
      "Ġê·¸ë§Į": 1186,
      "áĨ": 1187,
      "ĠíķĦ": 1188,
      "íķ´ëıĦ": 1189,
      "ìłķê¶Į": 1190,
      "ê°Ĵ": 1191,
      "¨ìĸ´": 1192,
      "ìĺĪ": 1193,
      "Ġì§ģ": 1194,
      "Ġëĭ¹ìĭł": 1195,
      "ìĿ¸ì§Ģ": 1196,
      "ī´": 1197,
      "Ġëĭµ": 1198,
      "»Ķ": 1199,
      "êµŃë¯¼": 1200,
      "ìŁģ": 1201,
      "ê±´ë": 1202,
      "ĠìĨį": 1203,
      "Ġì£Ħ": 1204,
      "ê°ĢëĬĶ": 1205,
      "Ġì³Ĳ": 1206,
      "ëł¤ê³ł": 1207,
      "íķľê±°": 1208,
      "¿Ĳ": 1209,
      "ìĿ´ìķ¼": 1210,
      "íķ©": 1211,
      "íıĲ": 1212,
      "Ġì¢ĮíĮĮ": 1213,
      "Ġëĵ¤ìĸ´": 1214,
      "Ġê·¼ë": 1215,
      "ĠìĹĲ": 1216,
      "ìĨ¡": 1217,
      "Ġê·¸ëŁ¬": 1218,
      "Ġëĵľ": 1219,
      "Ġìķ¼": 1220,
      "ĪëĮĢ": 1221,
      "ì´Ŀ": 1222,
      "Ġì´Ŀ": 1223,
      "¦°": 1224,
      "ìĿ´ëĬĶ": 1225,
      "ë²Ķ": 1226,
      "Ġê²½ìłľ": 1227,
      "áĨ¢": 1228,
      "²Ī": 1229,
      "ë¦¬ëĬĶ": 1230,
      ".....": 1231,
      "ê·¸": 1232,
      "ë¯": 1233,
      "Ġëªĩ": 1234,
      "ĠìĿ´ìĥģ": 1235,
      "ìĸ´ëıĦ": 1236,
      "ĩ´": 1237,
      "ê°±": 1238,
      "íķĺëĬĶê±°": 1239,
      "íİ¸": 1240,
      "ĠëĮĢê¹¨": 1241,
      "ĠíĻį": 1242,
      "ĠìĿ´ëłĩê²Į": 1243,
      "Ġëª©": 1244,
      "Ġìĸ¸ë¡ł": 1245,
      "ëĭ¬": 1246,
      "ĠëĲł": 1247,
      "Ġê·¸ëŁ¼": 1248,
      "Ġê¶Į": 1249,
      "ë£¨": 1250,
      "íŀĺ": 1251,
      "ĠìĹ¬ë": 1252,
      "ĠìĽĥ": 1253,
      "Ġìĭ¸": 1254,
      "Ġë³Ģ": 1255,
      "Ġë´Ĳ": 1256,
      "ìĹĲëĬĶ": 1257,
      "ĠìĤ¬ëŀĮìĿ´": 1258,
      "ëĭµ": 1259,
      "ë³ĳ": 1260,
      "ĪëĥĲ": 1261,
      "Ġì²ľ": 1262,
      "Ġì¦Ŀ": 1263,
      "Ġëĭ¤ë¥¸": 1264,
      "ĠëĪĪ": 1265,
      "íĺĦ": 1266,
      "Ġìĸ¼ë§ĪëĤĺ": 1267,
      "ìĬ¹": 1268,
      "Ġìķħ": 1269,
      "Ġìĭ«": 1270,
      "°ĺ": 1271,
      "ëĵĿ": 1272,
      "ìĭľëĭ¤": 1273,
      "ìŀĪëĬĶ": 1274,
      "íģ¬": 1275,
      "ìĿĺìĽĲ": 1276,
      "Ġíĳľ": 1277,
      "ĠíĨł": 1278,
      "ìĸ´ìļĶ": 1279,
      "ê¸°ëĬĶ": 1280,
      "ì¤ĺ": 1281,
      "ìłĪ": 1282,
      "ĠíıŃ": 1283,
      "ëĬĶëĭ¤": 1284,
      "íĽĦ": 1285,
      "ìĿĦê¹Į": 1286,
      "Ġìĸĺ": 1287,
      "ë³µ": 1288,
      "Ġì¶ľ": 1289,
      "ìĦ¤": 1290,
      "íĶĦ": 1291,
      "ìŀĲëĬĶ": 1292,
      "ãĨį": 1293,
      "Ġì±ħ": 1294,
      "ìģ": 1295,
      "ĠëĴ¤": 1296,
      "Ŀ¼ê³ł": 1297,
      "OOO": 1298,
      "ĠìĹĦ": 1299,
      "ì§ĢëĬĶ": 1300,
      "Ħëªħ": 1301,
      "¬¸": 1302,
      "ë³¸": 1303,
      "ëĿ¼ëĬĶ": 1304,
      "Ġëĺ¥": 1305,
      "¸ë¡ľ": 1306,
      "ĠìķĦëĭĪê³ł": 1307,
      "ĠìĦ¤": 1308,
      "Ġëĸł": 1309,
      "êº": 1310,
      "ì°½": 1311,
      "ë¶ģ": 1312,
      "ģ¼": 1313,
      "Ġì¤Ģ": 1314,
      "ĠìłľëĮĢë¡ľ": 1315,
      "ëħ¸": 1316,
      "Ġë½ĳ": 1317,
      "íĻĺ": 1318,
      "ĠêµŃë¯¼ëĵ¤": 1319,
      "íĻ©": 1320,
      "Ġ20": 1321,
      "ĠìĦ¸ìĥģ": 1322,
      "Ġë³´ê³ł": 1323,
      "ĠëŃĺ": 1324,
      "²Ħ": 1325,
      "ĠìĤ¬íļĮ": 1326,
      "ì¡Į": 1327,
      "ìį": 1328,
      "íıŃ": 1329,
      "Īëįĺ": 1330,
      "Ġê±°ì§ĵ": 1331,
      "ĠíķĦìļĶ": 1332,
      "ìĹĪëĭ¤": 1333,
      "ê»ĺ": 1334,
      "Ġë²Ħ": 1335,
      "Ġì²ł": 1336,
      "Ġê²Į": 1337,
      "ĠìĪĺì¤Ģ": 1338,
      "ìĭľíĤ¤": 1339,
      "ê°Ī": 1340,
      "Ġê¹Į": 1341,
      "ĠíĥĢ": 1342,
      "ĠìķĦë¬´ë": 1343,
      "Ġãħī": 1344,
      "ĠìĿ´ë²Ī": 1345,
      "ĠíĽĦ": 1346,
      "ëĿ½": 1347,
      "ê²łëĦ¤": 1348,
      "ë°ĺ": 1349,
      "ë²Ħ": 1350,
      "Ġìŀĳ": 1351,
      "Ġíĭ": 1352,
      "Ĥľ": 1353,
      "Ġë¬´ë": 1354,
      "ĠìĿĳ": 1355,
      "ìĸ¸": 1356,
      "ìĹĶ": 1357,
      "íķĺëĬĶëį°": 1358,
      "ëıĪ": 1359,
      "ë¹¨": 1360,
      "ĠìĦłê±°": 1361,
      "Ġ10": 1362,
      "ê°Ģë¦¬": 1363,
      "ìĹĲëıĦ": 1364,
      "ìłĳ": 1365,
      "¬¼": 1366,
      "ëıħ": 1367,
      "ĠìĪĺìĤ¬": 1368,
      "Ġê´ĳ": 1369,
      "íĸ¥": 1370,
      "ëĬĺ": 1371,
      "Ġëĭ¤ìĭľ": 1372,
      "Ġê³ĦìĨį": 1373,
      "ìĿ´ë©´": 1374,
      "ī´ìĬ¤": 1375,
      "ìłķëıĦ": 1376,
      "ĠíĹĪ": 1377,
      "ìĭ¶": 1378,
      "Ġì°į": 1379,
      "Ġë¶Īë": 1380,
      "Ġì§ĵ": 1381,
      "ë¨": 1382,
      "ìķĪë": 1383,
      "ĠìŀĦ": 1384,
      "ĠìĤ¼": 1385,
      "ìĥĪ": 1386,
      "ĠìķĦëĭĮê°Ģ": 1387,
      "ĠëĤł": 1388,
      "Ġìŀ¬ë": 1389,
      "Ġë´": 1390,
      "ëı¼ì§Ģ": 1391,
      "ĠìĿ´ë¯¸": 1392,
      "įĶ": 1393,
      "ì¸": 1394,
      "Ġíİ¸": 1395,
      "ìķ¼ë": 1396,
      "ĠìĻĢ": 1397,
      "ìķĦìķ¼": 1398,
      "Ġë§Ĳê³ł": 1399,
      "Ġìĺ¨": 1400,
      "ĠêµŃë¯¼ìĿĺ": 1401,
      "ĠìĤ¬ê¸°": 1402,
      "Ġì¡°ìĦł": 1403,
      "íħĲ": 1404,
      "ĠêµŃíļĮ": 1405,
      "Ġíĥľ": 1406,
      "Ġë³´ë©´": 1407,
      "Ġê³µìĤ°": 1408,
      "ëįĶëĭĪ": 1409,
      "íĻľ": 1410,
      "ĠíļĮ": 1411,
      "ë¦½": 1412,
      "İĺ": 1413,
      "Ġìĸ´ì©": 1414,
      "Ġë¬¸ìŀ¬ìķĻ": 1415,
      "ĠíĴ": 1416,
      "ë¥´ë": 1417,
      "ì£¼ê³ł": 1418,
      "ìĸ´ëĿ¼": 1419,
      "ľ´": 1420,
      "ìķĦëĿ¼": 1421,
      "Ġê°Ī": 1422,
      "????": 1423,
      "Ġãħ¡": 1424,
      "ĠëĬĲ": 1425,
      "íĸĪëĭ¤": 1426,
      "íķµ": 1427,
      "Ġì¢ĭìĿĢ": 1428,
      "ê°ĢìĦľ": 1429,
      "Ħë¥¼": 1430,
      "ê·¼íĺľ": 1431,
      "Ġëª¨ëĳĲ": 1432,
      "ìĻ¸": 1433,
      "Ġíķ´ìķ¼": 1434,
      "Ġëª¨ëĵł": 1435,
      "¶ģ": 1436,
      "ìĿµ": 1437,
      "ĠOOO": 1438,
      "ë§ŀ": 1439,
      "^^": 1440,
      "ĠìķĦìĿ´": 1441,
      "ìķĮ": 1442,
      "Ġíģ°": 1443,
      "Ġëħ¸ë": 1444,
      "¼ë¦¬": 1445,
      "êµ¬ë§Į": 1446,
      "ëĪ": 1447,
      "Ġ?": 1448,
      "íĨł": 1449,
      "ìĦ¸ë": 1450,
      "Ġì±ħìŀĦ": 1451,
      "Ġíķĺë©´": 1452,
      "ëĬĶê±´": 1453,
      "íĮĶ": 1454,
      "ê°Ģì§Ģ": 1455,
      "ëħĢ": 1456,
      "ëĺ": 1457,
      "ĠìĹ´": 1458,
      "Ġë²Ķì£Ħ": 1459,
      "ì£½": 1460,
      "ĠëĨĢ": 1461,
      "ĠìĿ´ìľł": 1462,
      "ĠìłĪëĮĢ": 1463,
      "ĲĲ": 1464,
      "ĠìĻĦ": 1465,
      "ê°±ìĿ´": 1466,
      "Ġíķ©": 1467,
      "ĠìĤ¬ìĭ¤": 1468,
      "Ġì·¨": 1469,
      "Ġê²½ì°°": 1470,
      "ĸìĹĲ": 1471,
      "íķĺê¸°": 1472,
      "ìĪĺê°Ģ": 1473,
      "ĠìŀĲìľł": 1474,
      "Ġíķ´ëĿ¼": 1475,
      "Ġê¼Ń": 1476,
      "ĠëĦ¤": 1477,
      "ìĹĨìĿ´": 1478,
      "ìĽĢ": 1479,
      "ĠëĭĪê°Ģ": 1480,
      "ë§ĪëĿ¼": 1481,
      "ãħīãħī": 1482,
      "ì¦ĺ": 1483,
      "´ëı": 1484,
      "ĩĮ": 1485,
      "ë´": 1486,
      "ãħ¡ãħ¡": 1487,
      "ìĭŃ": 1488,
      "¶Ħ": 1489,
      "ëĸ": 1490,
      "íķĺëĭĪ": 1491,
      "ĠëĤ´ê°Ģ": 1492,
      "Ġ6": 1493,
      "ìľ¡": 1494,
      "ë§ĮìĽĲ": 1495,
      "ëĳ": 1496,
      "ìķĦëĭĪ": 1497,
      "ê¾¼": 1498,
      "ĠëıĦë": 1499,
      "Ġë§ĲìĿ´": 1500,
      "íķĺëĿ¼": 1501,
      "Ġê·¼ëį°": 1502,
      "ĠíĮĶ": 1503,
      "ë¡ł": 1504,
      "ĠìķĦì§ģëıĦ": 1505,
      "ì§Ĳ": 1506,
      "ì¶©": 1507,
      "ìĿ´ëĿ¼ëıĦ": 1508,
      "ê¸°ìĹĲ": 1509,
      "íĬ¸ë": 1510,
      "ħ¸": 1511,
      "ìĭľì¼ľ": 1512,
      "ĠëĤĺëĿ¼ê°Ģ": 1513,
      "Ġë§İìĿĢ": 1514,
      "§Ŀ": 1515,
      "Ġìĸ¸ìłľ": 1516,
      "ĠíĥĦ": 1517,
      "ìĤ¬ë¥¼": 1518,
      "Ġì±": 1519,
      "íı¬": 1520,
      "íĪ¬": 1521,
      "Ġìķ½": 1522,
      "²ł": 1523,
      "ĠìĦľìļ¸": 1524,
      "Ł¬ë": 1525,
      "Ġíı¬": 1526,
      "Īëģ¼": 1527,
      "ìĻĶ": 1528,
      "ìĥī": 1529,
      "ĠëıĮìķĦ": 1530,
      "ìĸ´ëĤĺ": 1531,
      "Ġíķ¨": 1532,
      "íĴĪ": 1533,
      "íħĲëį°": 1534,
      "ĠìĤ¬ëŀĮëĵ¤": 1535,
      "~~~~": 1536,
      "ëĤĺëĿ¼": 1537,
      "íĥĦ": 1538,
      "ĠìĨĮë¦¬": 1539,
      "Ġë¹ł": 1540,
      "íķĺìĭľ": 1541,
      "ê°ĻìĿ´": 1542,
      "°Ľ": 1543,
      "ë°±": 1544,
      "į¼": 1545,
      "Ġëĭ¹ìĹ°": 1546,
      "ĠìĹŃìĭľ": 1547,
      "ĠìķĮê³ł": 1548,
      "ĠìĶ": 1549,
      "ì°Į": 1550,
      "ĠìĹ¬ìŀĲ": 1551,
      "¸ëł¥": 1552,
      "ëĭ¤ëĭĪ": 1553,
      "ĠíĶ¼íķ´": 1554,
      "ë¹ł": 1555,
      "ë¦¬ë¥¼": 1556,
      "ì°¬": 1557,
      "ł¤ê³ł": 1558,
      "ìĪł": 1559,
      "Ġë³´ìĪĺ": 1560,
      "Ġì¢ĭìķĦ": 1561,
      "ëĬĶê²ĥ": 1562,
      "Ġë¬´ëĬ¥": 1563,
      "ìĤ¬ê°Ģ": 1564,
      "íķĺë©´ìĦľ": 1565,
      "Ġë³ĳ": 1566,
      "ê¸°ë¥¼": 1567,
      "ĠëĭĪëĵ¤": 1568,
      "ãħľ": 1569,
      "Įį": 1570,
      "ĠìĤ´ë": 1571,
      "ëıĻìĤ°": 1572,
      "ìĹĨëĭ¤": 1573,
      "Ġíķľë²Ī": 1574,
      "ê±°ëĭ¤": 1575,
      "--": 1576,
      "Ġë¯¸ì¹ľ": 1577,
      "Ġë¨¼": 1578,
      "ì°¸": 1579,
      "íĺģ": 1580,
      "ĠëĮĢìĦł": 1581,
      "Ġìĵ": 1582,
      "ĠìĽĶ": 1583,
      "Ġ..": 1584,
      "ĠíĻĺ": 1585,
      "íķĺìŀĲ": 1586,
      "ê±°ë¦¬": 1587,
      "ª¨": 1588,
      "Ġë°Ķë¡ľ": 1589,
      "Ġê¸Ī": 1590,
      "ĠìłķìĿĺ": 1591,
      "ì½Ķ": 1592,
      "ĠìĿ´ê±´": 1593,
      "Ġê·¸ëŀĺìĦľ": 1594,
      "êµ´": 1595,
      "ë§Īë": 1596,
      "Ĥ´ë": 1597,
      "ìłł": 1598,
      "ëıĮ": 1599,
      "ëĵ¤ìĸ´": 1600,
      "ëĶĶ": 1601,
      "¹Ħ": 1602,
      "íķľëĭ¤ê³ł": 1603,
      "íĩ´": 1604,
      "Ġíķľìĭ¬": 1605,
      "ìª½": 1606,
      "ìĿ´ëŀĳ": 1607,
      "Ġê·¸ê²Į": 1608,
      "Ġíĺ¸": 1609,
      "Ġíĺķ": 1610,
      "ĠìĹ¬ê¸°": 1611,
      "ĠðŁ": 1612,
      "ê±°ì§Ģ": 1613,
      "ĠìķĦì£¼": 1614,
      "¸ëŀĺ": 1615,
      "ĠëĬĺ": 1616,
      "Ġ\"": 1617,
      "ê¾¸": 1618,
      "Ġ100": 1619,
      "Ġëľ": 1620,
      "ĠìĿ´íķ´": 1621,
      "ìĻľ": 1622,
      "Ġê°Ģì¡±": 1623,
      "ë¬´ìĽĲ": 1624,
      "ë¦Ħ": 1625,
      "ìĿ´ëĭĪ": 1626,
      "ìį¨": 1627,
      "ì´Ī": 1628,
      "íĭ°": 1629,
      "°©": 1630,
      "Ġëĳ": 1631,
      "ê±´ëį°": 1632,
      "ìħ¨": 1633,
      "Ġë°ķê·¼íĺľ": 1634,
      "ķħ": 1635,
      "íķĺëĬĶê²Į": 1636,
      "ìĿ¸ëĵ¤": 1637,
      "Ġë¶Ģëª¨": 1638,
      "Ġê·¸ëłĩ": 1639,
      "ĠìĦłëıĻ": 1640,
      "ìĦ±ìĿ´": 1641,
      "Ġê²°êµŃ": 1642,
      "ĠìĤ°": 1643,
      "ĠíıĲ": 1644,
      "ĠëĮĢê¹¨ë¬¸": 1645,
      "Ġëĸ¨ìĸ´": 1646,
      "ê·¹": 1647,
      "íĽĪ": 1648,
      "ëıĻìķĪ": 1649,
      "ëĦĺ": 1650,
      "ëª©": 1651,
      "ì²´ê°Ģ": 1652,
      "ëĭ¹ìĿ´": 1653,
      "Ġë¬¼ë": 1654,
      "ì¢ĭ": 1655,
      "Ġìłĳ": 1656,
      "ëĤ´ë": 1657,
      "ê´ĳ": 1658,
      "ì²łìĪĺ": 1659,
      "Ġë¶ĢëıĻìĤ°": 1660,
      "Ĳľëĭ¤": 1661,
      "ì²´ë": 1662,
      "Ġìłķì±ħ": 1663,
      "Ġë§Īë": 1664,
      "´ëıĻ": 1665,
      "Ġë¹¨ê°±ìĿ´": 1666,
      "ìĻĢìĦľ": 1667,
      "Ġê¸Ģ": 1668,
      "Ġìī": 1669,
      "Ġê¹¨": 1670,
      "ĩ¼": 1671,
      "Ġ...": 1672,
      "Ġìļ´": 1673,
      "ì£¼ëĬĶ": 1674,
      "ìĿ´ìĥģ": 1675,
      "Ġëĭ¬": 1676,
      "ĠìĿĮ": 1677,
      "Ġì¡°ìĤ¬": 1678,
      "ëĬĶê±°ì§Ģ": 1679,
      "íıī": 1680,
      "ìĺ¥": 1681,
      "ĠìľĦíķ´": 1682,
      "ĠìŀĲìĭĿ": 1683,
      "ĠëŃĲê°Ģ": 1684,
      "Ġë¹¨ë¦¬": 1685,
      "........": 1686,
      "ìĻĢëĮĢ": 1687,
      "íĺ¼": 1688,
      "ì°©": 1689,
      "ìļķ": 1690,
      "ĠìĿ¸ë": 1691,
      "ìŀĺ": 1692,
      "ì§ĢìķĬ": 1693,
      "ĠìĪľ": 1694,
      "ĠìķĦëĭĪëĭ¤": 1695,
      "ì£¼ìĦ¸ìļĶ": 1696,
      "Ġêµ¬ë": 1697,
      "ì¹ĺê³ł": 1698,
      "¸ëĿ¼": 1699,
      "ë§ī": 1700,
      "Ġì¡°ìŀĳ": 1701,
      "ŀĢ": 1702,
      "ì±": 1703,
      "ĠíĭĢ": 1704,
      "ãħĭãħĭãħĭãħĭãħĭãħĭãħĭãħĭãħĭãħĭãħĭãħĭãħĭãħĭãħĭãħĭ": 1705,
      "ĠëķĮë¬¸ìĹĲ": 1706,
      "ìĬ¤íģ¬": 1707,
      "ĠìĹĨìĸ´": 1708,
      "ĠíĮ¨": 1709,
      "ĠìŀĲìĭł": 1710,
      "ĠêµŃë¯¼ìĿ´": 1711,
      "ê±°ëĤĺ": 1712,
      "Ġê¼´": 1713,
      "ê²łëĥĲ": 1714,
      "ĠëįĶë¶Ī": 1715,
      "Ħëł": 1716,
      "ì§ķ": 1717,
      "Ġê±¸": 1718,
      "Ġê·¹": 1719,
      "Ġê°ľëı¼ì§Ģ": 1720,
      "ĠìĿ¸ìłķ": 1721,
      "ê¸°ê°Ģ": 1722,
      "ĠêµŃë¯¼ëĵ¤ìĿ´": 1723,
      "Ġìĸ´ëĸ¤": 1724,
      "ĠêµŃë¯¼ìĿĦ": 1725,
      "ì¹´": 1726,
      "Ġë¹Ħë": 1727,
      "ê°Ķ": 1728,
      "ëįĺëį°": 1729,
      "Ġì¶©": 1730,
      "ĠìŀĪëĬĶëį°": 1731,
      "Ġë»Ķ": 1732,
      "Ġìļ©": 1733,
      "Ġì°¾": 1734,
      "ĠìĹĨê³ł": 1735,
      "¸Į": 1736,
      "ìłķìĿĢ": 1737,
      "íľ´": 1738,
      "ë³Ģ": 1739,
      "Ġíķ©ëĭĪëĭ¤": 1740,
      "ìģľ": 1741,
      "ê¸°ëıĦ": 1742,
      "ĠìĭĿ": 1743,
      "Ġê°ĻìĿ´": 1744,
      "ĠìłķëıĦ": 1745,
      "Ġê±°ì§ĵë§Ĳ": 1746,
      "¹ł": 1747,
      "ì¤ĢìĦĿ": 1748,
      "Ġ7": 1749,
      "©´ìĦľ": 1750,
      "Ġìĸ¼": 1751,
      "Ġê·¸ëŁ¬ë": 1752,
      "ì¤ĳìĹĲ": 1753,
      "Ġê¸°ìŀĲ": 1754,
      "ìłĦìĹĲ": 1755,
      "ìŀ¥ìĿ´": 1756,
      ";;": 1757,
      "ê²ĥìĿ´": 1758,
      "ê³³": 1759,
      "Ġãħł": 1760,
      "ìĭľê³ł": 1761,
      "Ġì§±": 1762,
      "ê¿": 1763,
      "ĠëĪĦêµ¬": 1764,
      "ìĨĲ": 1765,
      "Ġì§ľ": 1766,
      "Ġìĭľìŀĳ": 1767,
      "ìĬ¤ëŁ½": 1768,
      "ìĤ¬ëĬĶ": 1769,
      "±ìłķ": 1770,
      "Ġ~": 1771,
      "Ġë°ĺëĮĢ": 1772,
      "Ġê¶Įëł¥": 1773,
      "ĠëĭĪëĵ¤ìĿ´": 1774,
      "ëĤĺìļĶ": 1775,
      "íĮħ": 1776,
      "ĠëĶ±": 1777,
      "ê²ĥëĵ¤": 1778,
      "ë¦¬ê°Ģ": 1779,
      "ĠìļĶì¦ĺ": 1780,
      "ëĭ¤ë©´": 1781,
      "ìķĻìĿ´": 1782,
      "Ġë§ĪìĿĮ": 1783,
      "ìħĶ": 1784,
      "Ġë°Ŀ": 1785,
      "ìĽĥ": 1786,
      "Ĥ¨": 1787,
      "êº¼": 1788,
      "¶ĢíĦ°": 1789,
      "Ġì¡´": 1790,
      "Ġê³µë¬´ìĽĲ": 1791,
      "Ġì²ĺë²Į": 1792,
      "Ġì²ŃìĻĢëĮĢ": 1793,
      "íļ": 1794,
      "íģ¼": 1795,
      "Ġìª½": 1796,
      "ĠëıĦëĮĢ": 1797,
      "ëłĩ": 1798,
      "ĠìĻĦìłĦ": 1799,
      "ìĶ©": 1800,
      "ĠíķŃ": 1801,
      "Ġãħĭãħĭãħĭãħĭãħĭ": 1802,
      "ì§Ģë§Ĳê³ł": 1803,
      "Ġìłķìĥģ": 1804,
      "Ġë°¥": 1805,
      "ì²Ļ": 1806,
      "ĠìķĦë¬´": 1807,
      "ìĿ´ëŀĢ": 1808,
      "Ġì§Ģì§Ģìľ¨": 1809,
      "ì¹ĺëĬĶ": 1810,
      "Ġë³¸ìĿ¸": 1811,
      "ìĭ¸": 1812,
      "ëģĦë": 1813,
      "ĠìĤ¬ëŀĮëĵ¤ìĿ´": 1814,
      "ëŁ¬ìļ´": 1815,
      "ëĭ´": 1816,
      "ê²¬": 1817,
      "Ġë¨¸": 1818,
      "ĠíĽĦë³´": 1819,
      "»¤": 1820,
      "ìĿ´ëĿ¼ëĬĶ": 1821,
      "ĠìĥģíĻ©": 1822,
      "Ġê±¸ë": 1823,
      "ĠíĥĦíķµ": 1824,
      "©°": 1825,
      "ê²ģ": 1826,
      "ì¡°ê±´": 1827,
      "Ġì´Ī": 1828,
      "ĠíĤ": 1829,
      "Ġìį¨": 1830,
      "ëŀĦ": 1831,
      "Ġê¸°ìĹħ": 1832,
      "ë³Ħ": 1833,
      "ë§İ": 1834,
      "ĠêµŃíļĮìĿĺìĽĲ": 1835,
      "Ġëĭ¤ìĿĮ": 1836,
      "ëĨĵê³ł": 1837,
      "Ġãħīãħī": 1838,
      "ì§Ģê°Ģ": 1839,
      "Ĳ¨": 1840,
      "ĠëĬ¥": 1841,
      "ìķĦë¨¹": 1842,
      "ëłĩê²Į": 1843,
      "íķĺìĹ¬": 1844,
      "ĠìĦ¸ê³Ħ": 1845,
      "ĠìĿ´ì¤ĢìĦĿ": 1846,
      "°°": 1847,
      "ĠìķĪì²łìĪĺ": 1848,
      "ĠìĿ´ê±°": 1849,
      "ĠìłĦë¶Ģ": 1850,
      "ĠëıĦëĮĢì²´": 1851,
      "ĠìķĦëĭĺ": 1852,
      "ëĤ¨ë¶Ī": 1853,
      "ë³´ê³ł": 1854,
      "Ġë©į": 1855,
      "ĠëĤĺëĿ¼ë¥¼": 1856,
      "Ġì§Ģëĵ¤": 1857,
      "Ġë¨¼ìłĢ": 1858,
      "ëįĶëĿ¼": 1859,
      "ëŁ¬ë": 1860,
      "¸ëĮĢ": 1861,
      "°Ķ": 1862,
      "ë¬´ë": 1863,
      "ìĭľê°Ħ": 1864,
      "ãħĩ": 1865,
      "ê¹Ŀ": 1866,
      "ìĹĪëĬĶëį°": 1867,
      "ì·¨": 1868,
      "Ġìĸµ": 1869,
      "ëģ¼": 1870,
      "Ġê³µìłķ": 1871,
      "ìŀĪëĭ¤": 1872,
      "Ġëĳĺ": 1873,
      "Ġì§ĢìĽĲ": 1874,
      "ĠêµŃíŀĺ": 1875,
      "ĠìĤ´ìķĦ": 1876,
      "´ĲëĿ¼": 1877,
      "ĠìĿ´ëŁ¬": 1878,
      "ëł¨": 1879,
      "ì°į": 1880,
      "ê¸°ìĹħ": 1881,
      "íĶĮ": 1882,
      "Ġ8": 1883,
      "Ġì§ķ": 1884,
      "§Ī": 1885,
      "ĠìĿ´ìļ©": 1886,
      "ëŃ": 1887,
      "Ġê·Ģ": 1888,
      "Ġ9": 1889,
      "Ġìį©": 1890,
      "ĠëĩĮ": 1891,
      "Ġ,": 1892,
      "Ġìĸĺê¸°": 1893,
      "ìĿĳ": 1894,
      "âĢ¦": 1895,
      "ĠíĻ©": 1896,
      "Ġíŀĺëĵ¤": 1897,
      "ĠëĮĢëĭ¨": 1898,
      "**": 1899,
      "ê°Ģê³ł": 1900,
      "Ġêµ¬ìĨį": 1901,
      "ĠìłĲ": 1902,
      "Ġê·¸ëŀĺëıĦ": 1903,
      "íĥĵ": 1904,
      "²Į": 1905,
      "Ġìĸ´ì©Į": 1906,
      "Ġì¹ľìĿ¼": 1907,
      "Ġë¨¸ë¦¬": 1908,
      "Ġë³´ìĹ¬": 1909,
      "ĠìĿĳìĽĲ": 1910,
      "ê±´ê°Ģ": 1911,
      "ìĦłê±°": 1912,
      "ĠìķĦëĭĪë©´": 1913,
      "Ġëį°": 1914,
      "Ġì§ĳê°Ĵ": 1915,
      "ĠìĤ¬ê³¼": 1916,
      "ì¯": 1917,
      "íķĺìĦ¸ìļĶ": 1918,
      "Ġë¬´ì¡°ê±´": 1919,
      "Ġíķµ": 1920,
      "ħĦ": 1921,
      "ĠìĪł": 1922,
      "Ġë³µ": 1923,
      "íķĺë©°": 1924,
      "ĠìĹ¬ë¡ł": 1925,
      "Ġëī´ìĬ¤": 1926,
      "ĠìłĦëĿ¼ëıĦ": 1927,
      "íĻķ": 1928,
      "ë¦´": 1929,
      "Ġê°ĢëĬ¥": 1930,
      "íķ´ìķ¼ì§Ģ": 1931,
      "ĠìĥĪ": 1932,
      "ëĶ°": 1933,
      "Ġê±±ìłķ": 1934,
      "ĠìŀĪëĤĺ": 1935,
      "Ġê²ĢìĤ¬": 1936,
      "ĠìĤ¬ê³ł": 1937,
      "ĠëĨĴ": 1938,
      "íĥĪ": 1939,
      "íĸĪëĬĶëį°": 1940,
      "ëĵ¤ìĹĲê²Į": 1941,
      "Ġë³Ħ": 1942,
      "Ġê°ĳ": 1943,
      "ëĭ¹ìĿĢ": 1944,
      "¡ľëĤ¨ë¶Ī": 1945,
      "ì¢Į": 1946,
      "ĠíĻĶìĿ´": 1947,
      "¬ëŀĳ": 1948,
      "Ġì¥": 1949,
      "ê¼´": 1950,
      "ãĦ·": 1951,
      "Ġìĸ´ëĬĲ": 1952,
      "ë¨¸": 1953,
      "íķŃ": 1954,
      "ĠíķĺëĬĶëį°": 1955,
      "Ġíİĺ": 1956,
      "Ġë§ĪìĬ¤íģ¬": 1957,
      "ëĲĺë©´": 1958,
      "Ġë§Įëĵ¤ìĸ´": 1959,
      "ĠìĿ´ìłł": 1960,
      "ĠìŀĪìĿĦ": 1961,
      "³ĳ": 1962,
      "ĠíĥĪ": 1963,
      "ĠìĹĦì²Ń": 1964,
      "Ġë°©ìĹŃ": 1965,
      "Ġë°Ģ": 1966,
      "ëĢ": 1967,
      "Ġìĸ´ì°Į": 1968,
      "ĠãĦ´": 1969,
      "ĠëĲĺëĬĶ": 1970,
      "Īë¡ľ": 1971,
      "ãħłãħł": 1972,
      "ëĭĮ": 1973,
      "Ġê²ĥìĿ´": 1974,
      "ë»Ķ": 1975,
      "Ġìķŀìľ¼ë¡ľ": 1976,
      "ĠìĭľíĤ¤": 1977,
      "ìĿ¸ê°Ħ": 1978,
      "ĠíĺĦìĭ¤": 1979,
      "íķľëį°": 1980,
      "ĠíĤ¤": 1981,
      "ìłĦë": 1982,
      ",,,": 1983,
      "ë¨¹ê³ł": 1984,
      "ĠìĹ¬ìĦ±": 1985,
      "Ġíķĺë£¨": 1986,
      "ĠíĴĢ": 1987,
      "ëĲł": 1988,
      "ĠëĤ¨ìŀĲ": 1989,
      "ìĬ¤ë¡ľ": 1990,
      "¦¼": 1991,
      "Ġ!": 1992,
      "ëŀį": 1993,
      "Ġëª»íķľ": 1994,
      "ê²ĥìĿ´ëĭ¤": 1995,
      "Ġìĭľê°Ħ": 1996,
      "ĠëĦĮ": 1997,
      "ĠëĤ´ëł¤": 1998,
      "Ġëª¨ë¥´ëĬĶ": 1999,
      "ì¤Ģíĳľ": 2000,
      "ìĹ¬ë": 2001,
      "ê³¼ë": 2002,
      "Ġë°ĽìķĦ": 2003,
      "ĠëĮĢíĨµëł¹ìĿ´": 2004,
      "Ġê°ģ": 2005,
      "ìī": 2006,
      "Ġíķ´ëıĦ": 2007,
      "Ġãħİãħİ": 2008,
      "Ġì¤ĳìļĶ": 2009,
      "íķłìĪĺ": 2010,
      "Ġê°Ģìŀ¥": 2011,
      "ë³´ë©´": 2012,
      "íķĺê²ł": 2013,
      "ĠëıĪë": 2014,
      "ĠëĦĪíĿ¬": 2015,
      "Ġíĺĳ": 2016,
      "ëĿ¼ìĿ´": 2017,
      "Ġìµľê³ł": 2018,
      "Ġê°Ģì§Ģê³ł": 2019,
      "ìĥĿê°ģ": 2020,
      "ĠìĤ¬ê±´": 2021,
      "ëŁī": 2022,
      "ĠìłģíıĲ": 2023,
      "ê¸°ê³ł": 2024,
      "ìĭľìŀ¥": 2025,
      "Ġëĭ¤ëĭĪ": 2026,
      "Ġê²ĥìĿ´ëĭ¤": 2027,
      "Ġë¶Ģìłķ": 2028,
      "Ġë¬´ìĭĿ": 2029,
      "ì²ľì§Ģ": 2030,
      "Ġëĵ£": 2031,
      "Ġê¸ī": 2032,
      "ĠëĨĵ": 2033,
      "ĠìĿĢ": 2034,
      "Ġê¶ģ": 2035,
      "ĠìŀĪëĦ¤": 2036,
      "ĠíĦ°": 2037,
      "Ġê°ĸ": 2038,
      "¦Ħ": 2039,
      "ĠëĤ´ë¡ľëĤ¨ë¶Ī": 2040,
      "ì¸µ": 2041,
      "Ġìŀ¥ê´Ģ": 2042,
      "íĶĦë¡ľ": 2043,
      "ĠëĿ¼": 2044,
      "Ġêº": 2045,
      "ĠíķĺëĬĶê±°": 2046,
      "ê±´ì§Ģ": 2047,
      "ĠíĸīëıĻ": 2048,
      "íŀĪë": 2049,
      "Ġê°Ģì§ľ": 2050,
      "Ġ30": 2051,
      "íĤ¨": 2052,
      "ìķĺëĭ¤": 2053,
      "Ġë°©ìĨ¡": 2054,
      "Ġê·¸ë¦¬": 2055,
      "Ġì¢Įë¹¨": 2056,
      "Ġë§Įëĵł": 2057,
      "ê¹Ģ": 2058,
      "ê°ĳ": 2059,
      "Ġ50": 2060,
      "³Ģ": 2061,
      "ëĭ¥": 2062,
      "³´ëĭ¤": 2063,
      "ìĮį": 2064,
      "Ġ'": 2065,
      "Ħë³´ë": 2066,
      "Ġíķ´ìĦľ": 2067,
      "ĠìĹĨìĿ´": 2068,
      "ìķĦìļĶ": 2069,
      "ìĵ": 2070,
      "ĠìĨĶ": 2071,
      "ĠìĹħ": 2072,
      "ëıĦë¡Ŀ": 2073,
      "Ġë¨¹ê³ł": 2074,
      "Ġì§ĳëĭ¨": 2075,
      "Ġì«": 2076,
      "ĠëĬ¥ëł¥": 2077,
      "Ġëĥ": 2078,
      "ĠáĨ¢": 2079,
      "ëĵ¤ë§Į": 2080,
      "ĠìĬ¹": 2081,
      "ĠëĲľëĭ¤": 2082,
      "ĠëĤĺëıĦ": 2083,
      "ĠìķĦëĭĪëĥĲ": 2084,
      "gt": 2085,
      "ìŀĲë¥¼": 2086,
      "ĠìłĦìŁģ": 2087,
      "Ł¼": 2088,
      "ĠìķĦë¬´ë¦¬": 2089,
      "ìĤ´ë": 2090,
      "ĠíĹĽ": 2091,
      "ĠëĤĺìģľ": 2092,
      "ëł¬": 2093,
      "ĠíĦ": 2094,
      "êµŃê°Ģ": 2095,
      "Ġë¿Ĳ": 2096,
      "ê·ľ": 2097,
      "ì²©": 2098,
      "ë¯¸ìķł": 2099,
      "ìŀĲëĵ¤ìĿ´": 2100,
      "ìĹĩ": 2101,
      "ĠìłĢëłĩê²Į": 2102,
      "íĺ¹": 2103,
      "ĠìŀĲíķľ": 2104,
      "ìĺ¬": 2105,
      "ê¹Ĳ": 2106,
      "Ġì¦Ŀê±°": 2107,
      "ĠëĶ°ëĿ¼": 2108,
      "ĠìĿ¼ë°ĺ": 2109,
      "Ġíļ": 2110,
      "ĠëĤĺìĺ¨": 2111,
      "Ġê²ģ": 2112,
      "//": 2113,
      "ĠìĦľë¯¼": 2114,
      "ëĵľìĭľ": 2115,
      "ĠìĦĿ": 2116,
      "ĬìĿĢ": 2117,
      "ëĮĢíĳľ": 2118,
      "ìľ¤": 2119,
      "ĠëģĮ": 2120,
      "ĠíĻįì¤Ģíĳľ": 2121,
      "ëĦĪ": 2122,
      "ìŀĲë¦¬": 2123,
      "ëľ": 2124,
      "Ġê°ĻìĿĢëį°": 2125,
      "Ħëł¤": 2126,
      "......": 2127,
      "Ġë¬¸ì£Ħ": 2128,
      "Ġë§ĺ": 2129,
      "Ġê¸°ëłĪê¸°": 2130,
      "ì¡°ìŀĳ": 2131,
      "ì¹¨": 2132,
      "ĠìĻ¸êµŃ": 2133,
      "Ġë¹¼": 2134,
      "Ġê´ľ": 2135,
      "Ġê·¸ê±¸": 2136,
      "³¤": 2137,
      "Ġê°Ļëĭ¤": 2138,
      "íķĺëįĺ": 2139,
      "ê°Ħëĭ¤": 2140,
      "íķ´ë³´": 2141,
      "íĥģ": 2142,
      "ìĭľë¯¼": 2143,
      "ì¡´": 2144,
      "ìĿ¸ìĿĢ": 2145,
      "ìĦŃ": 2146,
      "Ġê¿": 2147,
      "ëĨ": 2148,
      "ĠìķĦíĮĮ": 2149,
      "ê±°ìķ¼": 2150,
      "Ġíĺ¼": 2151,
      "ëĮĢê°Ģ": 2152,
      "ì§Īë": 2153,
      "íķľê²Į": 2154,
      "ĠìłĦìĦ¸": 2155,
      "ìĥĪëģ¼": 2156,
      "Ġìĺ¤ëĬĺ": 2157,
      "ìĺ¬ë": 2158,
      "ì§Ģì§Ģ": 2159,
      "ĠìĿ´ìķ¼": 2160,
      "ĠíĻķì§Ħ": 2161,
      "Ĳ©ëĭĪëĭ¤": 2162,
      "ĠìĤ¬íĺķ": 2163,
      "Ġë¶Īë²ķ": 2164,
      "Ġê¸¸": 2165,
      "ŀĳ": 2166,
      "ĠêµŃì§Ĳ": 2167,
      "Ġë¬¸ë": 2168,
      "Ġëĵ¯": 2169,
      "Ġê³¨": 2170,
      "ìŀ¥ê´Ģ": 2171,
      "Ġë©´": 2172,
      "Ġì§ĢìĹŃ": 2173,
      "Ġê³µê°ľ": 2174,
      "íĽĦë³´": 2175,
      "ìĽĲìĿ´": 2176,
      "ĠìķĶ": 2177,
      "ĠìĤ¬ëŀĮìĿĢ": 2178,
      "ìĹĲìĦľëĬĶ": 2179,
      "Ġìĭľë¯¼": 2180,
      "ĠìĤ¼ìĦ±": 2181,
      "ëķĮë¬¸ìĹĲ": 2182,
      "ìĹ¼": 2183,
      "ìĿĦëķĮ": 2184,
      "ĮĢë¡ľ": 2185,
      "ĠíĪ¬íĳľ": 2186,
      "Ġê°ľìĿ¸": 2187,
      "ĠìĹĨìķł": 2188,
      "ë°ĸìĹĲ": 2189,
      "Ġê·¼": 2190,
      "Ġì±Ļ": 2191,
      "ìłķìĭł": 2192,
      "ëĲĺëĬĶ": 2193,
      "Ġì°¢": 2194,
      "ĠìķĪë³´": 2195,
      "ĠìĤ¬ëĿ¼": 2196,
      "Ł½": 2197,
      "Ġìĺ¬ëĿ¼": 2198,
      "°ķ": 2199,
      "ĠãħĪ": 2200,
      "ì§Ģë§ĪëĿ¼": 2201,
      "ì¼Ģ": 2202,
      "Ġê°ĲìĤ¬": 2203,
      "ë¥ĺ": 2204,
      "Ġë¯¸ëŀĺ": 2205,
      "ìĪĺëıĦ": 2206,
      "ĠìĿ´ëŀĺ": 2207,
      "ê·Ģ": 2208,
      "ë¯¼ì£¼": 2209,
      "ëĬĶê±°ìķ¼": 2210,
      "ĠëĮĢíĳľ": 2211,
      "Ġì°©": 2212,
      "ë¥´ê³ł": 2213,
      "ê²¹": 2214,
      "ìĭ¬íŀĪ": 2215,
      "ĠìŀĪìľ¼ë©´": 2216,
      "ëĵľëĬĶ": 2217,
      "§Ĳ": 2218,
      "ëĪĦ": 2219,
      "ì¶ķ": 2220,
      "ĠìĿ¸ìĥĿ": 2221,
      "Ġìķķ": 2222,
      "Ġìŀł": 2223,
      "Ġë§ŀëĬĶ": 2224,
      "ìķĦì¹ĺ": 2225,
      "Ġê³³": 2226,
      "Ġê´Ģìĭ¬": 2227,
      "¬ëĭ¤": 2228,
      "Ġìłĳì¢ħ": 2229,
      "Ġë³´ëĤ´": 2230,
      "ìĿ´ëĵł": 2231,
      "ê²ĥëĵ¤ìĿ´": 2232,
      "ĠíĻķìĭ¤": 2233,
      "Ġë©Ģ": 2234,
      "ì°¨íĶ¼": 2235,
      "Ġì¹´": 2236,
      "¿Į": 2237,
      "ĠëĭĪëĦ¤": 2238,
      "íı°": 2239,
      "íķĺëł¤": 2240,
      "ĠìķĪëĲĺëĬĶ": 2241,
      "ìĽħ": 2242,
      "Ġì°Į": 2243,
      "ì±Ħ": 2244,
      "ì³¤": 2245,
      "Ġëª¸": 2246,
      "íİ": 2247,
      "ê¸Īë": 2248,
      "ë³´ëĦ¤": 2249,
      "Ġì§Ģì¼ľ": 2250,
      "Ġì¡°ìļ©": 2251,
      "Ġíį¼": 2252,
      "ì°®": 2253,
      "ãĦ±": 2254,
      "ĠìĤ¬íĩ´": 2255,
      "ĠìľĦíķľ": 2256,
      "ãħĭãħĭãħĭãħĭãħĭ": 2257,
      "¥´": 2258,
      "Ġëª»íķĺëĬĶ": 2259,
      "Ġì§Ħìłķ": 2260,
      "ì§¸": 2261,
      "Ġë©Ķ": 2262,
      "Ġìĸ¼êµ´": 2263,
      "ìĺģìĹħ": 2264,
      "ĠëĤĺëĬĶ": 2265,
      "Ġì¶Ķë¯¸ìķł": 2266,
      "Ġê°Ķ": 2267,
      "ĠìĥģìĭĿ": 2268,
      "Ĥł": 2269,
      "ì¹ł": 2270,
      "Ġìĭľìŀ¥": 2271,
      "ë¿Ĳ": 2272,
      "ĠìŀĪê³ł": 2273,
      "ìĿ¼ìĿ´": 2274,
      "Ġê±°ì§Ģ": 2275,
      "ì¡°ìĤ¬": 2276,
      "Ġê°ĢìĦľ": 2277,
      "íĹĪ": 2278,
      "ì§Ģë©´": 2279,
      "ëĵ¤ê³ł": 2280,
      "Ġíķ´ê²°": 2281,
      "Ġì¶ķ": 2282,
      "Ġìĭľì¼ľ": 2283,
      "ëĮĢíķľ": 2284,
      "Ġë¶ĢëģĦë": 2285,
      "ĠëĦĺìĸ´": 2286,
      "ĠìĹ´ë": 2287,
      "Ġì¹¨": 2288,
      "ë¸Į": 2289,
      "Ġê°Ģë§Į": 2290,
      "Ġë²ł": 2291,
      "Ġì§ĢëĤĺ": 2292,
      "Ġìĩ¼": 2293,
      "ãħħ": 2294,
      "ĠìĶ¨": 2295,
      "ĠìĦ¸ìĽĶ": 2296,
      "¸Ķ": 2297,
      "ĠìĤ¬ëĬĶ": 2298,
      "Ġëıħìŀ¬": 2299,
      "Ġíĩ´": 2300,
      "Ġìķłëĵ¤": 2301,
      "Ġë§ĲìĿĦ": 2302,
      "Ġì°½": 2303,
      "ĠìĬ¤ìĬ¤ë¡ľ": 2304,
      "ì½": 2305,
      "ëı¼": 2306,
      "Ġë°ĶëĢ": 2307,
      "íķłëķĮ": 2308,
      "ĠëĲĲ": 2309,
      "Ġìı": 2310,
      "Ġìłķë¶Ģê°Ģ": 2311,
      "ìĪĺì²ĺ": 2312,
      "ì§Ŀ": 2313,
      "Ġê¹ĢìłķìĿĢ": 2314,
      "Ġãħħ": 2315,
      "Ġë©įì²Ń": 2316,
      "ĠìĿ¸ê°ĦìĿ´": 2317,
      "ìłķì¹ĺ": 2318,
      "íĺĳ": 2319,
      "Ġë¬¸ìłľê°Ģ": 2320,
      "ĠìķĬëĬĶ": 2321,
      "ëħĲ": 2322,
      "ìĿ´ëĵ¤": 2323,
      "ìŀĶ": 2324,
      "ĠëįĶë¶Īìĸ´": 2325,
      "ĠìłľìĿ¼": 2326,
      "ì§Ħëĭ¤": 2327,
      "ëĶ±": 2328,
      "ìĿ¼ë³´": 2329,
      "ë§Īëĭ¤": 2330,
      "ĠìĤ¬ìĿ´": 2331,
      "ìĸ´ìķ¼ì§Ģ": 2332,
      "íĦ": 2333,
      "Ġë°ĺëĵľìĭľ": 2334,
      "³µ": 2335,
      "Ġìłķê¶ĮêµĲ": 2336,
      "ìĪ¨": 2337,
      "íİĺ": 2338,
      "íĬ¼": 2339,
      "ê±°ëĿ¼": 2340,
      "Ġë»Ķë»Ķ": 2341,
      "íĸĪëĭ¤ê³ł": 2342,
      "Ġêµ°ëĮĢ": 2343,
      "ĠìķĬê³ł": 2344,
      "ê°ĢìļĶ": 2345,
      "ĠìĦłíĥĿ": 2346,
      "ëł´": 2347,
      "ĠìĹ´ìĭ¬íŀĪ": 2348,
      "Ġë°ĿíĺĢ": 2349,
      "íį¼": 2350,
      "Ġìĸ´ì°¨íĶ¼": 2351,
      "ĠìłĪ": 2352,
      "Ġì§Ħìĭ¤": 2353,
      "ĠìķĪíĥĢ": 2354,
      "ĠìŀĪìĹĪ": 2355,
      "ìļ±": 2356,
      "ĠìķĬìĿĢ": 2357,
      "Ġê±´ë": 2358,
      "ëī´ìĬ¤": 2359,
      "Ġë¯¼ë": 2360,
      "Ġë°ĺìĦ±": 2361,
      "¥ìĿ´": 2362,
      "ëĵ¬": 2363,
      "ê³łìĭ¶": 2364,
      "Ġì§Ī": 2365,
      "ĠìĤ¬ë§Ŀ": 2366,
      "ìĭľìķĦ": 2367,
      "ë¥ł": 2368,
      "ĠëįĶëŁ¬ìļ´": 2369,
      "Ġëĭ¬ë": 2370,
      "Ġìłķìĭłë³ĳ": 2371,
      "Ġê°Ĳìĺ¥": 2372,
      "ĠìĪ¨": 2373,
      "Ġê²ĥëıĦ": 2374,
      "ëĨĪëĵ¤": 2375,
      "ĠìłĬìĿĢ": 2376,
      "Ġì²ĺìĿĮ": 2377,
      "ĠìķĪëĲľëĭ¤": 2378,
      "Ġê¸°ë³¸": 2379,
      "ĠíıīìĥĿ": 2380,
      "ãĦ¹": 2381,
      "Ġê·¸ëŁ°ëį°": 2382,
      "Ġì»¤": 2383,
      "ĠìĨĶì§ģ": 2384,
      "Ġíķ´ìķ¼ì§Ģ": 2385,
      "ê°ľíĺģ": 2386,
      "ĠìĤ´ìĿ¸": 2387,
      "ĠìĿ¸ê¶Į": 2388,
      "Ġë¶ĪìĮį": 2389,
      "ĪĦ": 2390,
      "ìĻķ": 2391,
      "Ġìłķìĭłì°¨": 2392,
      "Ġìĭłì²ľì§Ģ": 2393,
      "ĠêµĲìľ¡": 2394,
      "ëĤĺìĦľ": 2395,
      "ë´ĲëĿ¼": 2396,
      "ê°ĸ": 2397,
      "íģ¬ë": 2398,
      "Ġë¬´ìĦľ": 2399,
      "Ġë¬¸ìŀ¬ìĿ¸ìĿ´": 2400,
      "ìľ¼ë©´ìĦľ": 2401,
      "ìķĦëĭĮ": 2402,
      "ìķ¼íķľëĭ¤": 2403,
      "ëĿ¼ë¦¬": 2404,
      "ĠìĽĶê¸ī": 2405,
      "Ġë§¨": 2406,
      "ì¿": 2407,
      "ĠíĮ©": 2408,
      "Ġíħ": 2409,
      "Ġëĭ¤ëĵ¤": 2410,
      "ëł¤ëĿ¼": 2411,
      "ìķŀ": 2412,
      "ê¸°ë¡ľ": 2413,
      "ìĿ´ëŁ¬": 2414,
      "ĠëĮĢêµ¬": 2415,
      "Ġëĭ¹ìŀ¥": 2416,
      "íķĦ": 2417,
      "ê²łì§Ģë§Į": 2418,
      "ìĽĮìĦľ": 2419,
      "ë³´ëĭĪ": 2420,
      "Ġë°ĸìĹĲ": 2421,
      "ìĥģìĿ´": 2422,
      "Ġê³µë¶Ģ": 2423,
      "ĠìķĬìķĺ": 2424,
      "ĠìĥĪëģ¼": 2425,
      "ĠìĤ¬ê¸°ê¾¼": 2426,
      "Ġë¦¬": 2427,
      "ðŁĺ": 2428,
      "ë§ĪëĶĶ": 2429,
      "Ķ°": 2430,
      "Ġíİ": 2431,
      "ë¦¬ì§Ģ": 2432,
      "Ġìĸĳìĭ¬": 2433,
      "Ġëħ¼ë": 2434,
      "Ġëķħ": 2435,
      "ĠìķĪíķĺê³ł": 2436,
      "Ġë³´ëĭ¤": 2437,
      "ĠêµŃë¯¼ëĵ¤ìĿĢ": 2438,
      "ë´ī": 2439,
      "ìłģìĿ´": 2440,
      "ĠíĬ¹ê²Ģ": 2441,
      "Ġê¹ľ": 2442,
      "Ġë¬´ìĭľ": 2443,
      "Ġëª¨ìĬµ": 2444,
      "íķĳ": 2445,
      "ì¦Ī": 2446,
      "Ġìĸ´ëĶĶìĦľ": 2447,
      "ĠíķĺëĦ¤": 2448,
      "¸ëĤĺ": 2449,
      "ĠìĿ´ëĤĺëĿ¼": 2450,
      "Ġë§ĲëıĦ": 2451,
      "ìŀĪëĦ¤": 2452,
      "ĠìŀĲíķľëĭ¹": 2453,
      "Ġìķī": 2454,
      "Ġê²ĥìĿĢ": 2455,
      "ëŀįëĭĪëĭ¤": 2456,
      "Ĳķ": 2457,
      "ĠìŀĲìĺģìĹħ": 2458,
      "ĠëĶ¸": 2459,
      "Ġãħİãħİãħİ": 2460,
      "000": 2461,
      "Ġìĺ¬ëł¤": 2462,
      "Ġ40": 2463,
      "ĠìĤ¶": 2464,
      "Ġê·¸ëķĮ": 2465,
      "Ġíķĺë©´ìĦľ": 2466,
      "ĠëĤ®": 2467,
      "ê²ģëĭĪëĭ¤": 2468,
      "Ġê³µìĪĺì²ĺ": 2469,
      "ĠëĤ«": 2470,
      "Ġê¶ģê¸Ī": 2471,
      "ëĵ¤ê³¼": 2472,
      "Ľ°": 2473,
      "ëĭ¬ëĿ¼": 2474,
      ",,,,": 2475,
      "ĠëĮĢìŀ¥": 2476,
      "ëĬĶê±°ëĭ¤": 2477,
      "Ġë°Ľê³ł": 2478,
      "Ġìŀ¥ëĤľ": 2479,
      "Ġì°¬": 2480,
      "ë¶Ģë¶Ħ": 2481,
      "ëĭ¬ë": 2482,
      "¼ë¡ľ": 2483,
      "ìļ´ëıĻ": 2484,
      "ìĥģëıĦ": 2485,
      "Ġë³´ëĭĪ": 2486,
      "ëŀĢëĭ¤": 2487,
      "Ġë²Ī": 2488,
      "ìĿĢê±°": 2489,
      "Ġìļ°ë¦¬ê°Ģ": 2490,
      "ìĹĲìĦľëıĦ": 2491,
      "ì§Ģë¥¼": 2492,
      "ĠíĨłì°©": 2493,
      "ĠëĴ·": 2494,
      "ëķ": 2495,
      "Ġë´¤": 2496,
      "ĠìķĦíĮĮíĬ¸": 2497,
      "ĠìķĪëĤĺ": 2498,
      "Ġê³µìĤ°ëĭ¹": 2499,
      "ìĭľê¸¸": 2500,
      "Ġëª¨ë¥´ë": 2501,
      "ë¦¼": 2502,
      "Ġëª»íķĺê³ł": 2503,
      "ê°Ģë©´": 2504,
      "ëĮĢíĨµëł¹": 2505,
      "ëĬĶêµ¬ëĤĺ": 2506,
      "ë¹µ": 2507,
      "ì§ĢìļĶ": 2508,
      "âĻ": 2509,
      "ĠíĻĶìĿ´íĮħ": 2510,
      "Ġê½": 2511,
      "ê³¨": 2512,
      "ëģ¼ë¦¬": 2513,
      "Ġíĥĵ": 2514,
      "ĠìŀĪìľ¼ëĭĪ": 2515,
      "ìģĺ": 2516,
      "ĠìĹŃìĤ¬": 2517,
      "Ġë§ĪëĿ¼": 2518,
      "ĠìĤ¬ì§Ħ": 2519,
      "ì¤Į": 2520,
      "Ġëĭ¹ìĹ°íŀĪ": 2521,
      "Ġíİĺë¯¸": 2522,
      "Ġë©ĭ": 2523,
      "ĠíķĻêµĲ": 2524,
      "ĠìĿ´ë¦Ħ": 2525,
      "ĠëĤĺìĿ´": 2526,
      "ìĤ¼": 2527,
      "ðŁĳ": 2528,
      "ì´Ŀìŀ¥": 2529,
      "ĠíĬ¸ë": 2530,
      "ìĪĺì¤Ģ": 2531,
      "ìķķ": 2532,
      "Ġìłķì¹ĺìĿ¸": 2533,
      "ĠìŀĪëĥĲ": 2534,
      "ĠìĿ¸ê°Ħëĵ¤": 2535,
      "ëª°": 2536,
      "ëĭ¤ëĬĶê²Į": 2537,
      "ìŀĲëĤĺ": 2538,
      "ê²ĥìĿĦ": 2539,
      "ĠëĤĺìĻĢ": 2540,
      "ëªħìĿ´": 2541,
      "18": 2542,
      "ê¸°ìĤ¬": 2543,
      "ĠíĮĲëĭ¨": 2544,
      "°ľ": 2545,
      "ĠìłĦë¬¸": 2546,
      "ëĲĲ": 2547,
      "ê·¸ëŀĺ": 2548,
      "ĠëŃĲëĥĲ": 2549,
      "íŀĪëł¤": 2550,
      "ĠëĮĢê°Ģë¦¬": 2551,
      "Ġê±°ê¸°": 2552,
      "Ġì¡°ê¸Ī": 2553,
      "£Į": 2554,
      "ëĲĺê³ł": 2555,
      "ĠìŀĶ": 2556,
      "Ġê·ľ": 2557,
      "ì£¼íĥĿ": 2558,
      "ħ¸ì´Ŀ": 2559,
      "ìł¸ëĿ¼": 2560,
      "ĠëĶĶ": 2561,
      "Ġë¹ĦêµĲ": 2562,
      "ìĭľëĮĢ": 2563,
      "ĦĪ": 2564,
      "ìĩ": 2565,
      "Ġìļ´ëıĻ": 2566,
      "ĠëĦ£": 2567,
      "Ġíĺ¼ìŀĲ": 2568,
      "ĠìķĦëĬĶ": 2569,
      "ì§Ħì§ľ": 2570,
      "Ġìĸ´ë¦°": 2571,
      "íĥķ": 2572,
      "Ġì¤ĺ": 2573,
      "ĠìĿ´ëªħ": 2574,
      "ìĹĨê³ł": 2575,
      "Ġë¶Ļ": 2576,
      "ìķ¼ëĲĺ": 2577,
      "ĠìĽĲëŀĺ": 2578,
      "ëĲľëĭ¤": 2579,
      "Ĵ¤": 2580,
      "ĠìĻķ": 2581,
      "Ġê°Ħì²©": 2582,
      "ĠìĿĺìĤ¬": 2583,
      "ìķĦëıĦ": 2584,
      "Ġëª¨ë¥´ê³ł": 2585,
      "ĠìĿ´ìľłê°Ģ": 2586,
      "Ġì½": 2587,
      "Ġì°¨ëĿ¼ë¦¬": 2588,
      "ĠëŁ¬": 2589,
      "ê²ĥìĿĢ": 2590,
      "ê²łëĭ¤ê³ł": 2591,
      "ê°ĢëĿ¼": 2592,
      "ĠìŀĲìĤ´": 2593,
      "Ġê¸°ìĸµ": 2594,
      "ìľ¼ëĭĪê¹Į": 2595,
      "Ġê³§": 2596,
      "ìĿ¸ëĭ¤": 2597,
      "êµ¬ìļĶ": 2598,
      "íĸĪëįĺ": 2599,
      "íĭĢ": 2600,
      "ìĭľëĬĶ": 2601,
      "ĠëĤĺìĻĶ": 2602,
      "íķ´ìļĶ": 2603,
      "ĠìĿ½": 2604,
      "ëł¸": 2605,
      "ĠíĪ¬ê¸°": 2606,
      "ëĮĢê°Ģë¦¬": 2607,
      "ê±¸ë¡ľ": 2608,
      "ĠíĥĿ": 2609,
      "ì£¼ë©´": 2610,
      "²Ķ": 2611,
      "Ġë¯¼ì£¼ì£¼ìĿĺ": 2612,
      "ê²½ìłľ": 2613,
      "ĠìĤ¬ëŀĮëĵ¤ìĿĢ": 2614,
      "ê²Ł": 2615,
      "Ġê²°íĺ¼": 2616,
      "ê±¸ë": 2617,
      "Ġì§ĢíĤ¤": 2618,
      "Ġê²©": 2619,
      "ĠìĿĺìĽĲ": 2620,
      "Ġì¹ĺë£Į": 2621,
      "ê¹ĮìļĶ": 2622,
      "Ġë°Ķê¿": 2623,
      "ê°Ļëĭ¤": 2624,
      "Ġãħĭãħĭãħĭãħĭãħĭãħĭ": 2625,
      "Ġë´ĲëĿ¼": 2626,
      "ĠëĮĢì²´": 2627,
      "ëĬĶê±°ëĥĲ": 2628,
      "Ġë³Ģíĺ¸": 2629,
      "Ġëĭ¹ìĦł": 2630,
      "ìĪĻ": 2631,
      "êµŃìĹĲ": 2632,
      "Ġìĺ¬": 2633,
      "ĠìķĦëĵ¤": 2634,
      "ë¯¼ë": 2635,
      "ĠìĸĳìķĦì¹ĺ": 2636,
      "ĠíĿ¬": 2637,
      "ĠìķĦë²ł": 2638,
      "¦ĩ": 2639,
      "Ġìĸ´ëł¤": 2640,
      "Ġãħłãħł": 2641,
      "Ġë¶Ħë": 2642,
      "Ġì§Ģê°Ģ": 2643,
      "ê´´": 2644,
      "ê±°ëĵł": 2645,
      "ĠìĿ´ëªħë°ķ": 2646,
      "ĠìĥĿê°ģìĿ´": 2647,
      "ĠìŀĲê¾¸": 2648,
      "Ġê´Ģëł¨": 2649,
      "íķĺëĭ¤ê³ł": 2650,
      "ĠìĦľë¡ľ": 2651,
      "Ġê¸°ìĤ¬ë": 2652,
      "Ġì¥Ĳ": 2653,
      "Ġë¹Į": 2654,
      "ĠìĹĨëĦ¤": 2655,
      "ëĺĲ": 2656,
      "Ġê±į": 2657,
      "ĠãĨį": 2658,
      "Ġê¸°ëĮĢ": 2659,
      "ëĿ¼ë©´": 2660,
      "Ġãħ¡ãħ¡": 2661,
      "ìļ°ê³ł": 2662,
      "ĠíĸĪëĬĶëį°": 2663,
      "Ġì´Ľ": 2664,
      "Ġë°Ķë³´": 2665,
      "íĬ¹": 2666,
      "ħĢ": 2667,
      "íķĺëĿ¼ê³ł": 2668,
      "Ġíĳ": 2669,
      "ĠëĤľë¦¬": 2670,
      "Ġë³¼": 2671,
      "ĠìĨĶì§ģíŀĪ": 2672,
      "ĠìŀĪì§Ģ": 2673,
      "ìĹĪëĤĺ": 2674,
      "Ġìĸ¼ë§Ī": 2675,
      "ĠìĿĳìĽĲíķ©ëĭĪëĭ¤": 2676,
      "ĠëĮĢìŀ¥ëıĻ": 2677,
      "ìĿ¸ê±°": 2678,
      "Ġê°ľíĮĲ": 2679,
      "ĠëĦĪëĦ¤": 2680,
      "Ġìĭ¹": 2681,
      "Ġìº": 2682,
      "ì§ĢìĽĲ": 2683,
      "Ġê·¸ëŁ¬ëĭĪ": 2684,
      "Ġê·¸ëŀ": 2685,
      "ë¯¸ë": 2686,
      "¥¸": 2687,
      "Ġìĺ¤íŀĪëł¤": 2688,
      "Ġ18": 2689,
      "ĠëĤĻ": 2690,
      "Ġìķ¼ëĭ¹": 2691,
      "Ġë¡ľ": 2692,
      "Ġë§Ľ": 2693,
      "ĠíķĺëĥĲ": 2694,
      "Ħĺ": 2695,
      "Ġì£¼ë³Ģ": 2696,
      "ìĭĿìĿ´": 2697,
      "ĠêµĲíļĮ": 2698,
      "ĠìĻ¸êµĲ": 2699,
      "Ġê±°ìĿĺ": 2700,
      "Ġëĸ¨": 2701,
      "ĠëĪĪë": 2702,
      "Ġíľ": 2703,
      "ìłľë¡ľ": 2704,
      "ĠëķĮë¬¸": 2705,
      "Ġê²°ê³¼": 2706,
      "ìĸ´ë³´": 2707,
      "ê°Ģì§Ģê³ł": 2708,
      "ĠìŀĲê²©": 2709,
      "Ī¬ë": 2710,
      "ëŃĲ": 2711,
      "íļ¨": 2712,
      "Ġìĭ«ìĸ´": 2713,
      "Ġíķľëĭ¤ê³ł": 2714,
      "Ġ~~": 2715,
      "ìĭĿìľ¼ë¡ľ": 2716,
      "ĠíķĺëĬĶê²Į": 2717,
      "ìĹĪìľ¼ë©´": 2718,
      "ĠìľĦíķ´ìĦľ": 2719,
      "ëŀĮ": 2720,
      "Ġíĺ¹": 2721,
      "ê±´íĿ¬": 2722,
      "ì¡°ìĦł": 2723,
      "íĮ¨ìĬ¤": 2724,
      "êµŃìĿ´": 2725,
      "Ġì±Ħ": 2726,
      "ìĤ¬ëŀĮìĿ´": 2727,
      "Ġëı¼ì§Ģ": 2728,
      "ĠìĿ´ìŀ¬ëªħìĿ´": 2729,
      "ìłĳì¢ħ": 2730,
      "Ġê°ľíĺģ": 2731,
      "łĪ": 2732,
      "Ġìŀ¬ìķĻìĿ´": 2733,
      "ĠìĹĨëĬĶëį°": 2734,
      "£¨": 2735,
      "ĠëĦĪëĬĶ": 2736,
      "ë²Ķì£Ħ": 2737,
      "Ġì´ĿìĦł": 2738,
      "30": 2739,
      "ĠìĿĺë£Į": 2740,
      "ê²¼": 2741,
      "ĠìĿ´ê¸°": 2742,
      "Ġê³łìĥĿ": 2743,
      "ĠíķŃìĥģ": 2744,
      "Ġë§¨ëĤł": 2745,
      "ĠìŀĪìĸ´": 2746,
      "Ġë¿Į": 2747,
      "ĠìĿ¼ë¶Ģ": 2748,
      "ìŀĲê³ł": 2749,
      "Ġëħ¸ë¬´": 2750,
      "ħëĭĪëĭ¤": 2751,
      "ĠìŀĪëĭ¤ê³ł": 2752,
      "ĠìĿ¼ìĿ´": 2753,
      "Ġì§Īë": 2754,
      "ĠìĿ¼ë²ł": 2755,
      "20": 2756,
      "Ġë¬»": 2757,
      "ìĪĺìŀĪ": 2758,
      "ĠêµŃìłķ": 2759,
      "Ġê°ľìĨĮë¦¬": 2760,
      "Ġê·¸ëĤĺ": 2761,
      "íŀĮ": 2762,
      "ĦëłĪ": 2763,
      "ł¨": 2764,
      "Ġì§Ģëĵ¤ìĿ´": 2765,
      "Ġê·¸ê±°": 2766,
      "ĠìĦ¸ë": 2767,
      "ĠìŀĪìĬµëĭĪëĭ¤": 2768,
      "ìŀĲê¸°": 2769,
      "ë¦¬ë©´": 2770,
      "ĠìłĦê³¼": 2771,
      "Ġì©": 2772,
      "ĠìĤ¬ìļ©": 2773,
      "íķĺì§Ģë§Į": 2774,
      "ì§Ģë§Ī": 2775,
      "ĠëĮĢë¶Ģë¶Ħ": 2776,
      "ĠëģĿê¹Įì§Ģ": 2777,
      "ĠëĨį": 2778,
      "ëĿ¼ìĦľ": 2779,
      "ĠìķĮë°Ķ": 2780,
      "ĠìĤ¬ëŀĳ": 2781,
      "ãħĪ": 2782,
      "ĠìķĮìķĺ": 2783,
      "Ġìĸ»": 2784,
      "ë©´ë": 2785,
      "Ġìľ¤ìĦĿëł¬": 2786,
      "Ġíķ´ìĻ¸": 2787,
      "Ġíķĺì§Ģë§Į": 2788,
      "Ġì§Ħìĭ¬": 2789,
      "Ġë³´ìĿ´": 2790,
      "Ġëĭ¬ëĿ¼": 2791,
      "ìĿ¸ìĿĺ": 2792,
      "Ġãħĩ": 2793,
      "ìł¸ìķ¼": 2794,
      "Ġìĵ´": 2795,
      "ìĦ±ìĿĦ": 2796,
      "Ġë¬´ìĹĩ": 2797,
      "ìĽł": 2798,
      "Ġíķľìĭ¬íķľ": 2799,
      "ĦëĤĺ": 2800,
      "ìĩ¼": 2801,
      "ĠëĲĺë©´": 2802,
      "ĠëŃī": 2803,
      "ĠíĺĪ": 2804,
      "ãĦ´": 2805,
      "ĠìŀĪìĿĮ": 2806,
      "Ġê³¼ê±°": 2807,
      "ĠìĮį": 2808,
      "ĠìµľìĨĮ": 2809,
      "Ġì¢ĭê²łëĭ¤": 2810,
      "ìĭľíĤ¤ê³ł": 2811,
      "Ġíģ¬": 2812,
      "Ġìĭ¶ëĭ¤": 2813,
      "ĠìŀĲì²´ê°Ģ": 2814,
      "ëĤ¬": 2815,
      "ĠìĪĺëıĦ": 2816,
      "ìĹĲìļĶ": 2817,
      "ìĿ´ëĿ¼ë©´": 2818,
      "ëĵ¤íķľíħĮ": 2819,
      "Ġìī½": 2820,
      "Ġì§±ê¹¨": 2821,
      "íķ´ì£¼": 2822,
      "ìŀĲë¡ľ": 2823,
      "êµ°ìļĶ": 2824,
      "ĠìľĦíĹĺ": 2825,
      "ê¸ĭ": 2826,
      "Ġìĭłê²½": 2827,
      "ìĹĪëĦ¤": 2828,
      "Ġê³łìĨĮ": 2829,
      "´¤": 2830,
      "ĠëĤĺìĦľ": 2831,
      "Ġì£¼ìŀ¥": 2832,
      "ìŀĲëĵ¤ìĿĢ": 2833,
      "Ġê¸°íļĮ": 2834,
      "ìĭ«": 2835,
      "ìķ¡": 2836,
      "Ġìļ¸": 2837,
      "ĠK": 2838,
      "íķľëĭ¤ëĬĶ": 2839,
      "ĠìĿ´ìłľëĬĶ": 2840,
      "Ġë´ī": 2841,
      "ĠíĦ¸": 2842,
      "Ġë°ĶëĢĮ": 2843,
      "Ġëķ": 2844,
      "Ġê·¸ëıĻìķĪ": 2845,
      "Ġê¸°ëĭ¤": 2846,
      "ĠëĤ¨ìĿĺ": 2847,
      "ê³łìŀĪ": 2848,
      "Ġë¯¼ì£¼ëĭ¹ìĿ´": 2849,
      "Ġë³´ëĬĶ": 2850,
      "ĠìĿ´ìķ¼ê¸°": 2851,
      "ìĬ´": 2852,
      "ì§Ģê²Į": 2853,
      "ĠíļĮìĤ¬": 2854,
      "ì»": 2855,
      "ëŀĲ": 2856,
      "ĠìŀĲëŀĳ": 2857,
      "ìłķìĿ´": 2858,
      "ĠêµŃë¯¼ìĿĢ": 2859,
      "ëĵ¯ìĿ´": 2860,
      "ĠëĤ´ìļ©": 2861,
      "ĠëĮĢíķĻ": 2862,
      "Ġ(": 2863,
      "ìĹĪëįĺ": 2864,
      "Ġì¡°ìĦłì¡±": 2865,
      "Ġì¹ľêµ¬": 2866,
      "êº¼ë": 2867,
      "ìµľ": 2868,
      "Ġìľ¤ìĦĿìĹ´ìĿ´": 2869,
      "íĿ¬ë": 2870,
      "Ġíķľë§ĪëĶĶ": 2871,
      "ĠìłĦíĺĢ": 2872,
      "ĠíĶ¼ë": 2873,
      "Ġê´ľì°®": 2874,
      "ë¥¸ë": 2875,
      "Ġì²´": 2876,
      "ì¥": 2877,
      "ê°ľìĽĶ": 2878,
      "ĠìĦ¸ìĽĶíĺ¸": 2879,
      "ĠëįĶëĵ¬": 2880,
      "ê³¤": 2881,
      "íĸĪìľ¼ë©´": 2882,
      "Ġë°ĶëŀįëĭĪëĭ¤": 2883,
      "ĠëĭĪëĵ¤ìĿĢ": 2884,
      "ìĹĲìĦł": 2885,
      "ĠëĨĪëĵ¤": 2886,
      "Ġìłķë¶ĢëĬĶ": 2887,
      "ìĿ´ëŁ¬ìĬ¤": 2888,
      "Ġë¶ĢìĤ°": 2889,
      "ĠìĻĶ": 2890,
      "ê»Ħ": 2891,
      "ĠíĿ¬ë": 2892,
      "ìĿĦíħĲëį°": 2893,
      "¢°": 2894,
      "Ġê²ĥìĿĦ": 2895,
      "Ġê±´ê°ķ": 2896,
      "Ġì´Īë": 2897,
      "ëĭĺìĿ´": 2898,
      "ĠëıĦìĻĢ": 2899,
      "Ġíļ¨": 2900,
      "Ġë¬´ìĦŃ": 2901,
      "íķľê±´": 2902,
      "Ķ´": 2903,
      "ĠìĹĨìĿĮ": 2904,
      "ĪëįĶ": 2905,
      "Ġê³µìĤ°ì£¼ìĿĺ": 2906,
      "ìĪĺë¡Ŀ": 2907,
      "ĠëıĦìĽĢ": 2908,
      "ìĿ¸ì¤Ħ": 2909,
      "ìĻľêµ¬": 2910,
      "íķĺëĬĶê±´": 2911,
      "Ġì£¼ìĭĿ": 2912,
      "Ġì¡´ìŀ¬": 2913,
      "ĠíĻľ": 2914,
      "ĠìķĦëĥĲ": 2915,
      "ĠìĹŃëĮĢ": 2916,
      "įķ": 2917,
      "Ġìĺ³": 2918,
      "ìĦ¸ê¸Ī": 2919,
      "ê³¡": 2920,
      "Ġìłķëĭ¹": 2921,
      "Ġìĳ": 2922,
      "ìľ¼ëł¤": 2923,
      "¸ëłĪ": 2924,
      "¥ĺ": 2925,
      "Ġë¯¼ì£¼ëĭ¹ìĿĢ": 2926,
      "Ġêº¼": 2927,
      "Ġëº": 2928,
      "ë¦¬ëĦ¤": 2929,
      "íĴĢ": 2930,
      "¨¸": 2931,
      "ë°Ľê³ł": 2932,
      "ë°¥": 2933,
      "Ġê·¸ê±´": 2934,
      "ĠíķĺëĭĪ": 2935,
      "ĠìŀĲë¦¬": 2936,
      "ĠìķĦëĭĮëį°": 2937,
      "Ġìµľìķħ": 2938,
      "Ġìŀ¬ìĤ°": 2939,
      "ĠëĬĲëĤ": 2940,
      "Ġë³ĳìĽĲ": 2941,
      "ê±°ëĥĲ": 2942,
      "Ġìĥģê´Ģ": 2943,
      "ĠìĿ¼ëĭ¨": 2944,
      "ĠìĤ¬ëŀĮìĿĦ": 2945,
      "Ġëľ»": 2946,
      "Ġì´Ľë¶Ī": 2947,
      "ĠìŀĲë¹ł": 2948,
      "Ġíķ¨ê»ĺ": 2949,
      "ê°Ħë": 2950,
      "Ġìŀ¡ìķĦ": 2951,
      "ëĭ¨ì²´": 2952,
      "ĠíķĺìĹ¬": 2953,
      "Ġê°Ģì§Ģ": 2954,
      "ĠíĻķì§ĦìŀĲ": 2955,
      "ĠíĽ¨": 2956,
      "íĺĲ": 2957,
      "ĠðŁĲķ": 2958,
      "Ġë¹ĦíĮĲ": 2959,
      "ĠíĨłë¡ł": 2960,
      "´ë¦¬": 2961,
      "ĠëĪĦêµ°": 2962,
      "ĠíĮ©íĬ¸": 2963,
      "ĳĲíĻĺ": 2964,
      "ĠëĤĺê°Ģ": 2965,
      "ê²¹ëĭ¤": 2966,
      "ëĤĺë©´": 2967,
      "ĠìķĪìłĦ": 2968,
      "íĨ": 2969,
      "ë°Ķë¡ľ": 2970,
      "ìĶĢ": 2971,
      "ĠìĭľëĮĢ": 2972,
      "¨¼": 2973,
      "ë¥´ëĬĶ": 2974,
      "ĠëĭĪë": 2975,
      "ìĦ¸ëł¥": 2976,
      "ë¦°ëĭ¤": 2977,
      "ìĪĺìĤ¬": 2978,
      "ĠíĸĪëĭ¤": 2979,
      "ĠíĬ¸ëŁ¼": 2980,
      "Ġëħ¸ëł¥": 2981,
      "Ġë»": 2982,
      "ĠëıĪìĿ´": 2983,
      "Ġì¢ħêµĲ": 2984,
      "ĠëĲĺìĸ´": 2985,
      "Ġíķĺëįĺ": 2986,
      "ê¶ģ": 2987,
      "Ġì§ĢëĤľ": 2988,
      "Ġê°Ģê²©": 2989,
      "ĠâĢ": 2990,
      "íķĺëĬĶì§Ģ": 2991,
      "Ġì§ģìłĳ": 2992,
      "Ġíĭ°": 2993,
      "ìķĪëĲĺ": 2994,
      "ê¸°ë§Į": 2995,
      "Ġãħĭãħĭãħĭãħĭãħĭãħĭãħĭãħĭ": 2996,
      "ìļ´ë": 2997,
      "Ġëģ¼": 2998,
      "Ġê²ĥëĵ¤ìĿ´": 2999,
      "ê³łëıĦ": 3000,
      "Ġëħ¸ì¡°": 3001,
      "ĠëĦ¤ìĿ´": 3002,
      "ĠìŀħëĭĪëĭ¤": 3003,
      "ìłķì±ħ": 3004,
      "Ġë¶Ħëªħ": 3005,
      "ĠíķĻìĥĿ": 3006,
      "ìĸ´ì¤Ģ": 3007,
      "ĠíĺĦìŀ¬": 3008,
      "ìĤ¬ê±´": 3009,
      "ĠëıĪìĿĦ": 3010,
      "Ġìĸ´ìĿ´": 3011,
      "ëįķ": 3012,
      "ìļ°ëĬĶ": 3013,
      "ëĤľëĭ¤": 3014,
      "Ġë¬´ëĬ¥íķľ": 3015,
      "ĠíĹĮ": 3016,
      "ë°©ìĹŃ": 3017,
      "ì§ĳëĭ¨": 3018,
      "ëĤĺìĺ¤": 3019,
      "Ġê¹Ģê±´íĿ¬": 3020,
      "ì¯¤": 3021,
      "Ġë°©ë²ķ": 3022,
      "ê°Ģì¡±": 3023,
      "ĠìķĮìķĦìĦľ": 3024,
      "ĠëĦĪëıĦ": 3025,
      "ê²łëĤĺ": 3026,
      "ê²łëĭ¤ëĬĶ": 3027,
      "ĳĳ": 3028,
      "ĠëŁ¬ìĭľìķĦ": 3029,
      "ìŀĲëıĦ": 3030,
      "!!!!!": 3031,
      "Ġê·¸ê²ĥëıĦ": 3032,
      "ãħİãħİãħİãħİ": 3033,
      "ĠëĪĪì¹ĺ": 3034,
      "Ġì§Ģê¸ĪìĿĢ": 3035,
      "ê°Ģê°Ģ": 3036,
      "Ġëª©ìĪ¨": 3037,
      "íķĺëĦ¤ìļĶ": 3038,
      "Ġë¹Ħë¦¬": 3039,
      "ë¬¸ìłľ": 3040,
      "íĺ¸ë": 3041,
      "Ġì£¼ëĳ": 3042,
      "ĠíĻ©êµĲ": 3043,
      "Ġì§ĢëŀĦ": 3044,
      "Ġë§¤êµŃ": 3045,
      "ìĭ¬ìĿ´": 3046,
      "ë§Įíģ¼": 3047,
      "Ġìī¬": 3048,
      "ĠìĺĪë": 3049,
      "Ġìŀ¬ìķĻ": 3050,
      "Ġì§Ħë³´": 3051,
      "ĠëıĦëĳĳ": 3052,
      "Ġìĸ´ì©Ķ": 3053,
      "ë¬´ë¶Ģ": 3054,
      "Ġê³łíĨµ": 3055,
      "íķĺì§Ģë§Ĳê³ł": 3056,
      "ðŁĴ": 3057,
      "Ġê²¬": 3058,
      "ĠìĿ¼ìĿĦ": 3059,
      "ĤĻ": 3060,
      "ìķĦë³´": 3061,
      "ë§ĲìĿ´": 3062,
      "Ġìĵ°ê³ł": 3063,
      "ĠëĲĺê³ł": 3064,
      "ìĦ¼": 3065,
      "ĠìĦ¸ê¸Īìľ¼ë¡ľ": 3066,
      "ĠìĿ´ëĨĪ": 3067,
      "ë¦¬ë¡ľ": 3068,
      "ĠëĪĦêµ¬ë": 3069,
      "Ġì²ĺëŁ¼": 3070,
      "íĸĪëĦ¤": 3071,
      "ĠìķĪíĥĢê¹Ŀ": 3072,
      "ĠíĮĲìĤ¬": 3073,
      "Ġíķĺìĭľ": 3074,
      "ìŀĳìļ©": 3075,
      "Ġê´´ë": 3076,
      "ëĭ¹íŀĪ": 3077,
      "Ġëĺĳê°ĻìĿĢ": 3078,
      "ł¥": 3079,
      "¡Ģ": 3080,
      "ë¦¬ëĥĲ": 3081,
      "ë©Ķ": 3082,
      "ëĬĶê°Ģ": 3083,
      "ëıĦê°Ģ": 3084,
      "Ġê·¸ëŁ´": 3085,
      "ìĿ¸ìĿĦ": 3086,
      "Ġë§ĲíķĺëĬĶ": 3087,
      "Ġíķĺëĭ¤": 3088,
      "Ŀ¼ëĬĶ": 3089,
      "ìĪŃ": 3090,
      "Ġìłķê¶ĮêµĲì²´": 3091,
      "ìĵ´": 3092,
      "ĠìĿ´íķ´ê°Ģ": 3093,
      "ĠìłĦìĦ¸ê³Ħ": 3094,
      "Ġìĸµìļ¸": 3095,
      "Ġâ": 3096,
      "Ġì§Ĳ": 3097,
      "Ġì²łìłĢ": 3098,
      "Ġë²Ĺ": 3099,
      "Ġíľ´": 3100,
      "ìŀ¥ìĿĦ": 3101,
      "ìĿ´ëŁ°": 3102,
      "!!!!!!!!": 3103,
      "ĠìķĦëĭĪì§Ģ": 3104,
      "ê°ĢëĿ½": 3105,
      "ëĺĳ": 3106,
      "ìĹ¬ìĦľ": 3107,
      "Ġìĺ¤ëŀĺ": 3108,
      "ëł¤ë©´": 3109,
      "íķ´ë´Ĳ": 3110,
      "Ġê²¨": 3111,
      "íķłê¹Į": 3112,
      "ëįľ": 3113,
      "Ġê²ĥëĵ¤": 3114,
      "ëħĦë": 3115,
      "íĴį": 3116,
      "ìĥĿíĻľ": 3117,
      "ĠíĪ¬ìŀĲ": 3118,
      "ĠìķĦëĭĲ": 3119,
      "Ġë¯¼ëħ¸ì´Ŀ": 3120,
      "Ġë³¸ìĿ¸ìĿ´": 3121,
      "ìĹ´ë": 3122,
      "Ġì¶ľìĭł": 3123,
      "ĠíĶ¼íķ´ìŀĲ": 3124,
      "ĠìĿĺíĺ¹": 3125,
      "ì¶Ķíĸī": 3126,
      "ĠìķĦëĭĻ": 3127,
      "êµĲìľ¡": 3128,
      "Ġì¡°ìļ©íŀĪ": 3129,
      "ĠíķĺìĦ¸ìļĶ": 3130,
      "ĠìķĦë§Ī": 3131,
      "Ġë²Įìį¨": 3132,
      "Ġìĺ¨ê°ĸ": 3133,
      "ĠìĹ¬ëĭ¹": 3134,
      "ĠãħĤ": 3135,
      "ìĥģìĿĦ": 3136,
      "ëĵłì§Ģ": 3137,
      "Ġë°ĳ": 3138,
      "ĠëĤ´ëħĦ": 3139,
      "ĠëıĻëĦ¤": 3140,
      "ìĿĦê±°": 3141,
      "Ġë¶ĢíĦ°": 3142,
      "ê»ı": 3143,
      "ĠëĵľëŁ¬ë": 3144,
      "Ġì¹ľìĿ¼íĮĮ": 3145,
      "ìĿĦëĵ¯": 3146,
      "ë¬¼ë": 3147,
      "ĠëĮĢíķ´": 3148,
      "Ġìĭ¬íĮĲ": 3149,
      "Ġs": 3150,
      "ëĵ¤ìĿ´ëĭ¤": 3151,
      "ĠìŀħêµŃ": 3152,
      "ĠìĹī": 3153,
      "ĠìĬ¬": 3154,
      "ëĬĲëĿ¼": 3155,
      "ê¸Īì§Ģ": 3156,
      "ìĤ¬ê³ł": 3157,
      "ĠìĤ¬ë²ķ": 3158,
      "ĠêµŃëĤ´": 3159,
      "ë¡Ģ": 3160,
      "Ġì¢ĭê²ł": 3161,
      "ĠìĿ´ê²ĥ": 3162,
      "ìĵ°ê³ł": 3163,
      "íķĺëł¤ê³ł": 3164,
      "ĠíķĺìŀĲ": 3165,
      "Ġëħ¸ë¬´íĺĦ": 3166,
      "Ġë°Ķê¿Ķ": 3167,
      "ĠíĮĲê²°": 3168,
      "ĠìłĦëĳĲíĻĺ": 3169,
      "¦´": 3170,
      "ĠëįĶëŁ½": 3171,
      "ĠìŀĦëªħ": 3172,
      "Ġëĭ´": 3173,
      "ì¤ĺëĿ¼": 3174,
      "íĬľ": 3175,
      "Ġë¬¸ì£ĦìĿ¸": 3176,
      "----": 3177,
      "Ġë§ĲìĿĢ": 3178,
      "Ġë³´ê¸°": 3179,
      "Ġëį®": 3180,
      "Ġìĭ¶ìĿĢ": 3181,
      "Ġ-": 3182,
      "ìĪĺë¥¼": 3183,
      "ëģĹ": 3184,
      "ĠíķĺëĬĺ": 3185,
      "Ĥ¸": 3186,
      "ìķĦê°Ģ": 3187,
      "Ĥ´ê³ł": 3188,
      "50": 3189,
      "ë¬¸ìŀ¬": 3190,
      "ì²´ë¥¼": 3191,
      "ĠëĤĺìĺ¬": 3192,
      "ì¹Ļ": 3193,
      "ĠëĤĺê²½": 3194,
      "ìł¸ìĦľ": 3195,
      "ĠëĮĢì¶ľ": 3196,
      "Ġê¼¬ëĿ¼": 3197,
      "Ġê·¸ìłĢ": 3198,
      "ĠíĺĲ": 3199,
      "Ġë²Ķì£ĦìŀĲ": 3200,
      "ĠëĤĺì¤ĳìĹĲ": 3201,
      "ĠìĥģëĮĢ": 3202,
      "Ġì§Ģì§ĢíķĺëĬĶ": 3203,
      "ìĦ¸íĽĪ": 3204,
      "ĠëĮĢíĨµ": 3205,
      "ĠìĥĪë": 3206,
      "ë¦¬ëĤĺ": 3207,
      "Ġëĺĳê°ĻìĿ´": 3208,
      "Ġë§İëĭ¤": 3209,
      "ìŀĪëĤĺ": 3210,
      "ìĿ´ëĿ¼ëĭĪ": 3211,
      "íĤ¹": 3212,
      "Ġãħľ": 3213,
      "ĠìĤ¬ìĹħ": 3214,
      "ĠìĿ´ìłķëıĦ": 3215,
      "ìĪĺëĬĶ": 3216,
      "Ġë³¸ëĭ¤": 3217,
      "Ġëħ¸ëıĻ": 3218,
      "Ġìĭ¬ê°ģ": 3219,
      "ĠíĬ¸ëŁ¼íĶĦ": 3220,
      "ĠìĿ´ëĤĻ": 3221,
      "Ġê³µê°Ĳ": 3222,
      "ĠìĿ´ìĿµ": 3223,
      "ĠãĦ±": 3224,
      "íķ´ìķ¼íķľëĭ¤": 3225,
      "ìĭ¬ë": 3226,
      "ìĬµëĭĪê¹Į": 3227,
      "Ġê·¸ëĮĢë¡ľ": 3228,
      "Ġë¯¿ê³ł": 3229,
      "ë²ł": 3230,
      "ëł¤ìĦľ": 3231,
      "Ġíŀĺëĵł": 3232,
      "¦¬ë©´": 3233,
      "Ġë§Įëĵ¤ê³ł": 3234,
      "ëł¥ìĿ´": 3235,
      "Ġíĺľ": 3236,
      "íķĺëĭĪê¹Į": 3237,
      "ê·¸ëŁ¬": 3238,
      "ìĹ¼ë": 3239,
      "Ġëª¨ë¥¸": 3240,
      "Ġê°Ģë§ĮíŀĪ": 3241,
      "Ġë§Ĳë¡ľ": 3242,
      "ì§Ģë§Ĳ": 3243,
      "ì¤ĺìķ¼": 3244,
      "ãħľãħľ": 3245,
      "Ġ....": 3246,
      "ãħĤ": 3247,
      "Ġì¦ī": 3248,
      "ëĲĺìĸ´": 3249,
      "Ġëĭ¹ëĮĢíĳľ": 3250,
      "ìłķìĿĦ": 3251,
      "ìĺ¨ëĭ¤": 3252,
      "ĠíıīíĻĶ": 3253,
      "ĠìĨ¡": 3254,
      "ĠìķĦë¬´ê²ĥëıĦ": 3255,
      "ëĵ£": 3256,
      "ìī¬": 3257,
      "ĠìĿ¸ë¬¼": 3258,
      "ë¢°": 3259,
      "ĠìłĢëŁ¬": 3260,
      "ĠìķĦëĭĪëĿ¼ê³ł": 3261,
      "ë§ĮìĿ´": 3262,
      "Ġê¼¬ë": 3263,
      "ìľĦë": 3264,
      "ĠêµŃê°ľ": 3265,
      "íļį": 3266,
      "ëĨĪìĿ´": 3267,
      "Ġë¯¸ë": 3268,
      "ĠíıĲì§Ģ": 3269,
      "Ġê·¸ëŁ¬ë©´": 3270,
      "Ġìŀ¬ëªħ": 3271,
      "Ġë²ķë¬´ë¶Ģ": 3272,
      "ì£Ħëªħ": 3273,
      "Ġë¹ļ": 3274,
      "ì§ĦêµŃ": 3275,
      "ĠìĪĺì¤ĢìĿ´": 3276,
      "ì¤¬": 3277,
      "ĠìłķìĿĢ": 3278,
      "ìĬ¤íĬ¸": 3279,
      "Ġê°ĢëĬĶ": 3280,
      "ì©Ŀ": 3281,
      "Ġë¬¸ìŀ¬ìĿ¸ìĿĢ": 3282,
      "¶Ī": 3283,
      "ĠìŀĪëĭ¤ëĬĶ": 3284,
      "ĠìĿ´ìĥģíķľ": 3285,
      "ìĿ¸ê°ĢìļĶ": 3286,
      "ìĬ¤ëŁ½ëĭ¤": 3287,
      "Ġë¬¸ë¹ł": 3288,
      "Ġëħ¼": 3289,
      "ë¶ĦìĿ´": 3290,
      "ĠìĹĦë§Ī": 3291,
      "Ġê¹Ķ": 3292,
      "Ġì²ŃëħĦ": 3293,
      "Ġê¿Ī": 3294,
      "ĠìĿĺë¯¸": 3295,
      "ĠëĽ°": 3296,
      "ĠìŀĦëĮĢ": 3297,
      "Ġê°Ģì§Ħ": 3298,
      "ĠëĦ¤ìĿ´ë²Ħ": 3299,
      "ĠìłĦêµŃë¯¼": 3300,
      "ë¦¬ëıĦ": 3301,
      "ì´ĪìĹĲ": 3302,
      "ìļ¸ë": 3303,
      "ĠëįĶìĿ´ìĥģ": 3304,
      "ĠëĲĺì§Ģ": 3305,
      "ëł¤ëĬĶ": 3306,
      "Ġë¶Ģì¡±": 3307,
      "ĠìĥĿê°ģíķĺëĬĶ": 3308,
      "ëįĶë§Į": 3309,
      "íķľêµŃ": 3310,
      "íĳ": 3311,
      "ĠìĿ´ê±¸": 3312,
      "Ġì§Ģë°©": 3313,
      "ìĤ¬ìĿ¼": 3314,
      "íķĻìĥĿ": 3315,
      "Ġë°ķìĽĲ": 3316,
      "ĠëĬ¦": 3317,
      "ĠìķĬëĬĶëĭ¤": 3318,
      "Ġëª»íķĺê²Į": 3319,
      "Ġëĭµëĭµ": 3320,
      "ĠëŃĶê°Ģ": 3321,
      "Ġê³¼ìĹ°": 3322,
      "Ġëª¨ìŀĲ": 3323,
      "ìĭľìĺ¤": 3324,
      "ĠìĿ´ëĤĻìĹ°": 3325,
      "ëĭ¨ëĭ¤": 3326,
      "ìĿ´ë¥¼": 3327,
      "Ġì¡°ìĭ¬": 3328,
      "íķłê±°": 3329,
      "ĠìĿ´ëŁ": 3330,
      "Ġê²Ģì°°ê°ľíĺģ": 3331,
      "Ġìĵ¸": 3332,
      "íķ©ìĭľëĭ¤": 3333,
      "ĠíĹĽìĨĮë¦¬": 3334,
      "ìľĦíķ´": 3335,
      "Ġë°ĽìĿĦ": 3336,
      "Ġê°Ģì§ľëī´ìĬ¤": 3337,
      "Ġì¤Ģë¹Ħ": 3338,
      "ë´¤": 3339,
      "Ġê°Ģìł¸": 3340,
      "Ġì¤ĳêµŃìĿ¸": 3341,
      "íĻį": 3342,
      "Ġê¸°ì¤Ģ": 3343,
      "ĠA": 3344,
      "ĠíĨłì°©ìĻľêµ¬": 3345,
      "ĠëĤ³": 3346,
      "Ġëĺĳê°Ļ": 3347,
      "ìĶ¬": 3348,
      "íĪ¬ë": 3349,
      "ê³µìĤ°": 3350,
      "ê·ł": 3351,
      "ë¹Ħë": 3352,
      "ì¤ĳëıĻ": 3353,
      "ĠíĬ¹íŀĪ": 3354,
      "ĠëĨĪìĿ´": 3355,
      "Ġë°ı": 3356,
      "Ġì§ĳíļĮ": 3357,
      "ìĤ¬íļĮ": 3358,
      "10": 3359,
      "ĠìĿ¸íĦ°": 3360,
      "ìĭľì¼ľëĿ¼": 3361,
      "Ġëįľ": 3362,
      "ìĸ¸ë¡ł": 3363,
      "ë§Įëªħ": 3364,
      "Ġìĺ¬ë¦¬": 3365,
      "³´ë©´": 3366,
      "Ġë¨¸ë": 3367,
      "Ġë§¡": 3368,
      "Ġìĺ¤ìĦ¸íĽĪ": 3369,
      "Ġë¹ĦëĤľ": 3370,
      "ìŀĩ": 3371,
      "ĠìŁ": 3372,
      "ëĤ©": 3373,
      "ìĸ´ê°Ģ": 3374,
      "ĠíķĺëĤĺëıĦ": 3375,
      "Ġê³µìķ½": 3376,
      "ì¸¡": 3377,
      "ëļ": 3378,
      "ìŀĪëĥĲ": 3379,
      "ĠìŀĬ": 3380,
      "ì¡ĮëĦ¤": 3381,
      "ìĻĦ": 3382,
      "Ġê°ľë°ľ": 3383,
      "ĠíĿĶ": 3384,
      "ìŀĸìķĦìļĶ": 3385,
      "ĠìľłìĬ¹": 3386,
      "ìº": 3387,
      "Ġë¬¼ë¡ł": 3388,
      "ĠíħĮ": 3389,
      "Ġh": 3390,
      "ì»¤": 3391,
      "Ġíķĺì§Ģë§Ĳê³ł": 3392,
      "ì¶°": 3393,
      "Ġë¬¸íĨµ": 3394,
      "ë§Ļ": 3395,
      "Ġìĭłê³ł": 3396,
      "Ġê°ķëĤ¨": 3397,
      "ì¼°": 3398,
      "ĠëĮĢì±ħ": 3399,
      "ĠíķłìĪĺ": 3400,
      "íķľê²ĥ": 3401,
      "Ġì§ĳìĹĲ": 3402,
      "ĠìłĢì§Ģ": 3403,
      "ĠìĮ": 3404,
      "ĠìĽĲìłĦ": 3405,
      "Ġê·¸ëĤĺë§Ī": 3406,
      "¼ë§Į": 3407,
      "Ġê¹¨ëģĹ": 3408,
      "ĠìĿ¼ë³¸ìĿ´": 3409,
      "ĠëĦĪë¬´ë": 3410,
      "Ġë°Ľìķĺ": 3411,
      "Ġëĭ¹ìĭłìĿ´": 3412,
      "ĠëķĮëł¤": 3413,
      "Ġë¶Ģìŀĳìļ©": 3414,
      "Ġë§ŀê³ł": 3415,
      "ëħĦê°Ħ": 3416,
      "Ġë§Įëĵľ": 3417,
      "¡Ń": 3418,
      "ìŀĲìĿĺ": 3419,
      "ë§İìĿĢ": 3420,
      "ìĤ¬ëŀĮëĵ¤": 3421,
      "ĠíĽĦë³´ë": 3422,
      "ĸł": 3423,
      "íķ´ë´ĲëĿ¼": 3424,
      "Ġêµ³": 3425,
      "ĠíĻķìĿ¸": 3426,
      "ëĴ¤": 3427,
      "ĠìĻ¸ë": 3428,
      "Ġì£¼ìĤ¬": 3429,
      "ĠìĤ´ê³ł": 3430,
      "Ġìŀĥ": 3431,
      "Ġëĭ¤ë¥´": 3432,
      "Ġì¿": 3433,
      "Ġê²½íĹĺ": 3434,
      "ĠìķĦë²Ħ": 3435,
      "ĠìĹĨì§Ģ": 3436,
      "Ġìĥī": 3437,
      "ĠêµŃë°©": 3438,
      "Ġê¹Įì§Ģ": 3439,
      "ëĺ¥": 3440,
      "ëĭ«": 3441,
      "Ġë°ĶìĿ´ëŁ¬ìĬ¤": 3442,
      "ê²ĢìĤ¬": 3443,
      "Ġë°ĶëĿ¼": 3444,
      "Ġì§ģìĽĲ": 3445,
      "Ġãħīãħīãħī": 3446,
      "âĻ¡": 3447,
      "ĠãĦ·": 3448,
      "ìĸ´ë²Ħ": 3449,
      "Ġê¸°ê°Ģ": 3450,
      "ĠìĺĨ": 3451,
      "ëĳĺ": 3452,
      "ĠìĹ¬ëŁ¬ë": 3453,
      "ĠìłĦíĻĶ": 3454,
      "ëĮĢëĬĶ": 3455,
      "Ġê°ĢëĿ¼": 3456,
      "ëįĶëĿ¼ëıĦ": 3457,
      "Ġì§ĳê¶Į": 3458,
      "ìľ¼ëł¤ê³ł": 3459,
      "Ġëįķ": 3460,
      "?!": 3461,
      "ìĿ¸ëĵ¯": 3462,
      "ĠíĳľíĺĦ": 3463,
      "ë§¹": 3464,
      "Ġë¬¸ìŀ¬ìķĻìĿ´": 3465,
      "ê°ĢëĬ¥": 3466,
      "Ġ=": 3467,
      "ĠìķĦìĺĪ": 3468,
      "Ġíĸīë³µ": 3469,
      "ìĿ´ë¡ľ": 3470,
      "Ġì§Ģê¸Īê¹Įì§Ģ": 3471,
      "Ġë²ķìĿĦ": 3472,
      "Ġë´ĲëıĦ": 3473,
      "Ġê°ķëł¥": 3474,
      "ĠêµŃìłľ": 3475,
      "ìĶ¨ê°Ģ": 3476,
      "Ġëĵ¤ìĸ´ê°Ģ": 3477,
      "ĠëĤ¨íİ¸": 3478,
      "ĠìĿ´ë¦¬": 3479,
      "íķ´ë¥¼": 3480,
      "ĠìĤ¬íļĮì£¼ìĿĺ": 3481,
      "Ġì£¼ê³ł": 3482,
      "ĠìĹ°ìĺĪ": 3483,
      "ĠìĿ¸ê°Ħëĵ¤ìĿ´": 3484,
      "Ġê¾": 3485,
      "¨¸ëĭĪ": 3486,
      "Ħ¤ìļĶ": 3487,
      "ëĥ": 3488,
      "ĠìĹĨìĸ´ìĦľ": 3489,
      "Ġëĵ¤ê³ł": 3490,
      "ĠëıĮìķĦê°Ģ": 3491,
      "ìĦłëıĻ": 3492,
      "ê²łì£ł": 3493,
      "ĠìĹĨëĭ¤ê³ł": 3494,
      "ê¼¬": 3495,
      "ìľ¼ë©°": 3496,
      "ë§Ľ": 3497,
      "Ġë³´íĺ¸": 3498,
      "íķĺëŁ¬": 3499,
      "Ġíı¬ê¸°": 3500,
      "ĠìĹĲíľ´": 3501,
      "Ġê°ĳìŀĲê¸°": 3502,
      "ìĹĦ": 3503,
      "ì¯§": 3504,
      "Ġê³łë¯¼": 3505,
      "ê¹Ķ": 3506,
      "ëĤĺëĬĶ": 3507,
      "ĠìµľìłĢ": 3508,
      "Ġê¸°ìĪł": 3509,
      "ĠìĿĮì£¼": 3510,
      "Ġê°ķìłľ": 3511,
      "ĠìĺĽ": 3512,
      "ë¨¸ëĭĪ": 3513,
      "Ġëħ¼ë¦¬": 3514,
      "ìļ´ìłĦ": 3515,
      "¼ë§Ĳ": 3516,
      "ë°©ìĨ¡": 3517,
      "ë¡±": 3518,
      "Ġì»": 3519,
      "ëħĦëıĻìķĪ": 3520,
      "ì§Ħë": 3521,
      "ãħĭãħĭãħĭãħĭãħĭãħĭãħĭãħĭãħĭãħĭãħĭãħĭãħĭãħĭãħĭãħĭãħĭãħĭãħĭãħĭãħĭãħĭãħĭãħĭãħĭãħĭãħĭãħĭãħĭãħĭãħĭãħĭ": 3522,
      "łµ": 3523,
      "Ġëľ¯": 3524,
      "Ġëĭĺ": 3525,
      "ĠìĹĨìľ¼ë©´": 3526,
      "Ġì£½ìĿĢ": 3527,
      "Ġì§ĢëıĦ": 3528,
      "ĠìłĢê±°": 3529,
      "Ġë¶ĢëģĦëŁ¬": 3530,
      "Ġì¶©ë¶Ħ": 3531,
      "ëĤĺê³ł": 3532,
      "ĠëĤĺìĺ¤ëĬĶ": 3533,
      "Ġìļ°ë¦¬ëĬĶ": 3534,
      "ë¦¬ë§Į": 3535,
      "ĠêµŃë¯¼ìĿĺíŀĺ": 3536,
      "ë¯¸íĸ¥": 3537,
      "Ġë°ķìłķ": 3538,
      "ëĭ¹íķľ": 3539,
      "Ġëĭ¬ì°½": 3540,
      "ìĪľìĭ¤": 3541,
      "ĠìķĦíĶĦ": 3542,
      "Ġê¸°ìĥĿ": 3543,
      "tt": 3544,
      "ĠìłķíĻķ": 3545,
      "ĠëĭµìĿ´ëĭ¤": 3546,
      "ëĮ": 3547,
      "ì§ĪìĿ´": 3548,
      "ìĦľëĬĶ": 3549,
      "ĠíĹĲ": 3550,
      "Ġìķħë§Ī": 3551,
      "Ġíĺ¸ë": 3552,
      "ìĿ¸ëĵ¤ìĿ´": 3553,
      "ĠìŀĪìĿĦê¹Į": 3554,
      "íĹĮ": 3555,
      "ĠëĤĺê²½ìĽĲ": 3556,
      "ìĵ°ëłĪê¸°": 3557,
      ";&": 3558,
      "ìŀ¥ìĿĢ": 3559,
      "íĢ": 3560,
      "ĠëĲĺìĹĪ": 3561,
      "ĠìķĪëĲľ": 3562,
      "ĠëŃĲëĿ¼": 3563,
      "ì§Ģë¡ľ": 3564,
      "Ġìĵ¸ë": 3565,
      "íķĺê²łëĭ¤": 3566,
      "ë§ĮìĹĲ": 3567,
      "ì³Ĳë¨¹": 3568,
      "ìĿ´ëıĦ": 3569,
      "ìľĦìĹĲ": 3570,
      "ĠìĦ±ì¶Ķíĸī": 3571,
      "Ġíģ´ë": 3572,
      "Ġìŀĺëª»ëĲľ": 3573,
      "Ġê°Ĳë°©": 3574,
      "íĸĪëĥĲ": 3575,
      "ìĬ·": 3576,
      "Ġë¯¸ì³¤": 3577,
      "Ġìŀ¥ëª¨": 3578,
      "ĠìĺģìĽĲ": 3579,
      "ĠìķĬëĤĺ": 3580,
      ".......": 3581,
      "ĠìľłíĬľ": 3582,
      "Ġë¶ĢìłķìĦłê±°": 3583,
      "ĠëıĮëł¤": 3584,
      "ĠìŀĲê°Ģ": 3585,
      "ĠìķĪë§ŀ": 3586,
      "Ġ60": 3587,
      "ĠíŀĺëĤ´": 3588,
      "ĠìķĮëł¤": 3589,
      "ìŀ¡ê³ł": 3590,
      "Ġíĳ¸": 3591,
      "íķĺíķĺ": 3592,
      "Ġë§ĪëĪĦ": 3593,
      "ĠëĨĪëĵ¤ìĿ´": 3594,
      "ĠêµĲìĪĺ": 3595,
      "ĠíķľíħĮ": 3596,
      "ĠíĿ¬ë§Ŀ": 3597,
      "ë¶Īë": 3598,
      "ê»´": 3599,
      "ĠëĳĲê³ł": 3600,
      "ĠìĹĲëĿ¼ìĿ´": 3601,
      "Ġë¯¸êµŃìĿ´": 3602,
      "Ġëļ": 3603,
      "ëĳĲê³ł": 3604,
      "Ġìķłì´ĪìĹĲ": 3605,
      "ĠìĿ´ëŀĺìĦľ": 3606,
      "³¸ë": 3607,
      "ìŀĪê³ł": 3608,
      "ì¹ĺê¸°": 3609,
      "Ġãħĭãħĭãħĭãħĭãħĭãħĭãħĭ": 3610,
      "Ġìļ´ìłĦ": 3611,
      "Ġê³µê²©": 3612,
      "Ġ0": 3613,
      "íĤ¬": 3614,
      "ëĨĵ": 3615,
      "ìĭľíĤ¨": 3616,
      "ì§Ģê¸Ī": 3617,
      "ĠìĥĿê°ģìĿĦ": 3618,
      "ì§ĵìĿĦ": 3619,
      "Ġê·¸ëłĩì§Ģ": 3620,
      "ĠìĺģíĻĶ": 3621,
      "Ġê¸°ìĤ¬ë¥¼": 3622,
      "Ġë§ĲìĶĢ": 3623,
      "ëįĺê°Ģ": 3624,
      "ìħĺ": 3625,
      "ĠìľĦìĦł": 3626,
      "Ġk": 3627,
      "Ġì§ĳìķĪ": 3628,
      "ìŀĲìĭĿ": 3629,
      "Ġì¡°ì¤ĳëıĻ": 3630,
      "ê°ĻìĿĢëį°": 3631,
      "ìĸ¼": 3632,
      "Ġìļ°íķľ": 3633,
      "Ġì§Ģê¸ĪëıĦ": 3634,
      "Ġë°ĽëĬĶ": 3635,
      "Ġëª°ëŀĲ": 3636,
      "Ġ70": 3637,
      "íĶ½": 3638,
      "ĠìĦ¸ìĥģìĿ´": 3639,
      "ĠìĪĺìĭŃ": 3640,
      "ĠìĽĥê¸°": 3641,
      "Ġìĵ°ëĬĶ": 3642,
      "íĶĪ": 3643,
      "ìĹĨëĦ¤": 3644,
      "ìĤ¬ë¡ľ": 3645,
      "Ġìĺ¹": 3646,
      "Ġë°ľìłĦ": 3647,
      "Ġê³łë°ľ": 3648,
      "ĠìłĦìĹĲ": 3649,
      "ĠëĬĲê·¸": 3650,
      "ĠìĦĿìĹ´": 3651,
      "ì¢ĮíĮĮ": 3652,
      "ãĦ²": 3653,
      "ĠëĭŃ": 3654,
      "Ġì£Ħëĭ¤": 3655,
      "Ġìĭ«ëĭ¤": 3656,
      "ìķĦìķ¼ì§Ģ": 3657,
      "Ġëıħë¦½": 3658,
      "ì¹Ń": 3659,
      "Ġì²Ļ": 3660,
      "ĠëĿ¼ê³ł": 3661,
      "Ġìĸ´ëĶ": 3662,
      "Ġìļ°ìĦł": 3663,
      "ë¨¸ë¦¬": 3664,
      "ê·¸ëĥ¥": 3665,
      "Ġë¬´ìĭĿíķľ": 3666,
      "ê²Ģì°°": 3667,
      "íıŃíĸī": 3668,
      "Ġì¢ħë¶ģ": 3669,
      "Ġìķłëĵ¤ìĿ´": 3670,
      "ëĭ¹ìĹĲ": 3671,
      "ìĹĨìĸ´": 3672,
      "Ġê²Ģì°°ìĿ´": 3673,
      "ĠìłĢê²Į": 3674,
      "Ġíķľìĭ¬íķĺëĭ¤": 3675,
      "íĸĪëĤĺ": 3676,
      "Ġëĭ¤íĸī": 3677,
      "ë¦½ëĭĪëĭ¤": 3678,
      "Ġ:": 3679,
      "ìĿ´ìĹĪ": 3680,
      "ìĥģê³µ": 3681,
      "Ġì²łìĪĺ": 3682,
      "ĠìĥĿíĻľ": 3683,
      "Ġë°ľìĸ¸": 3684,
      "Ġëįĺ": 3685,
      "ì¹ĺê°Ģ": 3686,
      "Ġìŀħìŀ¥": 3687,
      "ëĭĪê¹Ĳ": 3688,
      "ìŁģìĿ´": 3689,
      "Ġê±·": 3690,
      "Ġë°ľíĳľ": 3691,
      "Ġêµ¬ëĿ¼": 3692,
      "ĠëĮĢíķľë¯¼êµŃìĿĺ": 3693,
      "Ġê³µê³µ": 3694,
      "Ġë°ĽìĿĢ": 3695,
      "ĠìĿ¸ìĤ¬": 3696,
      "ĠìĿĺìĭ¬": 3697,
      "íķĺëįĶëĭĪ": 3698,
      "Ġê·¸ëŀ¬": 3699,
      "ë¸Ķ": 3700,
      "ľìĹĲ": 3701,
      "Ġë°°ìĭł": 3702,
      "ëģĶ": 3703,
      "ê°ĦìĹĲ": 3704,
      "Ġì¡±": 3705,
      "Ġì§ľì¦Ŀ": 3706,
      "Ġê¼´ë": 3707,
      "ĠëĮĢê¸°ìĹħ": 3708,
      "ê¹Įë´Ĳ": 3709,
      "ëĵĿê¶Į": 3710,
      "ëĨĢ": 3711,
      "ìłľìĹĲ": 3712,
      "Ġë§İìķĦ": 3713,
      "Ġì§Ħìłķíķľ": 3714,
      "ĠíĽ¨ìĶ¬": 3715,
      "Ġê¹Ģì¢ħ": 3716,
      "ĠëĮĢëĨĵê³ł": 3717,
      "ĠìĥĪë¡ľ": 3718,
      "Ġì¸": 3719,
      "Ġì£¼ê°Ģ": 3720,
      "ãĦ·ãĦ·": 3721,
      "Ġì¯": 3722,
      "Ġëħ¹": 3723,
      "ĠëĨĵê³ł": 3724,
      "ìľ¼ëĿ¼ê³ł": 3725,
      "ìĹĲë§Į": 3726,
      "Ġìĺ·": 3727,
      "ì§Ģë§ī": 3728,
      "ĠìŀĪìĸ´ìķ¼": 3729,
      "íķłëĵ¯": 3730,
      "Ġìľłì§Ģ": 3731,
      "ê´Ģê³Ħ": 3732,
      "ë©¸": 3733,
      "~!": 3734,
      "ê³Ħë¥¼": 3735,
      "ĠìľłìĬ¹ë¯¼": 3736,
      "ĠL": 3737,
      "Ġê°Ģíķ´": 3738,
      "ìĿ¼ìĿĦ": 3739,
      "Ġìŀ¬íĮĲ": 3740,
      "Ġìłľìłķìĭł": 3741,
      "Ġê¼¬": 3742,
      "Ġëĺĳë°Ķë¡ľ": 3743,
      "ĠëĴ¤ì§ĳ": 3744,
      "ê¸°ê´Ģ": 3745,
      "ìķĦëĤĺ": 3746,
      "ìĩĦ": 3747,
      "íķĺìĭł": 3748,
      "íĻĶê°Ģ": 3749,
      "Ġì£¼ëĬĶ": 3750,
      "ìĦĿìĿ´": 3751,
      "ìĺ¤ëĬĶ": 3752,
      "ĠìķłêµŃ": 3753,
      "ĠëħĦ": 3754,
      "Ġë¶Ģíĥģ": 3755,
      "Ġìĩ": 3756,
      "ª¼": 3757,
      "Ġì¡°ìĦłìĿ¼ë³´": 3758,
      "ìĿ¼ê¹Į": 3759,
      "Ġëĵł": 3760,
      "ĠìĹĨìľ¼ëĭĪ": 3761,
      "ë³´ëĬĶ": 3762,
      "ì½Ķë¡ľëĤĺ": 3763,
      "íķľë²Ī": 3764,
      "íĸĩ": 3765,
      "ìĬ¬": 3766,
      "ĠìŀĲê¸°ê°Ģ": 3767,
      "Ġãħĭãħĭãħĭãħĭãħĭãħĭãħĭãħĭãħĭãħĭãħĭãħĭ": 3768,
      "19": 3769,
      "íĮĶìĿ´": 3770,
      "ĠG": 3771,
      "Ġë¹ĦìĬ·": 3772,
      "íķĺëĬĶê²ĥ": 3773,
      "íĸĪì§Ģ": 3774,
      "ìĿ´ëĦ¤ìļĶ": 3775,
      "ëģĿ": 3776,
      "ĠëĶ°ë¡ľ": 3777,
      "Ġíį": 3778,
      "ì§ĢìĹŃ": 3779,
      "Ġë¬´ëĦĪ": 3780,
      "Ġìļ´ìĺģ": 3781,
      "ĠíĿ¬ìĥĿ": 3782,
      "ëıĮìķĦ": 3783,
      "ttp": 3784,
      "Ġë¹µ": 3785,
      "Ġíĥľê·¹": 3786,
      "Ġìŀħë§Į": 3787,
      "Ġëı¼": 3788,
      "ì¡°ì°¨": 3789,
      "ë°Ģ": 3790,
      "ĠëĤĺìĺ¤ë©´": 3791,
      "ìĦ¸ëĮĢ": 3792,
      "ľ¨": 3793,
      "ĠìĦ±ê³µ": 3794,
      "ì¶ľìĭł": 3795,
      "Ġê´ĳì£¼": 3796,
      "ĠìĿ´ìŀ¬ëªħìĿĢ": 3797,
      "ê°Īë": 3798,
      "ë¬µ": 3799,
      "Ġíķĳ": 3800,
      "ìĦ¸ìĥģ": 3801,
      "ðŁ¤": 3802,
      "Ġëĵ±ëĵ±": 3803,
      "Ġë§ŀëĭ¤": 3804,
      "Ġë¹¼ë": 3805,
      "Ġê´ĳíĻĶ": 3806,
      "íķĻêµĲ": 3807,
      "Ġìª½íĮĶ": 3808,
      "ĠìķĦëĭĮê°ĢìļĶ": 3809,
      "Ġëĭ¤ë¥¸ë": 3810,
      "Ġëĺĺ": 3811,
      "Ġíĺ¹ìĭľ": 3812,
      "ì¸ł": 3813,
      "ĠìĿ´ìŀ¬": 3814,
      "ìľĦë¡ľ": 3815,
      "ì¢ĭìĿĢ": 3816,
      "ĠíĿĲ": 3817,
      "ìĸ´ëĤľ": 3818,
      "ë¶Ħëĵ¤": 3819,
      "Ġëĳĺëĭ¤": 3820,
      "Ġë°ľìĥĿ": 3821,
      "Ġìĸ´ëłµ": 3822,
      "Ġëĸ¡": 3823,
      "©į": 3824,
      "Ķ©": 3825,
      "ĠêµŃë¯¼ë": 3826,
      "Ġê±°ë¦¬ë": 3827,
      "ĠëĬĲëĤĮ": 3828,
      "ĠëĮĢìĿĳ": 3829,
      "ìĺĢëĭ¤": 3830,
      "ĠìķĦëĭĻëĭĪëĭ¤": 3831,
      "ĦëłĪìŀĦ": 3832,
      "ĠìĿ¼ë³¸ìĿĢ": 3833,
      "ª»": 3834,
      "Ġê´ĳê³ł": 3835,
      "ì§ĢëĦ¤": 3836,
      "Ġìľ¤ë¯¸íĸ¥": 3837,
      "ëħ¸ë": 3838,
      "Ġê´Ģê³Ħ": 3839,
      "Ġë¬¸ìłķë¶Ģ": 3840,
      "ĠêµŃì§Ĳëĭ¹": 3841,
      "://": 3842,
      "ĠíĭĢëĶ±": 3843,
      "ìŀ¥ìĹĲ": 3844,
      "ĠëĤĺìĻĢìĦľ": 3845,
      "ãħĭãħĭãħĭãħĭãħĭãħĭ": 3846,
      "Ġ^^": 3847,
      "ĠìľĦë": 3848,
      "Ġë°ķìĽĲìĪľ": 3849,
      "Ġì¤ĳêµŃìĿ´": 3850,
      "ìŀĪëĬĶëį°": 3851,
      "Ġë¶Ħëħ¸": 3852,
      "Ġê²½ìļ°": 3853,
      "Ġê¸°ë¶Ģ": 3854,
      "ìľĦìĽĲ": 3855,
      "ĠìŀĪëĬĶì§Ģ": 3856,
      "ĠìĿ´ëĶ´": 3857,
      "ëıĦë¡ľ": 3858,
      "ĠíĹ¤": 3859,
      "Ġê·¸ëŀĺìķ¼": 3860,
      "¨¼ì§Ģ": 3861,
      "ĠìĦ¤ì¹ĺ": 3862,
      "Ġê²°ìłķ": 3863,
      "Ġìĸ´íľ´": 3864,
      "ĠëĲ©ëĭĪëĭ¤": 3865,
      "Ġê´Ģë¦¬": 3866,
      "Ġ!!": 3867,
      "ìĤ¬ëŀĮìĿĢ": 3868,
      "Ġì¡´ë": 3869,
      "Ġìļ°íĮĮ": 3870,
      "ĠìĤ¬ëŀĮëıĦ": 3871,
      "Ġìłķê¶ĮìĿ´": 3872,
      "ê·¼ë": 3873,
      "Ġìĭłë¢°": 3874,
      "am": 3875,
      "Ġë¶ĢëģĦëŁ½": 3876,
      "ĠëĮĢíĨµëł¹ìĿĢ": 3877,
      "Ġ12": 3878,
      "Ġê±¸ëł¤": 3879,
      "Ġë¯¸ìĤ¬ìĿ¼": 3880,
      "ĠíķĺëĬĶì§ĵ": 3881,
      "ëĪĪ": 3882,
      "Ġìĭ¤íĮ¨": 3883,
      "Ġë§ĮëĵľëĬĶ": 3884,
      "Ġë¯¸ìķĪ": 3885,
      "²½": 3886,
      "Ġì£½ìĿĦ": 3887,
      "Ġë¹¼ê³ł": 3888,
      "ĠìŀĦê¸°": 3889,
      "ëĦ£": 3890,
      "Ġ15": 3891,
      "ĠìŀĪìĸ´ìĦľ": 3892,
      "íķĺëĭ¤ê°Ģ": 3893,
      "ĠS": 3894,
      "ìĦ¸ë¨¼ì§Ģ": 3895,
      "ëªħìĿĦ": 3896,
      "íĸĪê³ł": 3897,
      "ìĿ´ê²Į": 3898,
      "ĠëģĬ": 3899,
      "ìķłëĵ¤": 3900,
      "ìĸ´ë¦¬": 3901,
      "ĠìĿ´ëŁ¬ëĭĪ": 3902,
      "Ġê°ĲìĹ¼": 3903,
      "Ġìŀĩ": 3904,
      "ìĿ¼íĻĶ": 3905,
      "Ġë¯¼ì¡±": 3906,
      "Ġê°ľê°Ģ": 3907,
      "ì§ĢìĤ¬": 3908,
      "ĠëĮĢíķľë¯¼êµŃìĿĦ": 3909,
      "©Ķ": 3910,
      "ĠìĿ´ë²ĪìĹĲ": 3911,
      "ĠìĿ´ëŁ°ê±°": 3912,
      "Ġìį©ìĿĢ": 3913,
      "ë©į": 3914,
      "ê¸´ëĭ¤": 3915,
      "ìķĹ": 3916,
      "ìĿ¸ëıĦ": 3917,
      "ì¤ĳêµŃ": 3918,
      "ìĿ´íĬ¸": 3919,
      "ë°±ìĭł": 3920,
      "Ġì¡°êµŃìĿ´": 3921,
      "ĠêµŃë¯¼ëĵ¤ìĿĦ": 3922,
      "Ġë¶ĪìķĪ": 3923,
      "ĠìĤ´ìķĦëĿ¼": 3924,
      "ìĶ¨ëĬĶ": 3925,
      "Ġìłģëĭ¹íŀĪ": 3926,
      "ĠìĹ¬ê¸°ìĦľ": 3927,
      "ìĹĪëĭ¤ê³ł": 3928,
      "ëĭ¬ëĿ¼ê³ł": 3929,
      "Ġì¦Ĳ": 3930,
      "ĠíķĺëĬĶì§Ģ": 3931,
      "íķĺì§Ģë§ĪëĿ¼": 3932,
      "Ġë©įì²Ńíķľ": 3933,
      "ĠëłĪ": 3934,
      "³´ê³ł": 3935,
      "ë°Ķë¦¬": 3936,
      "ĠìĹĨëĤĺ": 3937,
      "Ġë¶Īë§¤": 3938,
      "ê²łëĦ¤ìļĶ": 3939,
      "íĪ¬íĳľ": 3940,
      "Ġë¯¸ì³Ĳ": 3941,
      "Ġëĸłëĵ¤": 3942,
      "Ġê·¹ìļ°": 3943,
      "Ġìĸ¸ìłľê¹Įì§Ģ": 3944,
      "Ġë§¤ìĿ¼": 3945,
      "Ġë§ĲìķĦë¨¹": 3946,
      "ĠíĻĺê²½": 3947,
      "Ġíŀ": 3948,
      "Ġëĭ´ë": 3949,
      "©´ë": 3950,
      "Ġë§ŀì§Ģ": 3951,
      "Ġìłľëª©": 3952,
      "ĠëĮĢë³Ģ": 3953,
      "Ġ200": 3954,
      "Ġìľłìĭľë¯¼": 3955,
      "Ġë°Ķê¾¸": 3956,
      "ĠìĿ¸ìĦ±": 3957,
      "ìĹĺ": 3958,
      "¹¨": 3959,
      "ìķĦëĭĮê°Ģ": 3960,
      "Ġë°ĶëŀĢëĭ¤": 3961,
      "ê·¸ëŁ°": 3962,
      "ĠìłĦêµŃ": 3963,
      "ĠìłĲìłĲ": 3964,
      "ë¡Ń": 3965,
      "Ġìľ¡": 3966,
      "ìĿĦìĪĺ": 3967,
      "êµ¬ë¨¼": 3968,
      "ĠíĻ©êµĲìķĪ": 3969,
      "ì¥Ĳ": 3970,
      "Ġc": 3971,
      "ĠìłĦë¬¸ê°Ģ": 3972,
      "ĠìµľìĪľìĭ¤": 3973,
      "ëį©": 3974,
      "ëĬĶëĭ¤ê³ł": 3975,
      "íĺĪ": 3976,
      "Ġê·ľìłľ": 3977,
      "ìĤ¬ê¸°": 3978,
      "Ġì¡°íıŃ": 3979,
      "Ġì¤ĳê³µ": 3980,
      "ë´ĲëıĦ": 3981,
      "Ġê¸°ëĵĿê¶Į": 3982,
      "ëĥĲê³ł": 3983,
      "Ġê¸Īì§Ģ": 3984,
      "ĠìķĦëĤĺ": 3985,
      "ì£¼ëıĦ": 3986,
      "25": 3987,
      "ìľĦê°Ģ": 3988,
      "ĠëıĪìľ¼ë¡ľ": 3989,
      "ĠìĿ¼ìĸ´ëĤĺ": 3990,
      "ëħĦìĿ´": 3991,
      "ì¹ĺë¥¼": 3992,
      "ëĶ¸": 3993,
      "ĠìĹ¬íĸī": 3994,
      "ĠëıĪë²Į": 3995,
      "Ġëĭ¥": 3996,
      "ìķħíķľ": 3997,
      "ìķĺëĬĶëį°": 3998,
      "ĠìĦ¸ëł¥": 3999,
      "Ġë§Īì§Ģë§ī": 4000,
      "Ġë°ĺìĿ¼": 4001,
      "§¤": 4002,
      "ìĨĮëĵĿ": 4003,
      "êµ¬ìĦĿ": 4004,
      "Ġíľĺ": 4005,
      "ĠëĥĦ": 4006,
      "Ġë°ĶëŀĮ": 4007,
      "Ġëĺĳëĺĳ": 4008,
      "Ġë³´ìĥģ": 4009,
      "Ġëª¨ì§Ģ": 4010,
      "ł¸": 4011,
      "Ġë°ķìłķíĿ¬": 4012,
      "ĠìķĦê¹Ŀ": 4013,
      "ë¶ĢëĮĢ": 4014,
      "Ġë©¸": 4015,
      "Ġë§¤êµŃëħ¸": 4016,
      "ĠíķľêµŃìĿĢ": 4017,
      "Ġë§ĪëĪĦëĿ¼": 4018,
      "Ġíķĺê¸°": 4019,
      "ì§±": 4020,
      "ĠìķĪê°Ģ": 4021,
      "Ġíļ¨ê³¼": 4022,
      "Ġê³µë§¤": 4023,
      "ìĹĪëĥĲ": 4024,
      "Ġê²½ê¸°ëıĦ": 4025,
      "Łī": 4026,
      "Ġë³´ëıĦ": 4027,
      "ìłĢë¦¬": 4028,
      "ķëĭĪëĭ¤": 4029,
      "°ëĮĢ": 4030,
      "ëĨį": 4031,
      "ĠíĸĪëįĺ": 4032,
      "Ġì§ĸ": 4033,
      "ĠíĥĪë": 4034,
      "Ġìłķì¹ĺë¥¼": 4035,
      "ĠëıĦë§Ŀ": 4036,
      "Ġë¬¸ìłķê¶Į": 4037,
      "ê°Ģë¶Ģ": 4038,
      "Ġìī½ê²Į": 4039,
      "Ġêµ³ìĿ´": 4040,
      "íĦ¸": 4041,
      "Ġì§Ģìĺ¥": 4042,
      "ãħ¡ãħ¡ãħ¡ãħ¡": 4043,
      "ëĤĺê²Į": 4044,
      "ëķħ": 4045,
      "ĠìĤ¬íĥľ": 4046,
      "íģ¬ëĿ¼": 4047,
      "ĠëĮĢíķľë¯¼êµŃìĿ´": 4048,
      "Ġì·¨ê¸ī": 4049,
      "Ġì¹Ń": 4050,
      "ðŁĳį": 4051,
      "Ġ80": 4052,
      "ê¶ĮìĿĦ": 4053,
      "Ġì²ĺë¦¬": 4054,
      "íķĺì§ĢìķĬ": 4055,
      "ì£¼ê¸°": 4056,
      "Ġëª»íķł": 4057,
      "ê°Ģë¥¼": 4058,
      "ìĭľìĹĲ": 4059,
      "ë§Įíķľ": 4060,
      "ĠM": 4061,
      "Ġëĭ¹ìĭłìĿĢ": 4062,
      "ê°Ŀ": 4063,
      "Ġë³´ìĿ¸ëĭ¤": 4064,
      "ìķĦë²Ħ": 4065,
      "ĠëĤ¨íĥĵ": 4066,
      "ĠíĿĳ": 4067,
      "Ġì£¼ìĤ¬íĮĮ": 4068,
      "íķ´ì£¼ìĦ¸ìļĶ": 4069,
      "°Ľê³ł": 4070,
      "ê°Ģìķ¼": 4071,
      "ìĿ´ìłľ": 4072,
      "Ġhttp": 4073,
      "ì¿ł": 4074,
      "ì±ħìŀĦ": 4075,
      "ì¤Įë§Ī": 4076,
      "ìĭ¶ëĭ¤": 4077,
      "Ġê¹¡": 4078,
      "ì§Ħíķĳ": 4079,
      "ìĬĪ": 4080,
      "¦¼íĶ½": 4081,
      "Ġì¡°ì§ģ": 4082,
      "lt": 4083,
      "ì¹´ë": 4084,
      "ĠíĿĺ": 4085,
      "ë³µìĿĦ": 4086,
      "ìŀĦê¸Ī": 4087,
      "Ġì°¬ìĦ±": 4088,
      "ë¥¼ë": 4089,
      "Ġìĺ¹íĺ¸": 4090,
      "ĠìķĦëĭĪìķ¼": 4091,
      "ĠíĴį": 4092,
      "ëĤ´ê³ł": 4093,
      "ìĿ¼ë¿Ĳ": 4094,
      "ìł¸ë": 4095,
      "ìĭľê¸°": 4096,
      "ë¯¼ì£¼ì£¼ìĿĺ": 4097,
      "ĠëĨĶ": 4098,
      "Ġê°Ģë©´": 4099,
      "ĠëĤ´ë¶Ģ": 4100,
      "íĻĶë¥¼": 4101,
      "ëįĺì§Ģ": 4102,
      "ĠëĤĺëĿ¼ëĬĶ": 4103,
      "Ġíķ´ì£¼": 4104,
      "Ġê¼¬ëĿ¼ì§Ģ": 4105,
      "ëł¥ìĿĦ": 4106,
      "ë³´ìĪĺ": 4107,
      "Ġë¬¼ìĸ´ë": 4108,
      "Ġíķ´ë¨¹": 4109,
      "ĠìĦľìļ": 4110,
      "Ġíķľëªħ": 4111,
      "ĠìĥĿê¸°": 4112,
      "ĠìłĦê¸°": 4113,
      "ìľĦë¥¼": 4114,
      "Ġë¬´ê¸°": 4115,
      "ĠíĹĪìľĦ": 4116,
      "ê°ľë°ľ": 4117,
      "ëĵ¤ìĿ´ëĤĺ": 4118,
      "ë³´ìŀĲ": 4119,
      "êµ´ë": 4120,
      "ĠìľłëŁ½": 4121,
      "Ħëł¸": 4122,
      "ìĹĪì§Ģ": 4123,
      "ĠìĿ´ìłľìĻĢìĦľ": 4124,
      "Ġ180": 4125,
      "ĠìŁ¤": 4126,
      "ìĹĨìĿĮ": 4127,
      "ê³¼ë¥¼": 4128,
      "ê·¸ë¦¬ê³ł": 4129,
      "Ġíķĺì§Ģë§ĪëĿ¼": 4130,
      "ê±°ë©´": 4131,
      "ê¸¸ëŀĺ": 4132,
      "ìĿ¼ë³¸": 4133,
      "Īë¥¼": 4134,
      "Īë°ĺ": 4135,
      "Ġê°ĢìĬ´": 4136,
      "Ġë¹¨ê°±": 4137,
      "Ġëª°ëĿ¼": 4138,
      "Ġê¸°ìĥĿì¶©": 4139,
      "ĠìŀĲìĭłìĿĺ": 4140,
      "Ġë²ķìĿ´": 4141,
      "ãħ£": 4142,
      "Ġìŀ¥ìĤ¬": 4143,
      "Ġë¶ģíķľìĹĲ": 4144,
      "ĠìĳĪ": 4145,
      "ĠìĿ¼ë³¸ë": 4146,
      "ëĸ¨ìĸ´": 4147,
      "ĠíĺĦëĮĢ": 4148,
      "ìĤ¬ìĭ¤": 4149,
      "Ġê¹Ģìĸ´ì¤Ģ": 4150,
      "Ġíĥľê·¹ê¸°": 4151,
      "ĠëĮĢíķ´ìĦľ": 4152,
      "Ġë§İìĿĢëį°": 4153,
      "ĠíĴĪ": 4154,
      "ĠìĤŃ": 4155,
      "Ġê°ĸê³ł": 4156,
      "Ġë§ĪìĦ¸ìļĶ": 4157,
      "ĠìŀĪëĬĶê±°": 4158,
      "ë¯¿": 4159,
      "íľ": 4160,
      "Ġë§Įìķ½": 4161,
      "Ġì£Ħê°Ģ": 4162,
      "Ġëª¨ìĸĳ": 4163,
      "Ġíĺĳë°ķ": 4164,
      "Ġì¤ĳêµŃìĹĲ": 4165,
      "ĠìĹĨìĿĦ": 4166,
      "ĠìĹĨìĬµëĭĪëĭ¤": 4167,
      "ìĬ¤íħ": 4168,
      "Ġìŀ¬ëĤľ": 4169,
      "ê·¸ëĦ¤": 4170,
      "ìĿ´ì§Ģë§Į": 4171,
      "ëıĻíĽĪ": 4172,
      "Ġëĭ¨ìĿ¼íĻĶ": 4173,
      "ĠìĦ¸ìĥģìĹĲ": 4174,
      "ĠëĤĺëĿ¼ìĹĲìĦľ": 4175,
      "ĠìĿ¸êµ¬": 4176,
      "Ġìĸ´ìĿ´ê°Ģ": 4177,
      "ĠíĨµìłľ": 4178,
      "íĽł": 4179,
      "ìĿ¼ìĿĢ": 4180,
      "Ġë¬´ì§Ģ": 4181,
      "Ġì§ĳìĹĲìĦľ": 4182,
      "ĠìĤ¬ë©´": 4183,
      "ì§ĸ": 4184,
      "ê²Ĳ": 4185,
      "Ġì²łìłĢíŀĪ": 4186,
      "ëıĦë¥¼": 4187,
      "ĠíĺľíĥĿ": 4188,
      "ĠìĤ¬ìĿ´ë¹Ħ": 4189,
      "Ġìľ¤ìĦĿìĹ´ìĿĢ": 4190,
      "Ġê°ĲìĤ¬íķ©ëĭĪëĭ¤": 4191,
      "ĠìķĦë¬´ëıĦ": 4192,
      "ì³ĲìĦľ": 4193,
      "ì¶ĺ": 4194,
      "ĠëĿ": 4195,
      "ìĦ¸ë¥¼": 4196,
      "ĠíĻķìĭ¤íŀĪ": 4197,
      "ëķĲ": 4198,
      "Ġìĵ°ëłĪê¸°ëĵ¤": 4199,
      "įĶëĭĪ": 4200,
      "Ġì°©ê°ģ": 4201,
      "Ġíķłë¨¸ëĭĪ": 4202,
      "ìĸĺ": 4203,
      "ì©¡": 4204,
      "amp": 4205,
      "íķľëĭ¤ë©´": 4206,
      "ëĭĺëĵ¤": 4207,
      "ëĮĢíķľë¯¼êµŃ": 4208,
      "Ġì¢ĥ": 4209,
      "¸ëĦ¤": 4210,
      "ĠíķĦìļĶíķľ": 4211,
      "Ġê³łë§Ļ": 4212,
      "ìĳ": 4213,
      "íķĺê²łì§Ģ": 4214,
      "ĠãĦ¹": 4215,
      "Ġ!!!": 4216,
      "Ġìĸ¼ë": 4217,
      "ĠìķĬìĿĦ": 4218,
      "Ġì½Ķë¡ľëĤĺë¡ľ": 4219,
      "ĠìĭŃ": 4220,
      "´ëķĮ": 4221,
      "Ġì¹¼": 4222,
      "ê²łìĸ´": 4223,
      "ìĦ±ìĿĢ": 4224,
      "ê±°ê³ł": 4225,
      "ê²ĥëĵ¤ìĿĢ": 4226,
      "ĠìĪĺìŀħ": 4227,
      "Ġë¬´ìĦľìļ´": 4228,
      "Ġê·¸ëŁ¬ëĭĪê¹Į": 4229,
      "²Ħëł¤": 4230,
      "Ġì¡´ê²½": 4231,
      "Ġë¬¼ê³ł": 4232,
      "Ġì§Ħíĸī": 4233,
      "ëĮĢì¤ĳ": 4234,
      "ë¶Ģë¡ľ": 4235,
      "Ġë¯¸ìĦ¸ë¨¼ì§Ģ": 4236,
      "ĠëŃĶì§Ģ": 4237,
      "ì§ľë¦¬": 4238,
      "Ġìĸ´ìłľ": 4239,
      "ìĭ¬ìĿĦ": 4240,
      "ëĿ¼ëĭĪ": 4241,
      "ĠëĮĢëĭ¨íķľ": 4242,
      "ĠìŀĲìĹ°": 4243,
      "Ġë¶ģíķľìĿ´": 4244,
      "Ġíģ¬ê²Į": 4245,
      "ĠìłĢê¸°": 4246,
      "ì¤Ģëĭ¤": 4247,
      "ê²łìĬµëĭĪëĭ¤": 4248,
      "ìĿ¸ìľ¼ë¡ľ": 4249,
      "ìĽĮëĿ¼": 4250,
      "Ġë½ĳìķĦ": 4251,
      "ëŀľ": 4252,
      "Ġíķľëĭ¤ëĬĶ": 4253,
      "ë°Ķëĭ¥": 4254,
      "Ġë¶ĢíĮ¨": 4255,
      "ì¡Įëĭ¤": 4256,
      "Ġë³´ëĤ´ë": 4257,
      "ëıĪìľ¼ë¡ľ": 4258,
      "Ġì²ŃìĨĮ": 4259,
      "ìĪĺìĪĺ": 4260,
      "****": 4261,
      "Ġê°Ģë¥´": 4262,
      "ìŀħëĭĪê¹Į": 4263,
      "Ġì¹ĺë§¤": 4264,
      "ëķĮëĬĶ": 4265,
      "Ġê³µê¸ī": 4266,
      "Ġìļķë¨¹": 4267,
      "Ġë¬´ì£Ħ": 4268,
      "Ġë³¸ë": 4269,
      "Ġê±°ë¶Ģ": 4270,
      "ìļ©ìĿ´": 4271,
      "Ġì§Ħì¤ĳ": 4272,
      "ĠìķĦìĽĥ": 4273,
      "Ġ&": 4274,
      "ĠìĹ¬ëŁ¬ë¶Ħ": 4275,
      "ĠìłķìĭłëĤĺ": 4276,
      "ĠìĤ´ëł¤": 4277,
      "ĠìĺĽëĤł": 4278,
      "ìħĶìĦľ": 4279,
      "ĠëĤĺëĿ¼ëĥĲ": 4280,
      "Ġì£¼ëĳ¥ìĿ´": 4281,
      "ĠìĨĮëĵĿ": 4282,
      "ìĺ¤ë©´": 4283,
      "Ġë§Īì°¬": 4284,
      "ĠëĤ©": 4285,
      "ë¥´ë©´": 4286,
      "ĠìĿ¼ìŀĲë¦¬": 4287,
      "ĠëĪĦêµ´": 4288,
      "ĠìĻľìĿ´": 4289,
      "ëıĦëĬĶ": 4290,
      "Ġ/": 4291,
      "ĠíĸĪìľ¼ë©´": 4292,
      "íĺĦë": 4293,
      "ĨĶ": 4294,
      "Ġê²ĮìŀĦ": 4295,
      "Ġì°¨ë³Ħ": 4296,
      "ëĭ¹ìĿĺ": 4297,
      "15": 4298,
      "ìļ°ë©´": 4299,
      "Ġìļ°ë¦¬ëĤĺëĿ¼ëĬĶ": 4300,
      "Ġê°Ģìłķ": 4301,
      "ìķ¼ëĲľëĭ¤": 4302,
      "Ġë¬¸ìŀ¬ìĿ¸ë": 4303,
      "Ġì¢ĭìķĦíķĺëĬĶ": 4304,
      "Ġê·¼ê±°": 4305,
      "ĠìµľìĨĮíķľ": 4306,
      "Ġê·¸ëĨĪ": 4307,
      "ê¹Įìļ´": 4308,
      "Ġì°¾ìķĦ": 4309,
      "Ġëĭ¹ìĭľ": 4310,
      "ìĥģìĿĢ": 4311,
      "ì£Ħë¥¼": 4312,
      "ĠëĤĺëĪ": 4313,
      "´Ĳìķ¼": 4314,
      "ê´ĢìĿ´": 4315,
      "íĭ´": 4316,
      "ìľ¼ëĤĺ": 4317,
      "Ġìļ°ë¦¬ëıĦ": 4318,
      "ë»": 4319,
      "Ġ??": 4320,
      "ĠëĤĺëĿ¼ìĿĺ": 4321,
      "ĠìĹ¬ëŁ¬": 4322,
      "Ġìłķìŀĳ": 4323,
      "¡¯": 4324,
      "Ġë³Ģíĺ¸ìĤ¬": 4325,
      "Ġìļ©ìĦľ": 4326,
      "íĸĪëĭ¤ëĬĶ": 4327,
      "ìĿ´ê¸°": 4328,
      "Ġm": 4329,
      "íķĺìħ¨": 4330,
      "ìĿĢëį°": 4331,
      "ĠíĶĦë¡ľ": 4332,
      "ĠëĭµìĿ´": 4333,
      "Ġãħľãħľ": 4334,
      "ìłģìĿ´ê³ł": 4335,
      "¬ëŀĲ": 4336,
      "Īë¬´": 4337,
      "ĠëĮĢìĭł": 4338,
      "Ġê´ĳíĻĶë¬¸": 4339,
      "ĠìķĪëı¼": 4340,
      "Ġìª¼": 4341,
      "Ġê¸°ìĨĮ": 4342,
      "ê³Ħë": 4343,
      "Ġì§Ģíķĺ": 4344,
      "ìķĪë¶Ģ": 4345,
      "Ġì§ģìŀ¥": 4346,
      "ëħĦìĹĲ": 4347,
      "Ġê»": 4348,
      "ìķĪíķĺê³ł": 4349,
      "ìĿĺë¥¼": 4350,
      "ìķĦì§Ģ": 4351,
      "ĠìĹ¬ìŀĲê°Ģ": 4352,
      "íķĦìļĶ": 4353,
      "ìĵ¸": 4354,
      "Ġì±ħìŀĦìĿĦ": 4355,
      "ĠìĦľìļ¸ëĮĢ": 4356,
      "Ġìĭ¸ìĽĢ": 4357,
      "Ġì¿ł": 4358,
      "ĠíĶĦëłĪìŀĦ": 4359,
      "ĠìĿ¼ìłľ": 4360,
      "Ġíĺ¼ë": 4361,
      "Ġëĵ¤ìĿ´": 4362,
      "¿Ķ": 4363,
      "ìĹ¬ìŀĲ": 4364,
      "ëĮĵê¸Ģ": 4365,
      "ì§Ģìĸ´": 4366,
      "ìĿĦê¹ĮìļĶ": 4367,
      "Ġì£Ħë¥¼": 4368,
      "ĠìĤ´ìĿ¸ë": 4369,
      "ĠìĤ´ê¸°": 4370,
      "ĠëĪĪë¬¼": 4371,
      "âĢĿ": 4372,
      "ĠìĪĺê°Ģ": 4373,
      "Ġìĺ®": 4374,
      "Ġê±°ëĭ¤": 4375,
      "ĠìĪĺì¶ľ": 4376,
      "ĠëıĦëįķ": 4377,
      "????????": 4378,
      "Ġíķľë²ĪëıĦ": 4379,
      "Ġë¬¸ìłľëĬĶ": 4380,
      "ëĭ¨ê³Ħ": 4381,
      "Ġë°ķìĺģ": 4382,
      "ìĪĺë¡ľ": 4383,
      "ĠT": 4384,
      "ëĨĪëĵ¤ìĿ´": 4385,
      "Ġì§Ģê»Ħ": 4386,
      "ĠìľłíĬľë¸Į": 4387,
      "Ġìľ¼": 4388,
      "ë¶Ģëª¨": 4389,
      "ĠìĹ¬ê°Ģë¶Ģ": 4390,
      "Ġìľłì¹ĺ": 4391,
      "Ĥ¬": 4392,
      "Ġì¶ķíķĺ": 4393,
      "Ġë±": 4394,
      "ê°Ķëĭ¤": 4395,
      "Ġë§īë§Ĳ": 4396,
      "ìĥģìľ¼ë¡ľ": 4397,
      "Ġìļ´ìļ´": 4398,
      "Ġë¬¼íĥĢ": 4399,
      "Ġê²Ģì¦Ŀ": 4400,
      "ĠëĲ¨": 4401,
      "Ġë°°ìļ°": 4402,
      "ìĦ¸ë¡ľ": 4403,
      "Ġëºı": 4404,
      "Ġê³łë§Ī": 4405,
      "ĠëĲĺëĬĶëį°": 4406,
      "Ġì©Ŀ": 4407,
      "ĠìĭľìĽĲ": 4408,
      "ìķĶ": 4409,
      "Ġìŀĺíķĺê³ł": 4410,
      "Ġì§Ģêµ¬": 4411,
      "ëħĦìłĦ": 4412,
      "ê°ĲìĿ´": 4413,
      "ĠëĤĺëĿ¼ìĹĲ": 4414,
      "ĠëĸłëĤĺ": 4415,
      "íı¬ë": 4416,
      "ĠC": 4417,
      "ìĺģìĽħ": 4418,
      "·°": 4419,
      "ĠíķľëıĻíĽĪ": 4420,
      "ĠíĴĢìĸ´": 4421,
      "Ġê±°ë¦¬ëĳĲ": 4422,
      "ìĽĲìĿĢ": 4423,
      "ĠìŀĪëįĺ": 4424,
      "ĠìĦ¸ê¸Īë": 4425,
      "ëĬĲëĥĲ": 4426,
      "ë§Įëĵ¤": 4427,
      "íķĺëĭ¤ëĬĶ": 4428,
      "ìķĦëĤ´": 4429,
      "ë¶ĦìĹĲ": 4430,
      "íħĶ": 4431,
      "Ġì«Į": 4432,
      "ê²½ìĺģ": 4433,
      "íķĺê¸¸": 4434,
      "ìĿ´ìĹĲ": 4435,
      "Ġì°¸ìľ¼ë¡ľ": 4436,
      "ìłķë§Ĳ": 4437,
      "ĠìĭľìľĦ": 4438,
      "Ġë¬¸ìłľìĿ¸": 4439,
      "íħĮëĭĪ": 4440,
      "ìĽĲëıĦ": 4441,
      "íĬ¸ëĤ¨": 4442,
      "ª©": 4443,
      "ìĹĪê³ł": 4444,
      "ìķĦëĭĺ": 4445,
      "ĠìĻł": 4446,
      "ìĭľë©´": 4447,
      "°Ģ": 4448,
      "ìĭŃëĭĪëĭ¤": 4449,
      "ĠíıŃëĵ±": 4450,
      "Ġíķ©ìĭľëĭ¤": 4451,
      "Ġì£¼ìĦ¸ìļĶ": 4452,
      "ĠìĿ¼ìľ¼": 4453,
      "Ġì§ķìĹŃ": 4454,
      "ĠìĿĮìĭĿ": 4455,
      "ĠìķĮìķĦ": 4456,
      "ĠìĿĮì£¼ìļ´ìłĦ": 4457,
      "..?": 4458,
      "íŀĪê³ł": 4459,
      "ë§ĮëıĦ": 4460,
      "ĠìĦłìĥĿ": 4461,
      "ãħĬ": 4462,
      "íĽĦë³´ë": 4463,
      "ĠìĶ¨ë¶Ģ": 4464,
      "ĮĢíĨµëł¹": 4465,
      "ì¡°ë¦¬": 4466,
      "íĻĶêµŃ": 4467,
      "ëıħêµĲ": 4468,
      "ĠëĮĢëĭ¨íķĺëĭ¤": 4469,
      "ĠìŀĲê¸°ëĵ¤": 4470,
      "ë°ĽëĬĶ": 4471,
      "ðŁĩ": 4472,
      "ĠìĿ´ëĿ¼": 4473,
      "Ġë§Įëĵ¤ìĸ´ë": 4474,
      "ĠêµŃê°Ģê°Ģ": 4475,
      "Ġë§ĮëĤĺ": 4476,
      "Ġë§İëĦ¤": 4477,
      "Ġë§Ĳë§Į": 4478,
      "Ġê·¸ëŁ¬ëĤĺ": 4479,
      "Ġíı¬íķ¨": 4480,
      "Ġì§ģìĹħ": 4481,
      "íķľê±°ì§Ģ": 4482,
      "Ġê²ģëĭĪëĭ¤": 4483,
      "ëĸł": 4484,
      "ĠìĽĲìĪŃ": 4485,
      "Ġë¸Ķ": 4486,
      "ĠìĹĨëĥĲ": 4487,
      "ìĤ¬ìĹħ": 4488,
      "ww": 4489,
      "ĠëĬĻìĿĢ": 4490,
      "ê¸ĪìĿĦ": 4491,
      "ĠìķĪëĲł": 4492,
      "ĠëŃĲíķĺëĬĶ": 4493,
      "Ġìļ°íģ¬ëĿ¼": 4494,
      "ê¶": 4495,
      "Ġë¦¬ë": 4496,
      "ĠëĦĪê°ĻìĿĢ": 4497,
      "ĠëįĶë¶Īìĸ´ë": 4498,
      "ĠêµŃë¯¼ëĵ¤ìĿĺ": 4499,
      "ĠíĿī": 4500,
      "ë¶Ģê°Ģ": 4501,
      "ĠëĮ": 4502,
      "ì§ĢëĤĺ": 4503,
      "ìĥģíĻ©": 4504,
      "Ġë°ĽìķĦìķ¼": 4505,
      "ëĵ¤ìĹĲ": 4506,
      "Ġì²¨": 4507,
      "ê·¸ë§Į": 4508,
      "Ġê°Ħëĭ¤": 4509,
      "ĠìĺģìĹħ": 4510,
      "Ġë°ľìķħ": 4511,
      "ĠëŃĲëĿ¼ê³ł": 4512,
      "Ġì¡¸": 4513,
      "Ġë°¤": 4514,
      "Ġë³´ìľł": 4515,
      "ëĭĪê°Ģ": 4516,
      "ĠìļĶêµ¬": 4517,
      "Ġì¢ĭëĭ¤": 4518,
      "Ġëĭ¤ëħĢ": 4519,
      "Ġê°ľëħĲ": 4520,
      "Ġì¤ĳìļĶíķľ": 4521,
      "ĠìŀĲë¹łì¡ĮëĦ¤": 4522,
      "ĠìĥĿê¸´": 4523,
      "ìĽĲìĹĲ": 4524,
      "ëĦ·": 4525,
      "ĠìĿĺê²¬": 4526,
      "ĠìµľìķħìĿĺ": 4527,
      "ì§ĪìĿĦ": 4528,
      "ìī½": 4529,
      "ìĭľìłĪ": 4530,
      "Ġíķľê±°": 4531,
      "ĠëıĻë¬¼": 4532,
      "ëĵľë¦½ëĭĪëĭ¤": 4533,
      "ì£Ħë¡ľ": 4534,
      "ĠëĤĺìĺ¨ëĭ¤": 4535,
      "Ġë²Įìĸ´": 4536,
      "¯¼ì£¼": 4537,
      "ìĨįìĹĲ": 4538,
      "ìĸ´ë¨¹": 4539,
      "Ġíĸ¥": 4540,
      "ĠìĦ±íıŃíĸī": 4541,
      "Ġìĭľì§Ħíķĳ": 4542,
      "ì¦ĪìķĦ": 4543,
      "Ġìĭ¤ë§Ŀ": 4544,
      "Ġê³¼íķĻ": 4545,
      "Ġì¤ĳêµŃìĿĢ": 4546,
      "ì¡¸": 4547,
      "ĠìĪ«": 4548,
      "ê·¸ë¦¬": 4549,
      "ìķĦëĭĪê³ł": 4550,
      "íĶĦë": 4551,
      "Ħ£": 4552,
      "ĠìĽĢ": 4553,
      "ĠìĥĿìĤ°": 4554,
      "ê¾¸ë": 4555,
      "ë¬¸ë": 4556,
      "ìŀĺëª»": 4557,
      "Ġê¼°ëĮĢ": 4558,
      "Ġê²½ì°°ìĿ´": 4559,
      "ĠìĥĿê°ģíķĺê³ł": 4560,
      "ĠìĦľìļ¸ìĭľìŀ¥": 4561,
      "Ġë°°ëĭ¬": 4562,
      "Ġì¸¡": 4563,
      "ĠìĶĮ": 4564,
      "íĥĢëł¹": 4565,
      "Ġë¹Ī": 4566,
      "Ġíķĺê¸´": 4567,
      "Ġë¶Īíİ¸": 4568,
      "co": 4569,
      "?????": 4570,
      "ê¸¸ë": 4571,
      "ìŀ¥ëĭĺ": 4572,
      "Ġìłķì¹ĺìłģ": 4573,
      "ìĿ´ìŀĲ": 4574,
      "Ġì§¤": 4575,
      "Ġì§Ħì¤ĳê¶Į": 4576,
      "~!!": 4577,
      "Ġìĥģíĥľ": 4578,
      "Ġ90": 4579,
      "ìĿĢê²Į": 4580,
      "Ġìĸ´ëł¤ìļ´": 4581,
      "ĠëĮĵ": 4582,
      "ĠëįĶìļ±": 4583,
      "Ġë¹Ħìĭ¸": 4584,
      "ìŀĪìľ¼ë©´": 4585,
      "Ġê°ĲìĦ±": 4586,
      "ëĲ¨": 4587,
      "íķĺê¸´": 4588,
      "ķĲ": 4589,
      "Ġìļ°ìĬµ": 4590,
      "ìĤ¬íĥľ": 4591,
      "ĠìĹŃê²¨": 4592,
      "ìĿ¸ëĵ¤ìĿĢ": 4593,
      "Ġì£½ìĿĮ": 4594,
      "Ġëľ¨": 4595,
      "Ġê¼´íĨµ": 4596,
      "ìĨĮë¦¬ë¥¼": 4597,
      "ĠëĶ´": 4598,
      "ë¯¼ì£¼ëĭ¹": 4599,
      "íķ´ëĨĵê³ł": 4600,
      "Ġê´´ë¡Ń": 4601,
      "Ġãħģ": 4602,
      "Ġë¬¸íĻĶ": 4603,
      "Ġê°ĪëĿ¼": 4604,
      "ìĤ¬ëĤĺ": 4605,
      "ĠìłĢëıĦ": 4606,
      "ĠìĿ¼ìĿĢ": 4607,
      "Ġì±Ļê²¨": 4608,
      "ë¦¬ëĿ¼": 4609,
      "ĠìŃ": 4610,
      "ĠíĥĿìĭľ": 4611,
      "ĠìĺģìĽĲíŀĪ": 4612,
      "ħìĭľëĭ¤": 4613,
      "ĠëĤĺíĥĢ": 4614,
      "ĠëĳĲë²Ī": 4615,
      "ìķĦíĮĮ": 4616,
      "Ġëħ¸ëŀĺ": 4617,
      "íĿ¥": 4618,
      "ĠìĦłì§ĦêµŃ": 4619,
      "ĠìŀĲëıĻ": 4620,
      "ëĭ¤ìļ´": 4621,
      "Ġìłķê¶ĮìĿĦ": 4622,
      "ĠìŀĲìĺģìĹħìŀĲ": 4623,
      "Ġë¬¸ìłľëĭ¤": 4624,
      "Ġë¸Į": 4625,
      "ìķĺëĦ¤": 4626,
      "ê²łëĭĪ": 4627,
      "ĠìĦ±ë²Ķì£Ħ": 4628,
      "ìĹ¬ëĿ¼": 4629,
      "ĠíĥĢëł¹": 4630,
      "Ġhttps": 4631,
      "Ġì§±ê°ľ": 4632,
      "ìľµ": 4633,
      "ìłľê°Ģ": 4634,
      "Ġë²Ħíĭ°": 4635,
      "ìĭłìĿ´": 4636,
      "Ńë¹Ħ": 4637,
      "Ġëĸ¼": 4638,
      "ĠëŃĲíķĺëĥĲ": 4639,
      "ĠìķĦë¹ł": 4640,
      "¬ëĦ¤": 4641,
      "ëĭĲ": 4642,
      "ĠìĭľìłĪ": 4643,
      "Ġì¤ĳìķĻ": 4644,
      "Ġ19": 4645,
      "Ġìī´": 4646,
      "Ġë³´ìŀĲ": 4647,
      "ë¥´ê²Į": 4648,
      "Ġì¥´ë¦¬": 4649,
      "Ġê²½ìŁģ": 4650,
      "Ġê¸Īë": 4651,
      "Ġë¨¹ëĬĶ": 4652,
      "ë¬¸íļĮ": 4653,
      "ê²½ì°°": 4654,
      "ìĭ¼": 4655,
      "Ġíķĺê²Į": 4656,
      "ĠìĦ¤ëªħ": 4657,
      "ìķĦëĭĪëĥĲ": 4658,
      "Ġë¯¸ê°ľ": 4659,
      "ìĥģìĹĲ": 4660,
      "ëª½": 4661,
      "âĸł": 4662,
      "Ġìļ´ëıĻê¶Į": 4663,
      "Ġë¯¸êµ°": 4664,
      "¼ìĪĺ": 4665,
      "ĠìĤ¶ìĿĢ": 4666,
      "Ġëĭ¹ìĹ°íķľ": 4667,
      "ĠìĿ´ìľłëĬĶ": 4668,
      "Ġë¯¼ì£¼íĻĶ": 4669,
      "Ġì¼": 4670,
      "Ġìŀ¥ìķł": 4671,
      "Ġì§ĵìĿĦ": 4672,
      "Ġìłķê¶ĮìĿĺ": 4673,
      "ìĺĪìļĶ": 4674,
      "ĠâĢľ": 4675,
      "ìĵ°ëĬĶ": 4676,
      "Ġë§ĺëĮĢë¡ľ": 4677,
      "ë¶ģíķľ": 4678,
      "íķłê²ĥ": 4679,
      "ëĭ¹ìĿĦ": 4680,
      "ĠìĥĿê°ģìĿĢ": 4681,
      "ê½": 4682,
      "ìĬ¤ëŁ¬": 4683,
      "ĠìłķìĥģìłģìĿ¸": 4684,
      "íģ´ë": 4685,
      "ĠìĨĮë¹Ħ": 4686,
      "ë§ŀê³ł": 4687,
      "ìĦ¸ê°Ģ": 4688,
      "ĠíĺĲìĺ¤": 4689,
      "ĠíĹĮë²ķ": 4690,
      "ìĸ´ëĤ´ë": 4691,
      "ìĺ´": 4692,
      "ìĬ¤ëŁ½ê²Į": 4693,
      "ìľ¼ìĦ¸ìļĶ": 4694,
      "ĠëĤ¸": 4695,
      "Ġë§Īì°¬ê°Ģì§Ģ": 4696,
      "ìĽĲìłĦ": 4697,
      "ĠíŀĺìĿĦ": 4698,
      "ë´Ĳìķ¼": 4699,
      "ìķĦëĭĪëĿ¼": 4700,
      "ĠëĮĢíķľë¯¼êµŃìĿĢ": 4701,
      "ĠíĨµíķ©": 4702,
      "ë¨¹ëĬĶ": 4703,
      "Ġê°Ģê³ł": 4704,
      "ĠìĦ¸ê¸ĪìĿĦ": 4705,
      "ĠëĩĮê°Ģ": 4706,
      "Ġë³Ħë¡ľ": 4707,
      "ĠëŃĶëį°": 4708,
      "ê³µìŀĲ": 4709,
      "Ĥľëĭ¤": 4710,
      "Ġë¶ĪëŁ¬": 4711,
      "Ġíķ´ë³´": 4712,
      "íľĺ": 4713,
      "Ġë§Īì¹ĺ": 4714,
      "ìķĦëĥĲ": 4715,
      "ĠìĦłëıĻì§Ī": 4716,
      "Ġ~~~": 4717,
      "íķĺëĬĶê±°ì§Ģ": 4718,
      "ìĦĿìĹ´": 4719,
      "Ġë¬¼ëŁ¬ë": 4720,
      "Ġì·¨ìĨĮ": 4721,
      "ìĬ¤íħľ": 4722,
      "ìĭľíĤ¤ëĬĶ": 4723,
      "êµ¬ë¡ľ": 4724,
      "Ġê°ĸëĭ¤": 4725,
      "ĠìĪľê°Ħ": 4726,
      "Ġìĸ´ë¥¸": 4727,
      "in": 4728,
      "ĠìĿ´ì£Ħëªħ": 4729,
      "ĠìĿ´ìłĦ": 4730,
      "Ġë¬´ë¦¬": 4731,
      "Ġíıīëĵ±": 4732,
      "íĺĶ": 4733,
      "xx": 4734,
      "ëĬĶëį°ëıĦ": 4735,
      "Ġì¡´ëĤĺ": 4736,
      "ĠìĿ´íĽĦ": 4737,
      "ìŀ¬ìķĻ": 4738,
      "Ġë¬¸ëĮĢ": 4739,
      "½ķ": 4740,
      "ëĶ´": 4741,
      "ĠëĲĺëĬĶê±°": 4742,
      "Ġìĺ¤ë¥¸": 4743,
      "Ġë´Ĳìķ¼": 4744,
      "Ġì§Ŀ": 4745,
      "er": 4746,
      "ìŀĪìĿĮ": 4747,
      "ìŀĪìĸ´": 4748,
      "ĠìĺĪìĤ°": 4749,
      "ĠëĤ´ê³ł": 4750,
      "ĠíĽĮ": 4751,
      "ìĬ¤ëŁ¬ìļ´": 4752,
      "ĠìłĢë¦¬": 4753,
      "ĠìĹĺ": 4754,
      "Ġ11": 4755,
      "ĠìŀĪëĭ¤ë©´": 4756,
      "ë³´ëĭ¤ëĬĶ": 4757,
      "Ġìłģê·¹": 4758,
      "ĠëĺĲíķľ": 4759,
      "ĠìĹ¬ë¡łì¡°ìĤ¬": 4760,
      "Ġê³µì§ľ": 4761,
      "ĠìĿ´ëŁ¬ë": 4762,
      "ì¡°êµŃ": 4763,
      "íĨµìĪĺ": 4764,
      "ë§ĲìĿĦ": 4765,
      "ëľ»": 4766,
      "ìĹ¬íĸī": 4767,
      "ìĬ¤íģ¬ë": 4768,
      "Ġê³Ħìķ½": 4769,
      "¼ë¦¬ë": 4770,
      "Ġë§Įëĵ¤ìĸ´ìĦľ": 4771,
      "ĠíıŃë§Ŀ": 4772,
      "ĠíĹ¬": 4773,
      "ë¡ľì§Ģ": 4774,
      "ê¼¬ë": 4775,
      "Ġìĺ¬ë¦¼íĶ½": 4776,
      "ĠìĺĪìłĦ": 4777,
      "ĠíĿ¥": 4778,
      "ì§ĢìĹĲ": 4779,
      "Ġë´ħëĭĪëĭ¤": 4780,
      "ê¸°ëĵ¤": 4781,
      "ĠëĨĢê³ł": 4782,
      "Ġë¬µ": 4783,
      "ĠëĵĿ": 4784,
      "Ġê²Ģì°°ì´Ŀìŀ¥": 4785,
      "ìĵ´ëĭ¤": 4786,
      "ëĭ¹íķĺê³ł": 4787,
      "ĠìĿ´ëŁ´": 4788,
      "Ġíķ´ì²´": 4789,
      "ë³´ëĭ¨": 4790,
      "ĠìĹĨëĭ¤ëĬĶ": 4791,
      "Ġëĭ¤ìĭľëĬĶ": 4792,
      "ĠíķľêµŃìĿ´": 4793,
      "Ġë¬¸ìĶ¨": 4794,
      "Ġê¹ľë¹µ": 4795,
      "Ġë¬¸ê°Ģ": 4796,
      "êµ¬ë¦¬": 4797,
      "ĠìĿ´ì§Ģ": 4798,
      "ĠëĶ¸ë": 4799,
      "Ġê·¸ì§Ģ": 4800,
      "ĠìĦłìĪĺ": 4801,
      "ĠëıĻìķĪ": 4802,
      "Ġì£Ħëªħ": 4803,
      "êµ¬ë¥¼": 4804,
      "ì´Į": 4805,
      "ĠíĻĶìĿ´ìŀĲ": 4806,
      "ĠìĿ´ê²ĥëıĦ": 4807,
      "Ġëĭ¨ìĪľ": 4808,
      "Ġì°½íĶ¼": 4809,
      "Ġìĺģíĸ¥": 4810,
      "ĠìĿ´ì¤ĳ": 4811,
      "ìĦłìĿ´": 4812,
      "ĠëĪĪìĹĲ": 4813,
      "ìķĦìĿ´": 4814,
      "ĠìĨĮìĦ¤": 4815,
      "ì¹ľëĭ¤": 4816,
      "ĠìķĦì¤Įë§Ī": 4817,
      "ĠìķĪíķĺëĬĶ": 4818,
      "ĠìµľëĮĢ": 4819,
      "ê¸°ëĤĺ": 4820,
      "Ġë¯¿ìĿĦ": 4821,
      "Ġë§¹": 4822,
      "ìį©": 4823,
      "ĠëĮĢíĨµëł¹ëĭĺ": 4824,
      "íķľíħĮëĬĶ": 4825,
      "Ġê°Ģìķ¼": 4826,
      "ĠìĿ´ìĦ±": 4827,
      "Ġì§ĢëĬ¥": 4828,
      "Ġì§ĲìĬ¹": 4829,
      "ĠíķĺëĿ¼ê³ł": 4830,
      "Ġìłģìļ©": 4831,
      "ĠìĦ±ëĤ¨": 4832,
      "ìłľë°ľ": 4833,
      "ìĬ¤ëŁ°": 4834,
      "ì£Ħë": 4835,
      "ĠëĤĺëĪł": 4836,
      "ìĹĪìĿĮ": 4837,
      "Ġíķ©ìĿĺ": 4838,
      "ĠëĮĢíĨµëł¹ìĿĦ": 4839,
      "íĸĪëĬĶì§Ģ": 4840,
      "ëĬĶê±´ê°Ģ": 4841,
      "ĠëĮĢë°ķ": 4842,
      "ëıħìŀ¬": 4843,
      "ìĭľì¼ľìķ¼": 4844,
      "ĠìĥĿê²¼": 4845,
      "Ġë¯¸êµŃìĿĢ": 4846,
      "Ġë½ĳìĿĢ": 4847,
      "Ġë°Ķë³´ë": 4848,
      "ĠìĻ¸ì¹ĺ": 4849,
      "Ġì´Īëĵ±": 4850,
      "ê²łìĸ´ìļĶ": 4851,
      "ĠìŀĪì§Ģë§Į": 4852,
      "Ġê·¸ëŁ°ê±°": 4853,
      "ëĳ¥": 4854,
      "Ġ2030": 4855,
      "ì£¼ì§Ģ": 4856,
      "ĠìĦ¸ëĮĢ": 4857,
      "Ġë°ĶìĿ´ëĵł": 4858,
      "Ģëĭ¤": 4859,
      "íļĮìĤ¬": 4860,
      "íĸĪìĿĦ": 4861,
      "ë¿Ķ": 4862,
      "ìŀ¥ìĹĲìĦľ": 4863,
      "ĠíķľëĳĲ": 4864,
      "Ġë¯¼ê°Ħ": 4865,
      "ì£¼ê°Ģ": 4866,
      "ĠëĮĢëĭ¤": 4867,
      "ĠìķĬìľ¼ë©´": 4868,
      "Ġê²°ë¡ł": 4869,
      "ĠìŀĪìĸ´ìļĶ": 4870,
      "ìĿ´ëŀĺ": 4871,
      "Ġì½©": 4872,
      "~~~~~~~~": 4873,
      "Ġì¶©ë¶ĦíŀĪ": 4874,
      "ĠëĤ¨ìĦ±": 4875,
      "Ġë³Ģëªħ": 4876,
      "ĠíķĺëĿ¼": 4877,
      "ĠìĪĻ": 4878,
      "ìľ¼ëĿ¼": 4879,
      "ëĵłê°Ģ": 4880,
      "ħĲ": 4881,
      "Ġë©Ģì©¡": 4882,
      "Ġë²Įê¸Ī": 4883,
      "Ġì·¨ìĹħ": 4884,
      "ĠíķĺëįĶëĭĪ": 4885,
      "Ġì¹ľì¤ĳ": 4886,
      "ĠëĦĪëĤĺ": 4887,
      "Īëł¨": 4888,
      "ĠìŀĲë³¸": 4889,
      "ìŀ¥ëĤľ": 4890,
      "ë£¨íĤ¹": 4891,
      "ê»ĺìĦľ": 4892,
      "ìļ´ëį°": 4893,
      "ì¡°ê°Ģ": 4894,
      "ĠìłķìĭłëĤĺê°Ħ": 4895,
      "ëŀµ": 4896,
      "ìĿ´ìľł": 4897,
      "ĠìĽĢì§ģ": 4898,
      "Ġíķ´ë´ĲëĿ¼": 4899,
      "Ġì£¼ë¯¼": 4900,
      "ë½ĳ": 4901,
      "Ġë³´íĹĺ": 4902,
      "ëľ¨": 4903,
      "40": 4904,
      "ĠìŀĲêµŃë¯¼": 4905,
      "Ġíķľëĭ¬": 4906,
      "ĠìĽĲíķĺëĬĶ": 4907,
      "ëĸ¼": 4908,
      "Ġìłķë¶ĢìĿĺ": 4909,
      "ê³Ħê°Ģ": 4910,
      "ìĿ´ì£ł": 4911,
      "ĠìĿĦ": 4912,
      "ĠêµŃë¯¼ìĹĲê²Į": 4913,
      "ĠìĹŃê²¹ëĭ¤": 4914,
      "ĠìĿ¸íĦ°ëĦ·": 4915,
      "Ġê°ĢìŀĲ": 4916,
      "Ġì¯§": 4917,
      "Ġê±°ëŀĺ": 4918,
      "ìŀ¥ìľ¼ë¡ľ": 4919,
      "on": 4920,
      "ĠìĥĪë¡ľìļ´": 4921,
      "ĠìĽĮ": 4922,
      "Ġìļ¸ë": 4923,
      "Ġê´ľíŀĪ": 4924,
      "ĠëĲĺëĥĲ": 4925,
      "íĬ¸ëłĪ": 4926,
      "íķĺê³łëĬĶ": 4927,
      "ĠìĿ´ë£": 4928,
      "¦¬ëĬĶ": 4929,
      "Ġìłķìĭłë³ĳìŀĲ": 4930,
      "Ġìł¤": 4931,
      "Ġt": 4932,
      "ĠìŀĲìľłë¯¼ì£¼ì£¼ìĿĺ": 4933,
      "ķĮë¬¸ìĹĲ": 4934,
      "ĠëĦĪê°Ģ": 4935,
      "Ġê·¸ë§Įíķ´ëĿ¼": 4936,
      "ìĻĢëĿ¼": 4937,
      "Ġë¯¸ë¦¬": 4938,
      "ĠìĺģìĽħ": 4939,
      "ë³´íĹĺ": 4940,
      "ìĭłëıĦ": 4941,
      "ĠëĩĮë¬¼": 4942,
      "Ġê±°ê¸°ìĹĲ": 4943,
      "Ġë§ĪìĿĮìĿ´": 4944,
      "Ġê¸°ê´Ģ": 4945,
      "íĮĲìĹĲ": 4946,
      "Ġë¶Īë¦¬": 4947,
      "Ġì§Ģì§Ģìľ¨ìĿ´": 4948,
      "ë¥Ń": 4949,
      "Ġëª»íķ´": 4950,
      "ĠìłĦì²´": 4951,
      "Ġê°ľëĤĺ": 4952,
      "íĹ¤": 4953,
      "ìĬ¤ê°Ģ": 4954,
      "ìĦłìĿĦ": 4955,
      "ê¸°ìłĦìĹĲ": 4956,
      "ìĽĲìĹĲìĦľ": 4957,
      "ĠìĻĢìĦľ": 4958,
      "ì°¾": 4959,
      "íķĺëĬĶêµ¬ëĤĺ": 4960,
      "ĠëĮĢê¹¨ë¬¸ëĵ¤": 4961,
      "ĠìµľìłĢìŀĦê¸Ī": 4962,
      "ĠìľĦìķĪë¶Ģ": 4963,
      "ë¡ľìļ´": 4964,
      "ê³µìĤ°ëĭ¹": 4965,
      "ĠíĮĶìķĦë¨¹": 4966,
      "Ġa": 4967,
      "Ġíķ©ë¦¬": 4968,
      "ĠìĿ¼ë³¸ìĹĲ": 4969,
      "ìķĪìĿ´": 4970,
      "ĠëĤĺë¨¸": 4971,
      "Ġëªħë³µìĿĦ": 4972,
      "Ġê³Ħíļį": 4973,
      "¼ëĦ¤": 4974,
      "ĠêµĲíĨµ": 4975,
      "Ġê²¨ìļ°": 4976,
      "ĠëĬĲëģ¼": 4977,
      "ë¹¼": 4978,
      "Ġëª¨ì§Ģë¦¬": 4979,
      "Ġë§Īìķ½": 4980,
      "Ġìħ": 4981,
      "Ġìłķê¶ĮìĿĢ": 4982,
      "êº¼ëĭ¤": 4983,
      "Ġëĭ«": 4984,
      "ĠìĥĿëªħ": 4985,
      "ìĿ´ë©°": 4986,
      "ĠìĬ¹ë¦¬": 4987,
      "Ġì¹´ë": 4988,
      "ĠíĹĪë": 4989,
      "Ġìķłëĵ¤ìĿĢ": 4990,
      "ŀµ": 4991,
      "ëĶ©": 4992,
      "ãħĭãħĭãħĭãħĭãħĭãħĭãħĭ": 4993,
      "ì©Į": 4994,
      "ìĺ¤ê³ł": 4995,
      "ê·¸ëŀ": 4996,
      "ì§ĳíļĮ": 4997,
      "Ġì¶Ķê°Ģ": 4998,
      "Ġë¶ĢìŀĲ": 4999,
      "ãħı": 5000,
      "Ġì¢ĭëĭ¤ê³ł": 5001,
      "½Ģ": 5002,
      "Ġìŀ¡ê³ł": 5003,
      "Ġì§ĵê±°ë¦¬": 5004,
      "ìŀī": 5005,
      "ĠëĲľëĭ¤ê³ł": 5006,
      "ê·¸ëŁ¼": 5007,
      "ĠãħĪãĦ¹": 5008,
      "Ġë§Įíģ¼": 5009,
      "ìĹ°ê¸Ī": 5010,
      "ìłľë¥¼": 5011,
      "ìłķìĿĺ": 5012,
      "Ġê¸´": 5013,
      "ĠìĹ¬ìŀĲëĵ¤": 5014,
      "ĠëĨĴìĿĢ": 5015,
      "ë§¨": 5016,
      "Ġë¹ķëĭĪëĭ¤": 5017,
      "Ġê·¸ê²ĥ": 5018,
      "Ġìĸ¸ë¡łìĿ´": 5019,
      "~~~~~": 5020,
      "Ġì¤ĢìĦĿ": 5021,
      "Ġíķłë§Ĳ": 5022,
      "ëł¤ëĤĺ": 5023,
      "Ġë¬¼íĥĢê¸°": 5024,
      "Ĺı": 5025,
      "íĦ´": 5026,
      "Ġë¶Ģëª¨ê°Ģ": 5027,
      "Ġì¤Ħìĸ´": 5028,
      "Ġìĭ¸ìļ°": 5029,
      "ĠìĻĦìłĦíŀĪ": 5030,
      "Ġë¶Ħëĵ¤": 5031,
      "ĠìĭľíĹĺ": 5032,
      "Ġì£¼íĥĿ": 5033,
      "ģĮ": 5034,
      "âĺ": 5035,
      "Ġëĵ£ê³ł": 5036,
      "ĠëĤĺìģĺ": 5037,
      "ĠëĤ¨ìĿĢ": 5038,
      "ĠìķħíĶĮ": 5039,
      "ĠëĤ¨íķľ": 5040,
      "Ġê¿Ģ": 5041,
      "ĠìŀĦìĺģìĽħ": 5042,
      "ĠìŀĲëħĢ": 5043,
      "Ġìī´ëĵľ": 5044,
      "ëĳĶ": 5045,
      "ĠíĸĪëĭ¤ê³ł": 5046,
      "Ġg": 5047,
      "°¥": 5048,
      "ĠìľĹ": 5049,
      "ìĹĲê²ĮëĬĶ": 5050,
      "ì¤ĺìĦľ": 5051,
      "Ġê±¸ë¦°": 5052,
      "ĠëĬĶ": 5053,
      "Ġë§ĪìĿ´": 5054,
      "ì°¨ë³Ħ": 5055,
      "Ġê²ª": 5056,
      "ëħķ": 5057,
      "ĠëĤĺëĮĢ": 5058,
      "ë°ĺëıĦ": 5059,
      "ĠìķĮì§Ģ": 5060,
      "ï¸": 5061,
      "ê²ĥê°Ļ": 5062,
      "¼ë¥¼": 5063,
      "ìĬ¬ëŀĮ": 5064,
      "ĠíĻľëıĻ": 5065,
      "íĪ¬ê¸°": 5066,
      "ìŀĦìĿĦ": 5067,
      "ĠìĤ´ìķĦë": 5068,
      "Ġë³´íĨµ": 5069,
      "ëĭĺìĿĢ": 5070,
      "Ġìłķë¶ĢìĹĲìĦľ": 5071,
      "ĠëıĻìĿĺ": 5072,
      "ìłĢê¸°": 5073,
      "ëŀı": 5074,
      "ĠíŀĺëĤ´ìĦ¸ìļĶ": 5075,
      "ëħĦëĮĢ": 5076,
      "ìĹ¬ìķ¼": 5077,
      "Ġë°Ķëĭ¥": 5078,
      "ìĤ¬ëŀĮëĵ¤ìĿ´": 5079,
      "Ġì¹ĺê³ł": 5080,
      "ĠëĲ": 5081,
      "ĠíĻĶê°Ģ": 5082,
      "Ġëª¨ë¥´ê²łëĭ¤": 5083,
      "íĳ¼": 5084,
      "ëłĪìĿ´": 5085,
      "ìłķìĥģ": 5086,
      "ë¶Ļ": 5087,
      "Ġë¯¿ëĬĶ": 5088,
      "ìľ¼ë¡ľìĦľ": 5089,
      "ë¬¸ìĿ´": 5090,
      "ìłĢëŁ°": 5091,
      "ĠìĹ¼": 5092,
      "ë§ĺ": 5093,
      "¡±": 5094,
      "Ġì°¸ë": 5095,
      "Ġì£½ìĸ´": 5096,
      "ìŀ¥ëıĦ": 5097,
      "Ġêµ¬ë¶Ħ": 5098,
      "ĠëĤ«ëĭ¤": 5099,
      "Ġê±¸ë¦¬": 5100,
      "¼ëĤĺ": 5101,
      "Ġìĺ¤ë¡ľì§Ģ": 5102,
      "ĠëĦĲ": 5103,
      "ĠëĺĲëĿ¼ìĿ´": 5104,
      "ĠëĬĻ": 5105,
      "ĠìĪĺë°±": 5106,
      "ê³Ħë¡ľ": 5107,
      "Ġì²«": 5108,
      "ê¸°ìŀĲ": 5109,
      "ëĲĺìĦľ": 5110,
      "ĠêµŃíŀĺëĭ¹": 5111,
      "íī": 5112,
      "ê³¼ëĬĶ": 5113,
      "ìłľëıĦ": 5114,
      "ê²©ìĿ´": 5115,
      "¥´ë": 5116,
      "ìĽĲìĿĦ": 5117,
      "Ġê³µë§¤ëıĦ": 5118,
      "ĠìĮĵ": 5119,
      "ëħĦëıĦ": 5120,
      "ĠìľĦìĹĲ": 5121,
      "ĠíĽĮë¥Ń": 5122,
      "ê·¸ë¦ĩ": 5123,
      "ìĭľìļĶ": 5124,
      "Ĥ´ëĬĶ": 5125,
      "ëĤ¬ëĭ¤": 5126,
      "ĠëĤ´ëĨĵ": 5127,
      "ê°ĢëıĦ": 5128,
      "ìĿ¼ìĹĲ": 5129,
      "Ġë¨¹ìĿĦ": 5130,
      "ë¬¸ìŀ¬ìĿ¸": 5131,
      "Ġìĺ¬ëŀĲ": 5132,
      "ĠíĬ¸": 5133,
      "Ġë²Ħëł¤": 5134,
      "Ġê±´ìĦ¤": 5135,
      "ìķĦëĵ¤": 5136,
      "ìĥĪë": 5137,
      "ĠìĭĿëĭ¹": 5138,
      "ìĭ±": 5139,
      "ìħĶìķ¼": 5140,
      "ĠìķĪìłķ": 5141,
      "ì¢ĭìķĦ": 5142,
      "Ġìļ°ë¦°": 5143,
      "ìķĺìľ¼ë©´": 5144,
      "ë´Ħ": 5145,
      "ëĲ": 5146,
      "ĠìłĪëĮĢë¡ľ": 5147,
      "ìĦľìķ¼": 5148,
      "Ġë³¼ë": 5149,
      "ìķŀìĹĲ": 5150,
      "ìĿį": 5151,
      "ĠëŃĲìķ¼": 5152,
      "Ġìĸĳë°ĺ": 5153,
      "Ġìĭ¬ë": 5154,
      "ĠëģĿëĤĺ": 5155,
      "Ġì§ĢìĽĲê¸Ī": 5156,
      "ĠìºĲ": 5157,
      "ĠìĿ´ìĸ´": 5158,
      "ì¹ĺë©´": 5159,
      "Ġíķĺëł¤ê³ł": 5160,
      "ê·¸ëŁ¬ë": 5161,
      "ì²ŃìĤ°": 5162,
      "¦½": 5163,
      "ĠI": 5164,
      "ĠìŀĪëĬĶê²Į": 5165,
      "ìľĦê¸°": 5166,
      "ìĪĺìĿĺ": 5167,
      "ì§ĢìĽĲê¸Ī": 5168,
      "Ġíĩ´ì¶ľ": 5169,
      "Ġë§ŀìķĦ": 5170,
      "Ġì©Ŀì©Ŀ": 5171,
      "ĠìĹ°êµ¬": 5172,
      "ĠìĨĮìĥģê³µ": 5173,
      "ĠìĿ¸ë¯¼": 5174,
      "ĠìķĦê¹Ŀëĭ¤": 5175,
      "ï¸ı": 5176,
      "Ġì¦Ŀëªħ": 5177,
      "ĠíķľêµŃìĹĲ": 5178,
      "Ġì´ĪëĶ©": 5179,
      "Ġê²½ìĥģëıĦ": 5180,
      "ĠìŀĲì£¼": 5181,
      "Ġê°ĻìĬµëĭĪëĭ¤": 5182,
      "Ġë¹Ļ": 5183,
      "ìĭĿìĿĦ": 5184,
      "ðŁĴĻ": 5185,
      "íŀĲ": 5186,
      "ê´´ë": 5187,
      "ë¨¼": 5188,
      "ĠëĮĢê¶Į": 5189,
      "ëŁ´": 5190,
      "ìĺĢëĬĶëį°": 5191,
      "íķĺê±°ëĤĺ": 5192,
      "ĠìłķëıĦë¡ľ": 5193,
      "Ġì³Ĳë¨¹": 5194,
      "ì«": 5195,
      "ĠB": 5196,
      "ë³¸ëĭ¤": 5197,
      "Ġê¹ĢëĮĢì¤ĳ": 5198,
      "Ĩ¨": 5199,
      "ê²łëĬĶëį°": 5200,
      "íĸĪìĿĮ": 5201,
      "ĠìĺĪìĥģ": 5202,
      "ì²łìĪĺê°Ģ": 5203,
      "ĠíĮ¬": 5204,
      "ìķĪìĹĲ": 5205,
      "ĠëĮĢë²ķ": 5206,
      "ĠìĤ°ëĭ¤": 5207,
      "íķĺìĭľê³ł": 5208,
      "ĠíıŃíĸī": 5209,
      "ĠìķĪëĲĺê³ł": 5210,
      "Ġê°ĢëĤľ": 5211,
      "ëĭĺìĿĺ": 5212,
      "ĠìłĦíĺķ": 5213,
      "Ġëª½": 5214,
      "Ġìľ¼ë¡ľ": 5215,
      "Ġíķ¨ë¶Ģë¡ľ": 5216,
      "ìłķë¶ĢëĬĶ": 5217,
      "ĠêµŃë¯¼ëĵ¤ìĹĲê²Į": 5218,
      "Ġê°Ģì§Ģê°Ģì§Ģ": 5219,
      "Ġë¶ĦìĹ´": 5220,
      "Ġë¶Ģë¥´": 5221,
      "Ġíķ´ëĭ¹": 5222,
      "ĠìĿ¼ë¶ĢëŁ¬": 5223,
      "Ġìĺģë¶Ģ": 5224,
      "Ġëª°ìķĦ": 5225,
      "ê³µê°ľ": 5226,
      "ìĸ´ëĮĢ": 5227,
      "Ġë³´ìĿ´ëĬĶ": 5228,
      "Ġêµ´ë": 5229,
      "ìĥĪê°Ģ": 5230,
      "ĠíķĺëĬĶêµ¬ëĤĺ": 5231,
      "Ġë¯¼ìĥĿ": 5232,
      "ĠíĥĢê³ł": 5233,
      "ĠëĲĺëĤĺ": 5234,
      "ê²½ìĿ´": 5235,
      "ĠëĤľëĭ¤": 5236,
      "ĥĪ": 5237,
      "ĠìĿĢíĸī": 5238,
      "ĠìķĪëĭ¤": 5239,
      "°±": 5240,
      "ëĬĶê±´ì§Ģ": 5241,
      "ĠëĤ¨ëħĢ": 5242,
      "íĮ¡": 5243,
      "Ġìłķì±ħìĿĦ": 5244,
      "ì½©": 5245,
      "íķĺìĭľëĬĶ": 5246,
      "Ġë§Ĳíķľ": 5247,
      "ê³µìłķ": 5248,
      "==": 5249,
      "ĠíĥĿë°°": 5250,
      "Ġíļ¡": 5251,
      "´ëĮĢ": 5252,
      "ë¹Ħë¦¬": 5253,
      "ĠìĿ´ë¶Ħ": 5254,
      "ì²´ë¡ľ": 5255,
      "ì²ĺë²Į": 5256,
      "ti": 5257,
      "ìĤ¬ëĿ¼": 5258,
      "Ġì§Ħìĭ¤ìĿĦ": 5259,
      "Ġê²ģëĤĺ": 5260,
      "ì²ĺë¨¹": 5261,
      "ëĸ³": 5262,
      "ìłľíķľ": 5263,
      "ìľ¨ìĿ´": 5264,
      "ĠìĥģìĬ¹": 5265,
      "ĠìĻ¸êµŃìĿ¸": 5266,
      "ëĲĺì§Ģ": 5267,
      "Ġê·¼ë¬´": 5268,
      "re": 5269,
      "ë¦¬ìŀĲ": 5270,
      "ìĥģíĥľ": 5271,
      "ëļ±": 5272,
      "Ġì§Ģê¸ī": 5273,
      "ìľĦëĬĶ": 5274,
      "Ġì¤ĳëıĦ": 5275,
      "ë·°": 5276,
      "íķľê°Ģ": 5277,
      "ìĿĮìĿ´": 5278,
      "¦¬ë¥¼": 5279,
      "ìĬ¤íĬ¸ë": 5280,
      "Ġìª½ë°Ķë¦¬": 5281,
      "Ġì§Īë¬¸": 5282,
      "Ġëª¨ë¥¼": 5283,
      "ìĿ´íĦ°": 5284,
      "Ġìĵ¸ëį°": 5285,
      "ħ¸ë": 5286,
      "ĠìĨĮë¦¬ë¥¼": 5287,
      "Ġì¡°ë§Į": 5288,
      "Ġ1000": 5289,
      "Ġ300": 5290,
      "Ġê±°ê¸°ìĦľ": 5291,
      "ë§İìĿ´": 5292,
      "ìķĮê³ł": 5293,
      "³¼": 5294,
      "íģ°": 5295,
      "Ġíķ´ëªħ": 5296,
      "Ġë¨¸ë¦¬ê°Ģ": 5297,
      "ĠìĹĦì²ŃëĤľ": 5298,
      "Ġë°Ģìĸ´": 5299,
      "İĦ": 5300,
      "íĻľëıĻ": 5301,
      "Ġê°Ģì¦ĪìķĦ": 5302,
      "Ġì²ľë²Į": 5303,
      "Ġëĭ¬ëł¤": 5304,
      "Ġê¸°ë¶Ħ": 5305,
      "Ġëª¨ì¡°ë¦¬": 5306,
      "ĠëĴ¤ì§ĳìĸ´": 5307,
      "ê±°ë¦¬ëĬĶ": 5308,
      "ê±°ë¦¬ë": 5309,
      "ëĸ¨": 5310,
      "ìĪĺìĪĺìĥī": 5311,
      "Ġëħ¼ë¬¸": 5312,
      "ĠìĿ´ëĭ¤": 5313,
      "ëĭ¤ìĭľ": 5314,
      "Ġëį°ëł¤": 5315,
      "ĠëıĪìĿĢ": 5316,
      "ê°ĢìŀĲ": 5317,
      "Ġë¶ĢëģĦëŁ¬ìļ´": 5318,
      "ëĬł": 5319,
      "Ġëĸ³": 5320,
      "ëĿ¼ìĿ¸": 5321,
      "íĨµìĿ´": 5322,
      "ĠìĿ¸ê°ĦìĿĢ": 5323,
      "ĠìķĪëĲ¨": 5324,
      "Ġê·¸ëłĩê³ł": 5325,
      "Ġì²Ńë¬¸íļĮ": 5326,
      "Ġìĺ¤ë¥´": 5327,
      "ĠêµŃê°ľìĿĺìĽĲ": 5328,
      "ĠíĬĢ": 5329,
      "ì§Ħëĭ¹": 5330,
      "Ġì§ĢëĦ¤": 5331,
      "ëŃĶ": 5332,
      "Ġì§Ģê²¹ëĭ¤": 5333,
      "§İ": 5334,
      "íıĲëł´": 5335,
      "Ġê²½ê¸°": 5336,
      "Ġì§Ģì§ĢìŀĲëĵ¤": 5337,
      "ĠìķĦë²Ħì§Ģ": 5338,
      "Ġìķ½ìĨį": 5339,
      "Ġë¬¸ìŀ¬ìĿ¸ê³¼": 5340,
      "Ġìļ°íģ¬ëĿ¼ìĿ´ëĤĺ": 5341,
      "Ġëª°ëĿ¼ëıĦ": 5342,
      "ĠìĻľêµ¬": 5343,
      "Ġì°¸ê³ł": 5344,
      "Ġìĭ¬ì§Ģìĸ´": 5345,
      "ĠìĿ´ìŀ¬ìļ©": 5346,
      "ĠìĶ¹": 5347,
      "Ġì¶Ķì²ľ": 5348,
      "ìĬ¤íĥĢ": 5349,
      "ì³ĲëĿ¼": 5350,
      "Ġê°ĢëĵĿ": 5351,
      "Ġì£½ìĸ´ëĤĺ": 5352,
      "Ġê³µìŀĳ": 5353,
      "Ġì£¼ìłľìĹĲ": 5354,
      "Ġê°ķìļĶ": 5355,
      "Ġì¤ĳìĹĲ": 5356,
      "íķĺëł¤ëĬĶ": 5357,
      "Ġë²łíĬ¸ëĤ¨": 5358,
      "Ġì£¼ê°Ģì¡°ìŀĳ": 5359,
      "ĠëĤ¬": 5360,
      "ĠìķĦìĿ´ëĵ¤": 5361,
      "Ġìıĺ": 5362,
      "ĠìķĬëĭ¤": 5363,
      "Ġì±Ļê¸°": 5364,
      "Ġë°±ìĭłìĿĦ": 5365,
      "ìł¸ëıĦ": 5366,
      "Ġì¶ľë§Ī": 5367,
      "ìĿ´ëĵ¤ìĿ´": 5368,
      "ìľ¼ë¡ľëĬĶ": 5369,
      "Ġ???": 5370,
      "Ġìľ¤ì´Ŀìŀ¥": 5371,
      "Ġëª¨ëĳĲê°Ģ": 5372,
      "ìŀ¬ìĤ°": 5373,
      "ìķĻìĿĢ": 5374,
      "ë²Ħëł¤": 5375,
      "ĠìĿ´ëĵĿ": 5376,
      "ĠãħĨ": 5377,
      "Ġëĭ¨ì²´": 5378,
      "................": 5379,
      "ê³³ìĹĲ": 5380,
      "ë¹¨ë¦¬": 5381,
      "ĠíĮĮìĹħ": 5382,
      "íķ¨ìĿĦ": 5383,
      "ĠìĹĨìĸ´ìļĶ": 5384,
      "Ġê³łìŀĳ": 5385,
      "Ġìŀĺíķľëĭ¤": 5386,
      "Ġë¬¸ëĮĢíĨµëł¹": 5387,
      "ĠíĽĦíļĮ": 5388,
      "ë©´ëĲĺ": 5389,
      "ĠêµŃë¯¼ìĦ¸ê¸Ī": 5390,
      "ĠíĹĪê²½ìĺģ": 5391,
      "ĠíķĺìĹ¬ê°Ħ": 5392,
      "Ġê¶Įëł¥ìĿĦ": 5393,
      "ë§¤ë§¤": 5394,
      "ĠëĮĢì²ĺ": 5395,
      "ìŀĪê²Į": 5396,
      "íĺ¸ìĤ¬": 5397,
      "ĠìķĪíķ´": 5398,
      "ë§ĪëĭĪ": 5399,
      "ëıĦìĨĮ": 5400,
      "Ġê±´ë¬¼": 5401,
      "Ġìĭľê°ĦìĿ´": 5402,
      "ìľ¼ìĭł": 5403,
      "Ġãħ£": 5404,
      "Ġê°ĳì§Ī": 5405,
      "Ġêµ¿": 5406,
      "ĠëģĮìĸ´": 5407,
      "ëĤ¸": 5408,
      "ìĹ¬ëıĦ": 5409,
      "ĠìĤ¬ìłĦ": 5410,
      "ê¼´ë": 5411,
      "Ġìĸ´ë¦¬": 5412,
      "Ġ25": 5413,
      "Ġëª¨ë¥´ëĤĺ": 5414,
      "Ġìµľê³łìĿĺ": 5415,
      "ë¦´ë": 5416,
      "ĠëįĶëĵ¬ìĸ´": 5417,
      "ìĹħìŀĲ": 5418,
      "Ġìłķëĭµ": 5419,
      "Ġê°ļ": 5420,
      "Ġì¢Įì¢Ģ": 5421,
      "ìĿ´êµ¬ëĤĺ": 5422,
      "Ġíķĺì§Ģë§Ĳ": 5423,
      "Ġë¹¡": 5424,
      "Ġìŀ¬ìĪĺ": 5425,
      "ĠìĭľëģĦë": 5426,
      "Ġíĳľì°½": 5427,
      "ìı": 5428,
      "Ġëĸ¨ìĸ´ì§Ģ": 5429,
      "ĠëĬĲê»´": 5430,
      "Ġë¿ĲìĿ´ëĭ¤": 5431,
      "íķĺì§Ģë§Ī": 5432,
      "ê¶Įëł¥": 5433,
      "Ġê°ķê°Ħ": 5434,
      "ĠìľĦì¡°": 5435,
      "ìłķë¶Ģê°Ģ": 5436,
      "ĠíŀĪ": 5437,
      "Ġìłķë¦¬": 5438,
      "Ġìķłë¹Ħ": 5439,
      "ëģĮ": 5440,
      "Ġì§Ģê¸ĪìĿĺ": 5441,
      "ĠíķľêµŃìĿĺ": 5442,
      "Ġë¬´ìĦŃëĭ¤": 5443,
      "ĠíĶĮ": 5444,
      "ĠìłķìĿĢìĿ´": 5445,
      "įĶëĿ¼": 5446,
      "¥ìķĦ": 5447,
      "ĠíĽĦë": 5448,
      "Ġë¯¸ì¹ĺ": 5449,
      "ëĨĪìĿĢ": 5450,
      "Ġê°ĻìķĦìļĶ": 5451,
      "Ġëª¨ë¥¸ëĭ¤": 5452,
      "Ġíķ´ì£¼ìĦ¸ìļĶ": 5453,
      "Ġë¯¸íĨµ": 5454,
      "Ġìĭłê¸°": 5455,
      "ãħīãħīãħī": 5456,
      "ìŃ": 5457,
      "Ġìĭľê¸ī": 5458,
      "ëħĦìĿĦ": 5459,
      "!!!!!!": 5460,
      "ĨĪëĵ¤": 5461,
      "Ġëĭ¤ë¥¼": 5462,
      "ĠìĥĿê°ģíķĺë©´": 5463,
      "Ġë²ķë¬´ë¶Ģìŀ¥ê´Ģ": 5464,
      "ãħİãħİãħİ": 5465,
      "ëĤĻ": 5466,
      "ĠìķĦìĿ´ê³ł": 5467,
      "Ġì½ĶìĬ¤": 5468,
      "ëħĦìĿĢ": 5469,
      "Ġê¹Ģì¢ħìĿ¸": 5470,
      "ĠíķľêµŃìĿ¸": 5471,
      "Ġì²ĺë¨¹": 5472,
      "ĪëįĶëĭĪ": 5473,
      "Ġêº¼ìł¸ëĿ¼": 5474,
      "Ġëĭ¹ëĭ¹": 5475,
      "Ġê·¸ë§Įíģ¼": 5476,
      ";;;": 5477,
      "ê±´ê°ĢìļĶ": 5478,
      "Ġê°ĻìķĦ": 5479,
      "Ġíŀĺëĵ¤ê²Į": 5480,
      "Ġì°Ķ": 5481,
      "Ġíķ´ìķ¼íķľëĭ¤": 5482,
      "ĠìĿ´ëª¨": 5483,
      "Ġì°įìĸ´": 5484,
      "ĠìŀĪìĸ´ëıĦ": 5485,
      "ëĽ°": 5486,
      "ìķĦì£¼": 5487,
      "ÃĹ": 5488,
      "ê²¨ìĦľ": 5489,
      "Ġê¸°ëıħêµĲ": 5490,
      "Ġíķĺë©°": 5491,
      "BS": 5492,
      "Ħë£Į": 5493,
      "ĠìĬ¤íĬ¸ëłĪ": 5494,
      "ĠìĨįìĿ´": 5495,
      "Ġì§ĳíĸī": 5496,
      "Ġê°Ĳìĭ¸": 5497,
      "ìĹĪìĿĦ": 5498,
      "ëł¤ìķ¼": 5499,
      "Ġê·¸ëłĩëĭ¤ê³ł": 5500,
      "Ġë»¥": 5501,
      "íķ´ê°Ģ": 5502,
      "ìĿ´ìŀ¬ëªħ": 5503,
      "ĠíĶ¼íķ´ë¥¼": 5504,
      "Ġë¶Ģë¶Ģ": 5505,
      "Ġê±°ë¦¬ëĳĲê¸°": 5506,
      "ĠëĦĪìĿĺ": 5507,
      "ëķĮë¬¸": 5508,
      "íĮĢ": 5509,
      "ĠìľłìĿ¼": 5510,
      "ĠìķķìĪĺìĪĺìĥī": 5511,
      "ĠìĺģêµŃ": 5512,
      "ĠìĿ¸ì²ľ": 5513,
      "Ġì§Ģìłģ": 5514,
      "ë¦¬ê²Į": 5515,
      "Ġíķľê²Į": 5516,
      "ĠìķĦì¹¨": 5517,
      "Ġíķ´ëĨĵê³ł": 5518,
      "ìĨĶ": 5519,
      "Ġë§¤ìļ°": 5520,
      "ĠìŀħìĹĲ": 5521,
      "ìķ¼ë§Ĳ": 5522,
      "ĠëıĦë¡ľ": 5523,
      "ë°ĽìĿĦ": 5524,
      "Ġê°Ķëĭ¤": 5525,
      "Ġëħ¸ìĺĪ": 5526,
      "Ġêµ¬ì¡°": 5527,
      "ĠìĤ¬ìĭ¤ìĿĦ": 5528,
      "Ġëħ¸ìĿ¸ë": 5529,
      "ì½ĺ": 5530,
      "Ġíķĺì§Ģë§Ī": 5531,
      "íķĺì§ĢëıĦ": 5532,
      "ĠíĪ¬ê¸°ê¾¼": 5533,
      "íŀĪëĬĶ": 5534,
      "ìĭľëĤĺ": 5535,
      "ĠìķĪì²łìĪĺê°Ģ": 5536,
      "ĠíĦ¸ë": 5537,
      "ìŀĪì§Ģ": 5538,
      "Ġëª»ëĲľ": 5539,
      "ĠìĿ¼íķĺëĬĶ": 5540,
      "ĠìŀĪê²Į": 5541,
      "ìĭ¬ìĿĢ": 5542,
      "ĠíĤ¤ìļ°": 5543,
      "Ġíĥľìĸĳ": 5544,
      "íķ´ì§Ģ": 5545,
      "Ġê³łìľĦ": 5546,
      "ĠìŀĺíķĺëĬĶ": 5547,
      "Ġì§Ģì§Ģíķ©ëĭĪëĭ¤": 5548,
      "ì¤Ħë": 5549,
      "ìŀł": 5550,
      ".,": 5551,
      "ìĭľê°Ģ": 5552,
      "Ġìĸ¸ìłł": 5553,
      "Ġë°ĸ": 5554,
      "Ġì½Ķë¡ľëĤĺê°Ģ": 5555,
      "Ġìłķì¹ĺìĿ¸ëĵ¤": 5556,
      "Ġë³´ë³µ": 5557,
      "ĠíķľêµŃëĭ¹": 5558,
      "Ġìĭłë¬¸": 5559,
      "ê»Ģ": 5560,
      "ìĿĺê°Ģ": 5561,
      "Ġê·¸ëŁ¬ê²Į": 5562,
      "ĠìĥĿê°ģíķ©ëĭĪëĭ¤": 5563,
      "Ġìŀ¬ë¯¸": 5564,
      "Ġìĭ¤ìĪĺ": 5565,
      "ĠìĿ¸ëıĦ": 5566,
      "ĠìķĦê°Ģë¦¬": 5567,
      "ìłĲìĿ´": 5568,
      "Ġëĭ®": 5569,
      "Ġìŀ¥ê¸°": 5570,
      "ëıĻëĦ¤": 5571,
      "ĠìĿ´ìłķëıĦë©´": 5572,
      "ĠìķĦìĿ´ê°Ģ": 5573,
      "ĠìĿ´ëŁ°ê²Į": 5574,
      "ĠìķĮë©´ìĦľ": 5575,
      "íķĺê²łëĦ¤": 5576,
      "Ġìĭ¤ëł¥": 5577,
      "êµŃë¯¼ìĿ´": 5578,
      "Ġëĭ¹íķĺê³ł": 5579,
      "ëĤ´ê°Ģ": 5580,
      "Ġëĵľë£¨íĤ¹": 5581,
      "ĠìķĪëĵ¤": 5582,
      "ê³µíĻĶêµŃ": 5583,
      "Ġì¶ľìĤ°": 5584,
      "ĠëįĶëŁ¬": 5585,
      "íķ¨ìĿ´": 5586,
      "Ġëĭ¤ëĭĪëĬĶ": 5587,
      "Ġìĭ¤ìłľ": 5588,
      "ĠìĹ¬ê¸°ìłĢê¸°": 5589,
      "ĠíıīìĨĮ": 5590,
      "ĠìķĪë°Ľ": 5591,
      "ì§Ģëª»": 5592,
      "Ġë§İìķĦìĦľ": 5593,
      "ìĸ´ëĸ": 5594,
      "ĠëĮĢíĻĶ": 5595,
      "Ġê¸°ëıĦ": 5596,
      "ĠìĹ°ë´ī": 5597,
      "ĠíķłëķĮ": 5598,
      "íķĺëĤĺìļĶ": 5599,
      "ĠìķĦëĭĮì§Ģ": 5600,
      "com": 5601,
      "ĠíĬ¹íĺľ": 5602,
      "ìĤ¬ëŀĳ": 5603,
      "ĠìĦ¤ë§Ī": 5604,
      "ëĬĶê²ĥìĿ´": 5605,
      "Ġíĺ¸êµ¬": 5606,
      "ì§ĵê±°ë¦¬": 5607,
      "ë§Ŀìĭł": 5608,
      "Ġíī": 5609,
      "ĠíķĺëĭĪê¹Į": 5610,
      "ì°¸ìĹĲ": 5611,
      "Ġê°Ĳìłķ": 5612,
      "ĠëĮĢì¤ĳ": 5613,
      "ĠëĳĲëł¤": 5614,
      "ê´Ģëł¨": 5615,
      "ìŀĲëĵ¤ìĿĺ": 5616,
      "ĠìĽĥê¸°ëĬĶ": 5617,
      "Ġëį°ë¦¬ê³ł": 5618,
      "Ġê¸°ìĤ¬ê°Ģ": 5619,
      "ou": 5620,
      "Ġìļ°ë¦¬ìĿĺ": 5621,
      "ëĭ¤ë¥¸": 5622,
      "ìĿ¼ëıĦ": 5623,
      "ĠìĿ¼ëıĦ": 5624,
      "Ġì¡°ë§Įê°Ħ": 5625,
      "Ġë¶ĪìĮįíķľ": 5626,
      "Ġë¶ĦìĿ´": 5627,
      "ĠìķĪëĲ©ëĭĪëĭ¤": 5628,
      "Ġìĭľíĸī": 5629,
      "ëĤ´ëĬĶ": 5630,
      "Ġê°ģì¢ħ": 5631,
      "Ġê³łëł¤": 5632,
      "Ġìłģìĸ´ëıĦ": 5633,
      "ìķ¼ë§Ĳë¡ľ": 5634,
      "ê¸°ëĭ¤": 5635,
      "ĠëĤ¨ìŀĲê°Ģ": 5636,
      "íķĺëĭ¤ëĭĪ": 5637,
      "ëĬĲëĭĪ": 5638,
      "Ġë§ĲìķĦ": 5639,
      "Ġë°ĺëıĦ": 5640,
      "ì§ĢíĤ¤": 5641,
      "ëĬĶê±°ìŀĦ": 5642,
      "ĠìłĢëĬĶ": 5643,
      "ê±°ìŀĦ": 5644,
      "¼ë§Ī": 5645,
      "Ģë¡ľ": 5646,
      "Ġê°ķíĻĶ": 5647,
      "ìĹĪìĸ´": 5648,
      "Ġë¬¼ê±´": 5649,
      "ìĹĲê²Ĳ": 5650,
      "Ġìľłëªħ": 5651,
      "íĸĪìľ¼ëĭĪ": 5652,
      "Ġì°¬ìĸĳ": 5653,
      "Ġê¸Īìľµ": 5654,
      "ĠìŀĳìĿĢ": 5655,
      "âĢĻ": 5656,
      "Ġê´Ģê´ĳ": 5657,
      "ĠìĪĺêµ¬": 5658,
      "ĠëĵľëĿ¼": 5659,
      "Ġíį¼ë": 5660,
      "Ġëķ¡": 5661,
      "ĠíıŃëł¥": 5662,
      "ìĿ´ëĿ¼ìĦľ": 5663,
      "íķĺì£ł": 5664,
      "ĠìľĦë°ĺ": 5665,
      "Ġê´Ģì¢ħ": 5666,
      "Ġê°ľëı¼ì§Ģëĵ¤": 5667,
      "Ġë°©ìĤ¬": 5668,
      "Ġë²Ħë¦¬ê³ł": 5669,
      "Ġê±°ìķ¼": 5670,
      "íķľì§Ģ": 5671,
      "Ġê·¸ë§Įíķĺê³ł": 5672,
      "ĠOOOëĵ¤": 5673,
      "ĠìļķìĿĦ": 5674,
      "ë¬´ìĬ¨": 5675,
      "Ġê²©ë¦¬": 5676,
      "100": 5677,
      "ìŀĲìĿ¸": 5678,
      "ê¸°ìĭ«": 5679,
      "³Ħ": 5680,
      "Ġìłľíķľ": 5681,
      "ĠíĨµê³¼": 5682,
      "Ġê°ľë¯¸": 5683,
      "ĠìıŁ": 5684,
      "ëĥ¥": 5685,
      "ĠìĥģíĻ©ìĿ´": 5686,
      "¼ìĨĲ": 5687,
      "ĠëĤ´ìĦ¸": 5688,
      "Ġë§ĲìĿ´ëĭ¤": 5689,
      "íĢ´": 5690,
      "ĠìĿ´ì¤ĢìĦĿìĿ´": 5691,
      "Ġíĥģ": 5692,
      "Ġê²½ìłľê°Ģ": 5693,
      "Ġìĸ´ì§¸": 5694,
      "Ġë¼": 5695,
      "ĠíĭĢë¦°": 5696,
      "íķĺìĭľê¸¸": 5697,
      "Ġë©Ī": 5698,
      "¸ëł¸": 5699,
      "ìłĦìŁģ": 5700,
      "ê°ľê°Ģ": 5701,
      "Ġê²Ģì°°ìĿĢ": 5702,
      "Ġíĳ¸íĭ´": 5703,
      "Ġ518": 5704,
      "ĠìĻľê³¡": 5705,
      "Ġíĺ¸ëĤ¨": 5706,
      "Ġìķ¼ë": 5707,
      "âĸłâĸł": 5708,
      "ëĨįëĭ¨": 5709,
      "Ġì¼Ģ": 5710,
      "ĠìķĬëĥĲ": 5711,
      "ĠìŀĲì¡´": 5712,
      "ĠìĨĲê°ĢëĿ½": 5713,
      "Ġê°Ģì¹ĺ": 5714,
      "ĠìĹŃíķł": 5715,
      "ĠëĦĪë¬´ëĤĺ": 5716,
      "ìłĪë": 5717,
      "Ġíĺģ": 5718,
      "bs": 5719,
      "ĠìĿ´ìĭľ": 5720,
      "Īë¬¼": 5721,
      "íķ´ì£¼ê³ł": 5722,
      "ê²ĥë§Į": 5723,
      "ìĸ´ëĤł": 5724,
      "ëħ¸ì¡°": 5725,
      "ĠìķĪíķĺë©´": 5726,
      "ĠX": 5727,
      "ĠìłĦê´ĳ": 5728,
      "Ġë§Īìĭľê³ł": 5729,
      "ì£¼ë¯¼": 5730,
      "ĠìĿ´íĺ¼": 5731,
      "Ġê²Ģìĥī": 5732,
      "Ġë²ĮëłĪ": 5733,
      "ìļ°ë¦¬": 5734,
      "ĠëĤ¨ìķĦ": 5735,
      "ģ¼ë¦¬": 5736,
      "Ġì¶©ìĦ±": 5737,
      "ĠìĨĮëĮĢê°Ģë¦¬": 5738,
      "ëĿ¼ëĿ¼": 5739,
      "Ġìŀħìľ¼ë¡ľ": 5740,
      "ĠìĿ¸ê°Ħëĵ¤ìĿĢ": 5741,
      "ĠëĤ´ëĬĶ": 5742,
      "ĠëķĮë¬¸ìĿ´ëĭ¤": 5743,
      "Ġëĭ´ë°°": 5744,
      "Ġìľłë¦¬": 5745,
      "ëĤĺëĦ¤": 5746,
      "ĠìĹ´ë°Ľ": 5747,
      "ĠìĹŃëĮĢê¸ī": 5748,
      "ĠìĹ°ê¸°": 5749,
      "ĠìłĢê±´": 5750,
      "ĠëģĶ": 5751,
      "ĠëĤĺëĿ¼ê¼´": 5752,
      "ĠìĿ´ëħĲ": 5753,
      "ĠìļķíķĺëĬĶ": 5754,
      "Ġìĸ´ì©ĶìĪĺ": 5755,
      "Ġë¬¼ê°Ģ": 5756,
      "Ġìļ°ë¦¬ëĤĺëĿ¼ê°Ģ": 5757,
      "ëŁ½ëĭ¤": 5758,
      "ĠìĪĺìĤ¬ë¥¼": 5759,
      "ĠìĤ½": 5760,
      "Ġì¹Ńì°¬": 5761,
      "ìłķê¶ĮìĿ´": 5762,
      "ĠëıĦìĽĢìĿ´": 5763,
      "Ġëħ¼ëŀĢ": 5764,
      "ĠíĺķìĪĺ": 5765,
      "Ġì²ŃìĽĲ": 5766,
      "ì´ī": 5767,
      "ëĤĺë³´ëĦ¤": 5768,
      "ĠìŀĲìĭłìĿ´": 5769,
      "Ġëĸ³ëĸ³": 5770,
      "ĠìķĮê²Į": 5771,
      "Ġê°Ĵ": 5772,
      "ĠìĪĺìĿµ": 5773,
      "~?": 5774,
      "ìķĦëĬĶ": 5775,
      "ëĦĺëĵ¤": 5776,
      "ëįĶëĤĺ": 5777,
      "ĠëĤ¨ìĿĦ": 5778,
      "Ġê¹¡íĮ¨": 5779,
      "Ġê°ľê²Ģ": 5780,
      "Ġíķłê¹Į": 5781,
      "Ġìłķìĭłì°¨ëł¤ëĿ¼": 5782,
      "ĠíŀĺìĿ´": 5783,
      "ĠëıĻìĽĲ": 5784,
      "ì£¼ëĥĲ": 5785,
      "¾Į": 5786,
      "ĠíĮĮìķħ": 5787,
      "ĠíĨµíķ´": 5788,
      "íĬ¸ë¥¼": 5789,
      "ĠìĪĺì²ľ": 5790,
      "ĠíĶĦë": 5791,
      "ë°©ìĹĲ": 5792,
      "ĠëĦĪê±°": 5793,
      "Ġêº¼ë": 5794,
      "BC": 5795,
      "Ġëĥī": 5796,
      "ĠìŀĲë£Į": 5797,
      "ìħĪ": 5798,
      "Ġê³µì§ģ": 5799,
      "ëłģ": 5800,
      "ê³łìĭ¶ëĭ¤": 5801,
      "ì±Ļ": 5802,
      "ê°Ģê²Į": 5803,
      "ĠìŀĪëĤĺìļĶ": 5804,
      "Ġê²¬ì°°": 5805,
      "Ġê³½": 5806,
      "ë¹Ī": 5807,
      "Ġì¯§ì¯§": 5808,
      "Ġìĺ³ìĿĢ": 5809,
      "ĠëĮĢë§Į": 5810,
      "ĠìĥĿê°ģíķľëĭ¤": 5811,
      "Ġìļ°ëł¤": 5812,
      "Ġìĺ¬ë¦°": 5813,
      "id": 5814,
      "Ġë¶Īê°ĢëĬ¥": 5815,
      "ì²ľëĮĢ": 5816,
      "ê³łê¸°": 5817,
      "Ġì§Ģìĭľ": 5818,
      "ì°¨ê°Ģ": 5819,
      "ìĤ¬ëıĦ": 5820,
      "ĠëĬĺìĸ´ëĤĺ": 5821,
      "ìľĦíķľ": 5822,
      "ëĤĺìĺ¨ëĭ¤": 5823,
      "ĠíĥĲ": 5824,
      "ĠìĿ¸ì¦Ŀ": 5825,
      "ë°ĽìĿĢ": 5826,
      "Ġíıīê°Ģ": 5827,
      "Ġì£½ìĿ´ê³ł": 5828,
      "ĠíĮ¨ê±°ë¦¬": 5829,
      "ĠìĿ´ë¯¼": 5830,
      "ĠëĳĺìĿ´": 5831,
      "Ġ500": 5832,
      "ĠêµĲì²´": 5833,
      "ì»·": 5834,
      "ë°ĽìķĦ": 5835,
      "ĠìĭłëıĦ": 5836,
      "ìŀ¬ë¥¼": 5837,
      "ĠìĤ¬ë²ķë¶Ģ": 5838,
      "ëĵľëĿ¼": 5839,
      "Ġë³µì§Ģ": 5840,
      "ĠìłĢëĶ´": 5841,
      "Ġë°±ìĭłíĮ¨ìĬ¤": 5842,
      "ìłķëıĦë¡ľ": 5843,
      "Ġë¬¸ìłľì§Ģ": 5844,
      "ë³¼": 5845,
      "ĠíĿł": 5846,
      "ĠìłķìĭłìĿ´": 5847,
      "Ġê°Ģê²Į": 5848,
      "ëªĩ": 5849,
      "ëĮĢë¥¼": 5850,
      "ĠìĤ¬íļĮìłģ": 5851,
      "ĠìĭľíĤ¤ê³ł": 5852,
      "ĠëĿ¼ëĬĶ": 5853,
      "bc": 5854,
      "Ġë¯¸ìłĳì¢ħ": 5855,
      "ĠëĲĺê²łëĦ¤": 5856,
      "ìĿĺìĭĿ": 5857,
      "Ġìĸ¼êµ´ë": 5858,
      "ĠíĿĶëĵ¤": 5859,
      "ìĦĿìĿĢ": 5860,
      "Ġëª°ëł¤": 5861,
      "Ġê²ĥëĵ¤ìĿĢ": 5862,
      "Ġíŀĺëĵ¤ìĸ´": 5863,
      "ìŀĲì²´ê°Ģ": 5864,
      "ì²ĺë¦¬": 5865,
      "Ġì¢ĮíĮĮëĵ¤": 5866,
      "Ġì°¸ìĹ¬": 5867,
      "ĠìĦ¸ëĩĮ": 5868,
      "¥ľ": 5869,
      "ìĸ´ëĨĵê³ł": 5870,
      "ìĿ´íĮħ": 5871,
      "Ġê¸°ìŀĲê°Ģ": 5872,
      "ĠìķĦëĭĲê¹Į": 5873,
      "Ġì°¢ìŀ¬ëªħ": 5874,
      "ìłĦíŀĪ": 5875,
      "Ġìłķë³´": 5876,
      "ìĤ¬ìĹĲ": 5877,
      "ĠíĽĪ": 5878,
      "ĠìķĦëĭĮëĵ¯": 5879,
      "ëľ¯": 5880,
      "Ġê°Īë": 5881,
      "ĠìĿ´ë²ĪìĹĶ": 5882,
      "Ġíķ¸": 5883,
      "ĠìĮįìļķ": 5884,
      "ë¦¬ê¸°": 5885,
      "êµ¬ëĿ¼": 5886,
      "Ġì¡°ë¡±": 5887,
      "Ġê°ĲíŀĪ": 5888,
      "ëĲ©ëĭĪëĭ¤": 5889,
      "íķłê²Į": 5890,
      "ĠëªħìĺĪ": 5891,
      "Ġì£½ìĿ´": 5892,
      "âĻ¡âĻ¡": 5893,
      "ê³µë¬´ìĽĲ": 5894,
      "ĠìĹĲìĿ´": 5895,
      "ìĹĪëĬĶì§Ģ": 5896,
      "ë¹¨ê°±ìĿ´": 5897,
      "ìĤ¬ëĵ¤": 5898,
      "Ġë§ŀëĬĶë§Ĳ": 5899,
      "ìľ¼ë¡ľëıĦ": 5900,
      "Ġìłķê²½": 5901,
      "Ġê¸°ë¡Ŀ": 5902,
      "ĠìķĦëĵ¤ìĿ´": 5903,
      "ĠìĿĺë¬´": 5904,
      "íĨ¡": 5905,
      "ëĿ¼ìĭľ": 5906,
      "Ġìĺ¤ì§ģ": 5907,
      "ĠìĦ¸ìĥģìĿĦ": 5908,
      "ê¼´íĨµ": 5909,
      "Ġëª»íķľëĭ¤": 5910,
      "ìĿ´ëĭĪê¹Į": 5911,
      "ë²ķìĿĦ": 5912,
      "ĠìķīìķĦ": 5913,
      "íĽĦìĹĲ": 5914,
      "Ġãħĭãħĭãħĭãħĭãħĭãħĭãħĭãħĭãħĭ": 5915,
      "ëĳĳ": 5916,
      "ì©į": 5917,
      "ĠëĨĪëĵ¤ìĿĢ": 5918,
      "ĠìŀĦê¸Ī": 5919,
      "ĠíķľêµŃìĹĲìĦľ": 5920,
      "ë¹Ħë¥¼": 5921,
      "ĠìķŀìĹĲ": 5922,
      "ĠìĿ¸íķ´": 5923,
      "Ġê¾¸": 5924,
      "Ġì§Ģíķĺì²ł": 5925,
      "Ġíķłë°°": 5926,
      "ìĹ¼ë³ĳ": 5927,
      "Ġê½ĥ": 5928,
      "ĠíķĺëĬĶê±´": 5929,
      "Ġìĭ¹ëĭ¤": 5930,
      "Ġìŀ¬ë²Į": 5931,
      "ĠìĪĺë§İìĿĢ": 5932,
      "ĠìĿ´ëĶ°": 5933,
      "ĠìķŀìĹĲìĦľ": 5934,
      "Ġë°ķìĺģìĦł": 5935,
      "ãĢ": 5936,
      "ë¬´ìĭľ": 5937,
      "Ġê°Ĳê¸°": 5938,
      "Ġêµ°ìĤ¬": 5939,
      "Ġìľ¤ì§ľ": 5940,
      "Ĳĺë©´": 5941,
      "ëį©ìĸ´ë¦¬": 5942,
      "...?": 5943,
      "ĠíķĺëĬĶê²ĥ": 5944,
      "Ġëĭ¬ê³ł": 5945,
      "ł¤ìĦľ": 5946,
      "Ġê³µìłķê³¼": 5947,
      "ĠíķĺìĹ¬íĬ¼": 5948,
      "ëĭŃ": 5949,
      "ĠìĮ©": 5950,
      "ĠìĿ¸ìĥģ": 5951,
      "Ġíĸīìłķ": 5952,
      "ìĤ¬ëŀĮëĵ¤ìĿĢ": 5953,
      "ê²ĥëĭ¤": 5954,
      "Ġì¡¸ëĿ¼": 5955,
      "Ġëĭ¤ê°Ģ": 5956,
      "įľ": 5957,
      "Ġêµ¶": 5958,
      "Ġíı°": 5959,
      "Ġë©¸ê³µ": 5960,
      "ìĹĪëĭ¤ë©´": 5961,
      "ĠìĿĺë£Įì§Ħ": 5962,
      "ĠìĹ¼ë": 5963,
      "ĠìĹ®": 5964,
      "Ġì§Ħìŀĳ": 5965,
      "ĩ´ë": 5966,
      "êµŃìĿĺ": 5967,
      "ĠìĿ´ê²ĥìĿ´": 5968,
      "©¸": 5969,
      "ìĭľì£ł": 5970,
      "ìĿ¸ëĵľ": 5971,
      "Ġb": 5972,
      "´ĲëıĦ": 5973,
      "ĠìĥģëĮĢë¡ľ": 5974,
      "ĠìĿ´ì¯¤": 5975,
      "êµĲìĪĺ": 5976,
      "ê¶Ĳ": 5977,
      "ëĦĲ": 5978,
      "Ġì´Ŀìŀ¥": 5979,
      "íķĺëįĺëį°": 5980,
      "ìĺ¬ëĿ¼": 5981,
      "Ġë³´ë©´ìĦľ": 5982,
      "íĥ±": 5983,
      "Ġì§ĳìĿĦ": 5984,
      "ìľ¤ìĦĿìĹ´": 5985,
      "Ġì¶Ķì¢ħ": 5986,
      "ëĶĶìĸ´": 5987,
      "ê¸°ì§Ģ": 5988,
      "ĠìĪĺìĤ¬ë": 5989,
      "ĠíĸĪëĤĺ": 5990,
      "Ġë¹Ħë¡Ģ": 5991,
      "Ġì§Ģì§ĢìŀĲ": 5992,
      "ĠêµĲëıĦìĨĮ": 5993,
      "ëĸ¡": 5994,
      "ê°Ĳìłķ": 5995,
      "ĠíķĺëĤĺê°ĻìĿ´": 5996,
      "ê¹¡": 5997,
      "Ġê±°ëĥĲ": 5998,
      "ìĸ´ë²": 5999,
      "ĠìĤ´ëĭ¤": 6000,
      "ìŀĲìľł": 6001,
      "ìĹĨìľ¼ë©´": 6002,
      "Ġì¡°ë¯¼": 6003,
      "Ġë¶ķ": 6004,
      "ê·¼ëį°": 6005,
      "Ġìŀ£": 6006,
      "ìĮ": 6007,
      "ìĥĿìĿ´": 6008,
      "âĿ": 6009,
      "ìĦłìĸ¸": 6010,
      "ë¬¼ê³ł": 6011,
      "ìĦłíĥĿ": 6012,
      "ìłķëĭ¹": 6013,
      "ëķľìĹĲ": 6014,
      "êµĲíļĮ": 6015,
      "ìĸ´ëĶĶ": 6016,
      "íĭ°ë¸Į": 6017,
      "ìŀĲëĵ¤ìĿĦ": 6018,
      "íĥĢê³ł": 6019,
      "ĠíĽĦìĨĲ": 6020,
      "Ġë¹Ľ": 6021,
      "Ġ+": 6022,
      "ê±°ëŀĺ": 6023,
      "ĠëģĮê³ł": 6024,
      "ĠìĹ°ê¸Ī": 6025,
      "ê·¸ëŀĺëıĦ": 6026,
      "Ġë§ĪìĬ¤íģ¬ë": 6027,
      "Ġìŀĺëª»ìĿĦ": 6028,
      "Ġë§İê³ł": 6029,
      "ê°Ģë¥´": 6030,
      "Łê°ĢëĿ½": 6031,
      "ĠìĹīë§Ŀ": 6032,
      "Ġíķĺëĭ¤ê°Ģ": 6033,
      "ìł¸ëĤĺ": 6034,
      "Ĥ¼": 6035,
      "íĸĪìĸ´": 6036,
      "ĠìĿ´ëŁ°ëį°": 6037,
      "ĠëıĦë°ķ": 6038,
      "Ġì°¨ê¸°": 6039,
      "ĠãħħãħĤ": 6040,
      "ìŀĲìĹĲê²Į": 6041,
      "ĠìĭľíĤ¨": 6042,
      "ĠíıĲê¸°": 6043,
      "ì§ĪíĻĺ": 6044,
      "¦¬ë¡ľ": 6045,
      "ĠìŀĲê²©ìĿ´": 6046,
      "Ġì¤Ģíĳľ": 6047,
      "ĠìĤ¬ìĥģ": 6048,
      "ĠëĤĺìĺ¤ì§Ģ": 6049,
      "ìĭľì¼°": 6050,
      "ĠìĤ´ìķĺ": 6051,
      "ëĳ¬": 6052,
      "ê¶ĮìĿ´": 6053,
      "ĨĵìĿĢ": 6054,
      "ì¹ĺë£Į": 6055,
      "Ġë³´ëĦ¤": 6056,
      "ëĭ¤ë¦¬": 6057,
      "ìĿ¼ë²ł": 6058,
      "ĠìĿ´ì°¸ìĹĲ": 6059,
      "ĠëĴ¤ë¡ľ": 6060,
      "ĠíĥĪìĽĲìłĦ": 6061,
      "Ġìĺģìĥģ": 6062,
      "ìľ¼ë¡ł": 6063,
      "ì£¼ëĤĺ": 6064,
      "ê³¼ìĿĺ": 6065,
      "ĠëĪĪìĿ´": 6066,
      "Ġë»Ķë»Ķíķľ": 6067,
      "ìľ¼ëŁ¬": 6068,
      "Ġì«Ħ": 6069,
      "Ġìĸ´ëĸ»ê²Įëĵł": 6070,
      "ĠìĤ¬ìŀ¥": 6071,
      "ðŁĲ": 6072,
      "ìĭľìĦ¤": 6073,
      "Ġìĸ¸ê¸ī": 6074,
      "Ġêº¼ìł¸": 6075,
      "ĠëĮĢíķľë¯¼êµŃìĹĲ": 6076,
      "ëłĪë": 6077,
      "ê¸°ë©´": 6078,
      "Ġê¹ĢìĿ¼": 6079,
      "Ġê°ĻëĦ¤ìļĶ": 6080,
      "ĠëĲĺìĸ´ìķ¼": 6081,
      "ew": 6082,
      "ëĭµê²Į": 6083,
      "Ġíķłì¤Ħ": 6084,
      "Ġë¶Ģë¶Ħ": 6085,
      "Ġë©°": 6086,
      "ĩ¬": 6087,
      "ĠìĦ±ìŀ¥": 6088,
      "Ġì£¼ìĿ¸": 6089,
      "ëĬĶê±°ê³ł": 6090,
      "ĠìķĪíķľëĭ¤": 6091,
      "ĠìĬ¤íĥĢ": 6092,
      "ĠìĽĶìĦ¸": 6093,
      "ì´Īë": 6094,
      "Ġê±´ëĵľ": 6095,
      "ĠìłĢì§Ī": 6096,
      "ĠìĹĦë": 6097,
      "ìĿ¼ìĦ¸": 6098,
      "ĠD": 6099,
      "ĠìĿ´ëĿ¼ê³ł": 6100,
      "Ġë¬´ìĭľíķĺê³ł": 6101,
      "íķľìĭ¬": 6102,
      "ĠìĿ´ë§Į": 6103,
      "ìĬ¤íĦ°": 6104,
      "ĠìĽĲì¹Ļ": 6105,
      "Ġì¤¬": 6106,
      "Ġì´ī": 6107,
      "ìłĦë¶ĢíĦ°": 6108,
      "ëĢĮ": 6109,
      "ĠëĮĢê°Ģ": 6110,
      "Ġìľ¤ìĦĿìĹ´ë": 6111,
      "ë¥¸ëĭ¤": 6112,
      "¬ëĥĲ": 6113,
      "Ġë°Ģìĸ´ë": 6114,
      "ĠìĿ´íķ´ë": 6115,
      "ì¹ĺì§Ģ": 6116,
      "ìĿ´ìĹ¬": 6117,
      "Ġë§ĲëĿ¼": 6118,
      "Ġìłľê°Ģ": 6119,
      "ĠìłĢëŀĺ": 6120,
      "ĠìĦľë¯¼ëĵ¤": 6121,
      "ìŀĲìĹĲ": 6122,
      "ĠìĤ´ìķĦìķ¼": 6123,
      "Ġp": 6124,
      "Ġëª©ìłģ": 6125,
      "Ġê°ĻìĿĮ": 6126,
      "íķ´ì¤Ħ": 6127,
      "ë³´ì§Ģ": 6128,
      "ł¤ëĬĶ": 6129,
      "Ġìĺ¬ë¦¬ê³ł": 6130,
      "Ġë¶ģê´´": 6131,
      "Ġê°ľìŀħ": 6132,
      "ëĭ¤ëĬĶê±´": 6133,
      "ìĥģìĭĿ": 6134,
      "ĠíķĺëĿ½": 6135,
      "ĠíķĺëĦ¤ìļĶ": 6136,
      "Ġd": 6137,
      "Ġì²ĺìĿĮë¶ĢíĦ°": 6138,
      "ìłĦë¬¸": 6139,
      "Ġë¹Ħìĭ¼": 6140,
      "Ġíİĺë¯¸ëĭĪ": 6141,
      "ĠëĪĦêµ¬ëĤĺ": 6142,
      "Ġìį¼": 6143,
      "ðŁĳįðŁĳį": 6144,
      "Ġíķĺê²łì§Ģ": 6145,
      "70": 6146,
      "íķĺìĹĲ": 6147,
      "ĠìĿ´ë¯¸ì§Ģ": 6148,
      "ê¸°ê°Ħ": 6149,
      "ĠLH": 6150,
      "ì¤ĺëıĦ": 6151,
      "ìķĪíķ¨": 6152,
      "Ġíķľê°ķ": 6153,
      "ĠëĤĺë²ł": 6154,
      "Ġë²ķë¬´": 6155,
      "ìĭľì§Ģ": 6156,
      "Ġíı¬ìŀ¥": 6157,
      "Ġì£¼ë©´": 6158,
      "Ġì§ķì§ķ": 6159,
      "ìĦłìĪĺ": 6160,
      "Ġíķ´ëĮĢ": 6161,
      "ĠìķĮìķĦë": 6162,
      "ãħĮ": 6163,
      "ì¤Ģëĭ¤ê³ł": 6164,
      "ĠíĽĦë³´ê°Ģ": 6165,
      "ĠíķľëĤ¨": 6166,
      "ìĺĢìľ¼ë©´": 6167,
      "ìķ¼ëĲ¨": 6168,
      "ĠìĭľìĬ¤íħľ": 6169,
      "íĸĪìĬµëĭĪëĭ¤": 6170,
      "ëĭ¤ëĬĶê±¸": 6171,
      "ĠìĤ°ìĹħ": 6172,
      "Ġê¸°ì¡´": 6173,
      "60": 6174,
      "ĠëĬ¥ëł¥ìĿ´": 6175,
      "ĠìŀĲì²´": 6176,
      "Ġì¶Ķìŀ¡": 6177,
      "ĠëĤ´ë³´ë": 6178,
      "êµ°ìĿ´": 6179,
      "Ġ14": 6180,
      "ëĭ¨ìĿ´": 6181,
      "ĠìĿ¸íĦ°ë·°": 6182,
      "ĠëģĶì°į": 6183,
      "ìĿ´ìĬ¤": 6184,
      "ë§ĪíĬ¸": 6185,
      "Ġíķĺìħ¨": 6186,
      "ë³¸ë": 6187,
      "Ġëª»ì°¨": 6188,
      "ê°Ħì²©": 6189,
      "Ġê°Ħìĭł": 6190,
      "íķ´ë´Ĳìķ¼": 6191,
      "¦¬ëĿ¼": 6192,
      "ì¤ĳìĿ´": 6193,
      "ëĩĮ": 6194,
      "ĠëĴ¤ìĹĲ": 6195,
      "ĠâĢĺ": 6196,
      "ĠãĦ¹ãħĩ": 6197,
      "Ġëĭ¨ìĨį": 6198,
      "Ġì°Įì§Ī": 6199,
      "~^^": 6200,
      "Ġë¶Ģëª¨ëĭĺ": 6201,
      "Ġê²ĥìľ¼ë¡ľ": 6202,
      "ëĭĿ": 6203,
      "ĠìĹ°ìĺĪìĿ¸": 6204,
      "ł¤ë©´": 6205,
      "ë¹ĦìĬ¤": 6206,
      "Ġìĺ¬ë°Ķ": 6207,
      "tv": 6208,
      "Ġê¹Ģë¶Ģ": 6209,
      "ìĽĮìķ¼": 6210,
      "Ġãħĩãħĩ": 6211,
      "ĠëĦ¤ê°Ģ": 6212,
      "íĬ¸ë¦¬": 6213,
      "ìĺ·": 6214,
      "Ġëĭ¤ì£¼íĥĿ": 6215,
      "ĠìķĮìķĦìķ¼": 6216,
      "Ġë²ĦìĬ¤": 6217,
      "´ī": 6218,
      "ëĭ¤ìĿĮ": 6219,
      "íį": 6220,
      "?...": 6221,
      "Ġì¡°êµŃìĿĢ": 6222,
      "êµ¬ê°Ģ": 6223,
      "ĠìķĪë¨¹": 6224,
      "ĠëĪĦë": 6225,
      "ê¼¬ëĿ¼": 6226,
      "ãĦ±ãĦ±": 6227,
      "ĠìĪĺëıĦê¶Į": 6228,
      "Ġëĥħ": 6229,
      "ì§Ģê¸ĭ": 6230,
      "ìŀ¡ìķĦ": 6231,
      "Ġê¸°ìĤ¬ëĬĶ": 6232,
      "ìłĢìĶ¨": 6233,
      "ìĦ±ìķł": 6234,
      "ë³´ëıĦ": 6235,
      "ì§ģìĽĲ": 6236,
      "ĠìķĬìĿĦê¹Į": 6237,
      "ëĵ±ëĵ±": 6238,
      "íķłëł¤ê³ł": 6239,
      "íķĺëĵł": 6240,
      "ĠëĮĢì¶©": 6241,
      "Ġë¶Ģëĭ´": 6242,
      "Ġê³łì§ĳ": 6243,
      "Ġê°ľë¿Ķ": 6244,
      "ë³´ëĤ´": 6245,
      "Ġê³ĦìĤ°": 6246,
      "Ġê³łìĿ¸ìĿĺ": 6247,
      "ĠëĴ¤ìĹĲìĦľ": 6248,
      "ìķĪëĲĺëĬĶ": 6249,
      "ì²ľëĮĢìľł": 6250,
      "ĠìľĦíĺĳ": 6251,
      "Ġë°ĺëĮĢë¡ľ": 6252,
      "Ġìĭľì¼ľëĿ¼": 6253,
      "¤Ħ": 6254,
      "Ġë³´ìĿ´ì§Ģ": 6255,
      "ìŀĦë": 6256,
      "Ġì¢ĭìķĦìļĶ": 6257,
      "ãħģ": 6258,
      "ĠëıĪëıĦ": 6259,
      "ĠìłķìĿĺëĭ¹": 6260,
      "ĠëĤĺëŀı": 6261,
      "ìĹĨëĬĶëį°": 6262,
      "Ġìĺ¤ì£½": 6263,
      "Ġëįķë¶ĦìĹĲ": 6264,
      "ìĿ´ê±´": 6265,
      "ëķĮëıĦ": 6266,
      "íķĺëıĦë¡Ŀ": 6267,
      "ëĨĶ": 6268,
      "ĠëŃĲëĭĪ": 6269,
      "Ġê¸Īë¦¬": 6270,
      "ĠìĬ¤íĬ¸ëłĪìĬ¤": 6271,
      "íĢ´ë": 6272,
      "ìĿ¸ê²ĥ": 6273,
      "ĠíķĦìļĶíķĺëĭ¤": 6274,
      "ìŀĶìķĦ": 6275,
      "ĠëĵľëŁ¬ëĤĺ": 6276,
      "ìŀĲì²´": 6277,
      "Ġê·¸ë¶Ħ": 6278,
      "Ġê°ľëı¼ì§Ģë¡ľ": 6279,
      "ì¨": 6280,
      "ìŀĲìĻĢ": 6281,
      "Ġê³łìļ©": 6282,
      "ìķłëĵ¤ìĿ´": 6283,
      "ĠìŀĪêµ¬ëĤĺ": 6284,
      "ëł´ì¹ĺ": 6285,
      "ìĿ´ìĿµ": 6286,
      "ë¯¸ëĶĶ": 6287,
      "Ġë¹¨ìķĦ": 6288,
      "ìĭľìŀĳ": 6289,
      "Ġëª»íķĺë©´": 6290,
      "ĠëĺĲëĬĶ": 6291,
      "Ġìĭ¶ìĸ´": 6292,
      "Ġì§Ģê¸Īë": 6293,
      "Ġë§¤ë²Ī": 6294,
      "Ġíķľë°ĺëıĦ": 6295,
      "íķĺëįĶëĿ¼": 6296,
      "Ġë¶Īê³¼": 6297,
      "ì§ĳìĹĲ": 6298,
      "Ġë°ķìĪĺ": 6299,
      "ĠëķĮëĬĶ": 6300,
      "ĠìĹ¿": 6301,
      "ë³´ë¥¼": 6302,
      "ëĨĪëĵ¤ìĿĢ": 6303,
      "Ĳĺê³ł": 6304,
      "ĠìķĪìĵ°": 6305,
      "ëĲĺëĥĲ": 6306,
      "ĠìĨĮìĨ¡": 6307,
      "Įķ": 6308,
      "ĠëĿĦ": 6309,
      "Ġê°Ĳìĺ¥ìĹĲ": 6310,
      "Ġë°Ł": 6311,
      "Ġì¹´ëĵľ": 6312,
      "Ġì§Īë³ĳ": 6313,
      "ê°ĢëĦ¤": 6314,
      "ì§ĳëĭĪëĭ¤": 6315,
      "Ġë´Ħ": 6316,
      "ĠíĻĶìŀ¥": 6317,
      "ëĬ¥ëł¥": 6318,
      "ĠëĦĪíĿ¬ëĵ¤": 6319,
      "Ġë°±ìĭłìĿ´": 6320,
      "Ġìĸ´ì§Ģ": 6321,
      "ë°ķìĿ´": 6322,
      "ĠìķĪì¢ĭ": 6323,
      "íĽĦë": 6324,
      "Ġì£½ìĸ´ëıĦ": 6325,
      "ìķĦëĭĪëĭ¤": 6326,
      "ĠìķĦëŀĺ": 6327,
      "Ġìį¨ëĿ¼": 6328,
      "ìĥĪëģ¼ëĵ¤": 6329,
      "Ġìĺ¤ë§Į": 6330,
      "ĠíĸĪëĥĲ": 6331,
      "ĠíĻķìĤ°": 6332,
      "Ġê²ĥìŀħëĭĪëĭ¤": 6333,
      "Ġìĺ¤ëĬĺëıĦ": 6334,
      "¹łì§Ħ": 6335,
      "ë¥łìĿ´": 6336,
      "ĠìĿ´ìĤ¬ëŀĮ": 6337,
      "ìĿĦëł¤ê³ł": 6338,
      "ĠìłľìĻ¸": 6339,
      "Ġíĸĩ": 6340,
      "ì§ķìĹŃ": 6341,
      "ĠìłĪë°ĺ": 6342,
      "Ġìĸ´ëĸł": 6343,
      "ĠëĮĢìĦłíĽĦë³´": 6344,
      "ĠìķĦëıĻ": 6345,
      "an": 6346,
      "Ġëĭ¤ë¥¸ëĤĺëĿ¼": 6347,
      "ëįĶëĥĲ": 6348,
      "ĠìĤĲ": 6349,
      "ê²łêµ°": 6350,
      "Ġìŀ¥ìķħ": 6351,
      "ĠëŃ£": 6352,
      "ìłĢíŀĪ": 6353,
      "ìª½ìľ¼ë¡ľ": 6354,
      "ìķĪìĿĦ": 6355,
      "Ġë°ĶëĿ¼ëĬĶ": 6356,
      "ìŀĪëĭ¤ê³ł": 6357,
      "ĠìĥĿê°ģëıĦ": 6358,
      "Ġë¶Ħìĸĳ": 6359,
      "ëĶ°ëĿ¼": 6360,
      "ìĸĳë°ĺ": 6361,
      "ĠìĺĪìĪĺ": 6362,
      "Ġì¹ł": 6363,
      "ĠìłĦêµĲ": 6364,
      "Ġë³´ìĦ¸ìļĶ": 6365,
      "ìĭ¸ìĽĢ": 6366,
      "ĠìĦ¸ê¸ĪìĿ´": 6367,
      "Ġëıħê°Ĳ": 6368,
      "íıīëĵ±": 6369,
      "íķ©ëĭĪê¹Į": 6370,
      "ĠìŀĪìĸ´ëĿ¼": 6371,
      "ìĿ¸ê²Į": 6372,
      "Ġë°©ìĤ¬ëĬ¥": 6373,
      "ëĪĦê°Ģ": 6374,
      "ë²¼": 6375,
      "ì§Ģëĭ¤": 6376,
      "ìĿ¼ë¡ľ": 6377,
      "Ġêµ¬ë§¤": 6378,
      "ĠìĿ¼ìĥģ": 6379,
      "ìķ¼ë§Į": 6380,
      "ĠìĿ´ê²¨": 6381,
      "ê±°ëĿ¼ê³ł": 6382,
      "Ġë¶ĢìĿ¸": 6383,
      "Ġìŀ¥ìłľ": 6384,
      "Ġë§Ļ": 6385,
      "ĠíĽł": 6386,
      "ĠìłĦê´ĳíĽĪ": 6387,
      "Ġì»¨": 6388,
      "ĠìķĪëĲĺì§Ģ": 6389,
      "ĠìłĢì§Īë": 6390,
      "Ġë§Īëł¨": 6391,
      "Ġìĭľì²Ń": 6392,
      "ĠãħĤãħħ": 6393,
      "íķĺëł¤ë©´": 6394,
      "Ġìĺ¬íķ´": 6395,
      "ìĹĪìĬµëĭĪëĭ¤": 6396,
      "ĠìĿ´ëŀĺëıĦ": 6397,
      "ĠìĿ¸ê°ĦìķĦ": 6398,
      "Ġë§Ŀìĭł": 6399,
      "ĠìľĦë¡ľ": 6400,
      "Ġëªħëĭ¨": 6401,
      "¬´ë¦¬": 6402,
      "Ġì§ĳì¤ĳ": 6403,
      "ĠìĿ´íķĺ": 6404,
      "ĠíĨµê³Ħ": 6405,
      "ĠìĤ¬ê³¼ë": 6406,
      "ª°": 6407,
      "Ġë¯¸ëŀĺê°Ģ": 6408,
      "ì°¨ëĬĶ": 6409,
      "ĠìĪŁê°ĢëĿ½": 6410,
      "Ġìķħì§Ī": 6411,
      "ĲĺëĬĶ": 6412,
      "Ġíľ´ê°Ģ": 6413,
      "Ġë§ŀìĿĦ": 6414,
      "ìĺģíĻĶ": 6415,
      "âĻ¥": 6416,
      "ê±±ìłķ": 6417,
      "ĠëĸłëĤĺìĦľ": 6418,
      "ĠëĮĢìĥģ": 6419,
      "Ġíķľë¯¸": 6420,
      "Ġì¢ħë¶Ģ": 6421,
      "ìºĲ": 6422,
      "ĠìĮĢ": 6423,
      "ê²¸": 6424,
      "ĠíĸĪì§Ģ": 6425,
      "¶Ħë": 6426,
      "ë²Īë": 6427,
      "ìķĺëĤĺ": 6428,
      "ë³ĳìĽĲ": 6429,
      "ê°ĢëĬĶëį°": 6430,
      "Ġì§Ħìĭ¬ìľ¼ë¡ľ": 6431,
      "ê°ĲìĿĦ": 6432,
      "ìĸĳìĿ´": 6433,
      "ĠêµĲíĻľ": 6434,
      "Ġíķĺê²łëĭ¤": 6435,
      "ĠíĻįë³´": 6436,
      "ĠìĤ¬ì£Ħ": 6437,
      "ĠëįĶíķľ": 6438,
      "ĠìħĢ": 6439,
      "ìĺµ": 6440,
      "Ġì£¼ë³ĢìĹĲ": 6441,
      "Ġê³µì²ľ": 6442,
      "Ġì¶Ķì§Ħ": 6443,
      "íķĺëĬĶê±°ìķ¼": 6444,
      "Ġê¹Ģê²½": 6445,
      "ĠëĤĺìĺ¤ê³ł": 6446,
      "ìŀĲë§Į": 6447,
      "íıŃëł¥": 6448,
      "Ġê¶ģê¸Īíķĺëĭ¤": 6449,
      "ìĭľëĦ¤": 6450,
      "ê±°ê°Ļ": 6451,
      "Ġíĸīíĥľ": 6452,
      "Ġë§ŀê²Į": 6453,
      "Ġìĸ´ì©Įê³ł": 6454,
      "Ġë¯¼íıĲ": 6455,
      "Ġìłķì¹ĺìĹĲ": 6456,
      "Ġì¢ĭìĿĢëį°": 6457,
      "íķ´ë¨¹": 6458,
      "íĸīìľĦ": 6459,
      "ê¸´ë": 6460,
      "Ġê°ĻëĦ¤": 6461,
      "Ġì°¸ëĤĺ": 6462,
      "ĠíıŃíĥĦ": 6463,
      "Ġíģ°ìĿ¼": 6464,
      "íķłì§Ģ": 6465,
      "ĠëıĻë§¹": 6466,
      "ĠìĥĪëģ¼ëĵ¤": 6467,
      "ìĹĨëĭ¤ê³ł": 6468,
      "ĠðŁĳ": 6469,
      "Ġíĥľìĸĳê´ĳ": 6470,
      "~!!!": 6471,
      "ì¤į": 6472,
      "ĠìķĪëĲĺë©´": 6473,
      "Ġëį°ëª¨": 6474,
      "Ġê²ī": 6475,
      "Ġíķĺê³łìĭ¶": 6476,
      "ĠìķĪíĥĢê¹Ŀëĭ¤": 6477,
      "Ġë¹Ħìļ©": 6478,
      "ĠìķĦë¬´ëŁ°": 6479,
      "ĠìłĦëŀµ": 6480,
      "Ġê·¼ë³¸": 6481,
      "Ġ21": 6482,
      "íĶ¼íķ´": 6483,
      "Ġìĭłë°ľ": 6484,
      "ì£¼ëĿ¼": 6485,
      "Ġë³´ì§Ģ": 6486,
      "ĠìĿ¼ë³¸ìĿĺ": 6487,
      "ĠìĦ±ë§¤ë§¤": 6488,
      "Ġë§¥": 6489,
      "22": 6490,
      "ĠìĹ¬ìŀĲëĬĶ": 6491,
      "ëĭµëĭ¤": 6492,
      "Ġë§ĺìĹĲ": 6493,
      "íĮį": 6494,
      "Ġë°ĺë³µ": 6495,
      "Ġì£½ëĬĶ": 6496,
      "ì£¼ëĦ¤": 6497,
      "ar": 6498,
      "Ġìŀ¬ë°": 6499,
      "ìķĺëĭ¤ê³ł": 6500,
      "Ġìķµ": 6501,
      "Ġë¬¸ìŀ¬ìĿ¸ìĿĺ": 6502,
      "ĠëĤ¨ë¶ģ": 6503,
      "ê³łìĥĿ": 6504,
      "Ġê±°ì§ĵë§ĲìĿĦ": 6505,
      "ĠëĮĢìļ°": 6506,
      "ëıĻìĿ´": 6507,
      "ĠíĮĶìķĦ": 6508,
      "ĠíĺĦê¸Ī": 6509,
      "íĶĦëłĪ": 6510,
      "¯¿": 6511,
      "ĠìĨĮì¤ĳ": 6512,
      "ĠëªĩëħĦ": 6513,
      "Ġê°±": 6514,
      "ĠìĪĺê³ł": 6515,
      "ĠëĲľëĭ¤ëĬĶ": 6516,
      "ì¶Ķê³ł": 6517,
      "Ġê·¸ê²ĥìĿ´": 6518,
      "Ġëł": 6519,
      "ĠíĻĺìŀ¥": 6520,
      "Ġë§ĲìŀĲ": 6521,
      "Ġëĵ¤ìĸ´ë": 6522,
      "ë¯Ħ": 6523,
      "íķĺëĬĶê±°ëĥĲ": 6524,
      "ĠìĦľìļ¸ìĭľ": 6525,
      "ìĦ±ëıĦ": 6526,
      "ë¦¬ëĭ¤": 6527,
      "Ġì§Ģëĵ¤ëģ¼ë¦¬": 6528,
      "ëŀĻ": 6529,
      "ë°ľìłĦ": 6530,
      "ë§ĲìĿĢ": 6531,
      "Ġì¦Ŀê±°ê°Ģ": 6532,
      "Ġìłķì¹ĺìłģìľ¼ë¡ľ": 6533,
      "ìĹĲëĭ¤": 6534,
      "ìķĦíĮĮíĬ¸": 6535,
      "Ġë©įë©į": 6536,
      "ĦĲ": 6537,
      "¬¼ë": 6538,
      "Ġìļ°ìĬµê²Į": 6539,
      "Ġê±´ëį°": 6540,
      "Ġëħ¸ìĿ¸ëĦ¤": 6541,
      "Ġê°ĪìĪĺë¡Ŀ": 6542,
      "ĠìĽĲìĪŃìĿ´": 6543,
      "ãħİãħİãħİãħİãħİãħİãħİãħİ": 6544,
      "ë´ĲìļĶ": 6545,
      "Ġíķľë§ĪëĶĶë¡ľ": 6546,
      "ĠëĦĺëĵ¤": 6547,
      "Ġì¶Ķë°©": 6548,
      "Ġì§Ģê¸ĭ": 6549,
      "ĠíĮĲë§¤": 6550,
      "êµ¬ë©į": 6551,
      "ĠëŃĲíķĺëĤĺ": 6552,
      "Ġë´īìĤ¬": 6553,
      "Ġìĸĳë³´": 6554,
      "ĠëĮĢíĺķ": 6555,
      "ê²Ħ": 6556,
      "íĬ¸ë¡ľ": 6557,
      "Ġê°ĪìķĦ": 6558,
      "ê²łìĬµëĭĪê¹Į": 6559,
      "Ġê·¸ëŁ¬ëĥĲ": 6560,
      "ê±°ëĬĶ": 6561,
      "Ġë¨¸ìłĢë¦¬": 6562,
      "Ġë»ĺ": 6563,
      "ìĹ½": 6564,
      "ðŁĲķ": 6565,
      "Ġë°±ìĭłìłĳì¢ħ": 6566,
      "ıĦë": 6567,
      "Ġì¢Ģë¹Ħ": 6568,
      "ĠìłĦíĺķìłģìĿ¸": 6569,
      "Ġëħ¸ë¦ĩ": 6570,
      "ĠêµŃê°ĢìĿĺ": 6571,
      "ĠìĦ±ê³¼": 6572,
      "ĠíĮĮëł´ì¹ĺ": 6573,
      "ĠìķĬìĬµëĭĪëĭ¤": 6574,
      "ĠìĪĺì¹ĺ": 6575,
      "ìĸµìĿ´": 6576,
      "ìĺĪë": 6577,
      "ĠìĦĿìĹ´ìĿ´": 6578,
      "ĠìķĪíķĺëĥĲ": 6579,
      "Ġìĸ¸ìłľë¶ĢíĦ°": 6580,
      "ĠìĸĳìĤ°": 6581,
      "ĠìĻĢìĿ´": 6582,
      "ìĸ´ë¥¼": 6583,
      "Ġê¹Ģìłķ": 6584,
      "ìĦľëıĦ": 6585,
      "Ġì¤ĳë¦½": 6586,
      "Ġë¯¼ì£¼ë": 6587,
      "ĠìĿ´ëĦĺ": 6588,
      "ìłķê¶ĮìĿĢ": 6589,
      "Ġë¹¨ê°±ìĿ´ëĵ¤": 6590,
      "ìķĦëĨĵê³ł": 6591,
      "Ġìŀ¬ëªħìĿ´": 6592,
      "ëĤĺëıĦ": 6593,
      "ĠìĤ¬ëŀĮìĿĺ": 6594,
      "íĻĶìŀĲ": 6595,
      "ìłĲìĿĦ": 6596,
      "Ġë§Ļìĭľëĭ¤": 6597,
      "íĸĪì§Ģë§Į": 6598,
      "Ġë¯¼ì£¼ëĭ¹ìĿĺ": 6599,
      "Ġìĺ¥": 6600,
      "ìķĦëĭĪë©´": 6601,
      "ĠìĿ´ëªħë°ķê·¼íĺľ": 6602,
      "Ġë§Ŀê°Ģ": 6603,
      "Ġëª©ìĤ¬": 6604,
      "ĠìķĦëĬĶëį°": 6605,
      "Ġìķłìĵ´ëĭ¤": 6606,
      "Ġìķłê°Ģ": 6607,
      "ĠO": 6608,
      "ĠíĬ¹ë³Ħ": 6609,
      "ĠíĻķë³´": 6610,
      "ĠêµŃíĨł": 6611,
      "Ġì¡°ìŀ¥": 6612,
      "ìĸ´ì§Ħ": 6613,
      "Ġëĭ¨ìĸ´": 6614,
      "Ġê°Ģê¹Į": 6615,
      "ë¦¬ìĦ¸ìļĶ": 6616,
      "íķĺëħ¸": 6617,
      "ê²¬ë": 6618,
      "ë¶ĢëĬĶ": 6619,
      "ĠíĸĪëĬĶì§Ģ": 6620,
      "ê±¸ê³ł": 6621,
      "ìłģíıĲ": 6622,
      "Ġì§Ģëĵ¤ìĿĢ": 6623,
      "Ġë¶ĪìĮįíķĺëĭ¤": 6624,
      "Ġ13": 6625,
      "Ġìĭ¤ìłľë¡ľ": 6626,
      "ĠìĿ¼ìĿ´ëĭ¤": 6627,
      "Ġêµ¥": 6628,
      "ĠìĨĮìĭł": 6629,
      "Ġì²ľë°ķ": 6630,
      "ë§Īë¦¬": 6631,
      "íĺĢìĦľ": 6632,
      "ìķĮë°Ķ": 6633,
      "Ġì¢ĭê²łìĬµëĭĪëĭ¤": 6634,
      "Ġì¹´ì¹´": 6635,
      "ìĿĦê²ĥ": 6636,
      "ë²Ħë¦¬ê³ł": 6637,
      "ê°Ģë©°": 6638,
      "Ġê°ķìłľë¡ľ": 6639,
      "Ġë°¥ê·¸ë¦ĩ": 6640,
      "Ġì§Ģê¸ĪìĿ´ëĿ¼ëıĦ": 6641,
      "Ġë¹ĦìĦľ": 6642,
      "Ġì¤ĳìĨĮ": 6643,
      "ĠíıŃëĿ½": 6644,
      "ĠíĪ¬ë": 6645,
      "Ġìĥģì²ĺ": 6646,
      "Ġëª¨ëĵłê²Į": 6647,
      "łĢ": 6648,
      "ê·¸ëłĩê²Į": 6649,
      "ìĤ¬ì§Ħ": 6650,
      "ĠìĿ´ê¸¸": 6651,
      "íķ´ì£¼ëĬĶ": 6652,
      "ĠíĥĢìĿ´": 6653,
      "Ġëĵ¤ìĹ¬": 6654,
      "Ġê³½ìĥģëıĦ": 6655,
      "Ġë¹łìł¸": 6656,
      "ìĦ¸ëĬĶ": 6657,
      "įĺëį°": 6658,
      "ĠëıĦìĭľ": 6659,
      "ĠðŁĲ": 6660,
      "Ġë¶ģíķľìĿĢ": 6661,
      "ì£¼ìŀĲ": 6662,
      "Ġìĸ´ì¼Ģ": 6663,
      "ĠìķĦë¶Ģ": 6664,
      "ĠìķĬìķĦ": 6665,
      "Ġíĥľìĸ´ëĤĺ": 6666,
      "íıŃíĥĦ": 6667,
      "Ġì¡´ì¤ĳ": 6668,
      "Ġíķĺëįĺëį°": 6669,
      "ĠíĻĶì²ľëĮĢìľł": 6670,
      "ìĹĨì§Ģ": 6671,
      "ĠíķĦìļĶê°Ģ": 6672,
      "Ġë¶Ģì¶Ķ": 6673,
      "ĠìĿ¼ìŀĲ": 6674,
      "ë²ķìĿ´": 6675,
      "Ġìĭľë¯¼ëĭ¨ì²´": 6676,
      "ìĸ´ì§Ģ": 6677,
      "ëª¸": 6678,
      "Ġëĭ¹ìĭłìĿĺ": 6679,
      "Ġì°©íķľ": 6680,
      "ìĦ¸ê³Ħ": 6681,
      "íĿī": 6682,
      "Ġë°ĽìķĦëĿ¼": 6683,
      "ê·¸ëŀĺìĦľ": 6684,
      "ĠíķľêµŃìĿĦ": 6685,
      "ìłľëĬĶ": 6686,
      "Ġë¶Ģëĵ¤": 6687,
      "ĠìĽĥê¸´": 6688,
      "ĠìĨĮìĨį": 6689,
      "ĠëŃĲì§Ģ": 6690,
      "Ġë¶Ħëĵ¤ìĿ´": 6691,
      "ëĭ¤ëĭĪëĬĶ": 6692,
      "ĠìķŀëĴ¤": 6693,
      "ĠìŀĲë³¸ì£¼ìĿĺ": 6694,
      "ì¤ĦìķĮ": 6695,
      "Ġì²ŃìĤ°": 6696,
      "ìĽĲìŀ¥": 6697,
      "¯¼ì£¼ëĭ¹": 6698,
      "Ġë¶ģìľ¼ë¡ľ": 6699,
      "ê´Ģë¦¬": 6700,
      "ê¸°ëĦ¤": 6701,
      "Ġëĸ¨ìĸ´ì§Ħ": 6702,
      "ĠN": 6703,
      "Ġëĭ¹ìĽĲ": 6704,
      "ëĭ«ê³ł": 6705,
      "ê·ľì§ģ": 6706,
      "Ġì£ĦìĨ¡": 6707,
      "ê¸°ìĪł": 6708,
      "ì·¨ê¸ī": 6709,
      "ĠëģĿìĿ´": 6710,
      "ĠìĺĢ": 6711,
      "Ġìĸ´ëĶĶë¡ľ": 6712,
      "Ġë§ŀì¶°": 6713,
      "ĠìĨĮë¦Ħ": 6714,
      "Ġëĭ¹ìĭłëĵ¤": 6715,
      "íķ´ë³¸": 6716,
      "êµ¬ìĨį": 6717,
      "ĠìķłíĶĮ": 6718,
      "ëĤ´ëĿ¼": 6719,
      "ìĹħì²´": 6720,
      "ìĤ´ìĿ´": 6721,
      "íĿĲ": 6722,
      "ĠìłķëıĦë©´": 6723,
      "Ġë¯¸ëŀĺë¥¼": 6724,
      "11": 6725,
      "Ġì£½ì°½": 6726,
      "?..": 6727,
      "ķĮëĬĶ": 6728,
      "ìŀĲê¸Ī": 6729,
      "ĠìłģíıĲì²ŃìĤ°": 6730,
      "Ġêµ°ìĿ¸": 6731,
      "ĠíĸĪëĦ¤": 6732,
      "Ġê±´ê°Ģ": 6733,
      "ìĭ¤ìĿ´": 6734,
      "ê°Ģëĭ¤": 6735,
      "Ġëª¨ë¥´ê²ł": 6736,
      "ê°ĢëĤĺ": 6737,
      "Ġê²½ìĺģ": 6738,
      "ĠëĤľë¦¬ë": 6739,
      "ê³³ìĿ´": 6740,
      "ìŀĲëĭ¤": 6741,
      "Ġê³µíıī": 6742,
      "¨ìĿ´": 6743,
      "Ġì«ĵ": 6744,
      "ĠêµŃê°Ģë¥¼": 6745,
      "ëĮĢê³ł": 6746,
      "Ġì¤ĳêµŃìĿĺ": 6747,
      "ì¤ĦìĿ´": 6748,
      "Ħë°ķ": 6749,
      "ĠìķĪëĤĺìĺ¤": 6750,
      "ì¢Įë¹¨": 6751,
      "Ġíģ´ëĿ¼": 6752,
      "Ġíķľê°Ģ": 6753,
      "ĠìĿ´ìĬĪ": 6754,
      "ë¯¼ì¡±": 6755,
      "ìĹĪìľ¼ëĭĪ": 6756,
      "ĠìĹĨìķłëĿ¼": 6757,
      "Ġë°ķìĤ´ë": 6758,
      "ìĭľê°ĦìĹĲ": 6759,
      "ĠëŃĲëĵł": 6760,
      "ê²łì§ĢìļĶ": 6761,
      "ëĵ¤ìĿ´ëĦ¤": 6762,
      "íĪ": 6763,
      "ëĤĺëĿ¼ê°Ģ": 6764,
      "íĨ±": 6765,
      "Ġê¸°ìĤ¬ìĹĲ": 6766,
      "ĠíĻįì¤Ģíĳľê°Ģ": 6767,
      "ĠìĹħë¬´": 6768,
      "Ġ16": 6769,
      "ìŀĪìľ¼ëĭĪ": 6770,
      "ĠìĤ¬ëĵľ": 6771,
      "Ġê°Ģì¡±ìĿ´": 6772,
      "Ġê³µìŀ¥": 6773,
      "Ġëŀ": 6774,
      "ĠìķĦëĭĪì§Ģë§Į": 6775,
      "ĠëĳĶ": 6776,
      "íİ¸ë": 6777,
      "ĠìĿ¸ìŀ¬": 6778,
      "ĠìĿ´ëŀĢ": 6779,
      "ĠìĿ´ëŁ°ê±¸": 6780,
      "ĠëĦĺê²Į": 6781,
      "ĠëĵľëĿ¼ë§Ī": 6782,
      "Ġì£ĦìĿ¸": 6783,
      "íķľê±°ëĭ¤": 6784,
      "ì£¼ë¡ľ": 6785,
      "Ġì°įìĿĢ": 6786,
      "ì¹¸": 6787,
      "Ġì²Ńêµ¬": 6788,
      "ĠìłľíĴĪ": 6789,
      "ìĿ¸ì²Ļ": 6790,
      "ĠìłĢì§Ģë¥¸": 6791,
      "íķĺì§Ģë§Ĳ": 6792,
      "íĥĦíķµ": 6793,
      "íĺĲìĿĺ": 6794,
      "Ġì£½ìĸ´ëĿ¼": 6795,
      "ĠìĤ¬ë§ĿìŀĲ": 6796,
      "Ġëª¸íĨµ": 6797,
      "£¡": 6798,
      "ĠíĻįìĸ´": 6799,
      "ĠëĤ¨ìŀĲëĵ¤": 6800,
      "Ġë§Ŀíķł": 6801,
      "Ġì§§": 6802,
      "ĠìĤ¬ëŀĮëĵ¤ëıĦ": 6803,
      "Ġì§ĳê°ĴìĿ´": 6804,
      "Ġíŀĺëĵ¤ëĭ¤": 6805,
      "ë³´ë³µ": 6806,
      "ĠìĬµ": 6807,
      "ĠíĨµìĿ¼": 6808,
      "ìĭŃìĭľìļĶ": 6809,
      "Ġìļ°íķľíıĲëł´": 6810,
      "íİĺë¯¸": 6811,
      "Ġ#": 6812,
      "ĠìĹ¬ë¡łì¡°ìŀĳ": 6813,
      "Ġë¬´ë¦": 6814,
      "ĠìĦłìłĦ": 6815,
      "ĠìŀĲìľłíķľêµŃ": 6816,
      "ĠìĥĪë²½": 6817,
      "Ġì°¾ìķĦë": 6818,
      "ìĳĪ": 6819,
      "ĠëĮĢë¹Ħ": 6820,
      "ìĿ¸ìĥĿ": 6821,
      "íĿĺ": 6822,
      "êµŃë¯¼ëĵ¤": 6823,
      "Ġìĭłì²ľ": 6824,
      "ëĵľíı°": 6825,
      "íķĺê²łëĭ¤ê³ł": 6826,
      "ĠíĬ¹ìłķ": 6827,
      "Ġëħ¹ì·¨": 6828,
      "Ġì§ĢëĬĶ": 6829,
      "ĠëĮĢíķľë¯¼êµŃìĹĲìĦľ": 6830,
      "ĠìĹ¬íĥľ": 6831,
      "¬ëĤĺ": 6832,
      "Ġìµľê·¼": 6833,
      "Ġì¤ĳêµŃìĹĲìĦľ": 6834,
      "ĠìĪĺìĪł": 6835,
      "ĠëĭĪëĬĶ": 6836,
      "íĬĢ": 6837,
      "Ġx": 6838,
      "Ġìĸ¸ë¡łìĹĲ": 6839,
      "ì¢Ģíķ´ëĿ¼": 6840,
      "Ġê³¼ë": 6841,
      "Ġë³´ëĭĪê¹Į": 6842,
      "íķľê±¸": 6843,
      "Ġìľłê³µìŀĲ": 6844,
      "ëĤĺìĻĢ": 6845,
      "ëĺĺ": 6846,
      "âĢ¦.": 6847,
      "Ġìĭ«ìľ¼ë©´": 6848,
      "Ġë¬¸ìŀ¬ìķĻìĿĢ": 6849,
      "ĠìĥģìĭĿìłģìľ¼ë¡ľ": 6850,
      "ìĹī": 6851,
      "Ġì§ľê³ł": 6852,
      "86": 6853,
      "ĠìĿ¸ëį°": 6854,
      "ì§ĢìķĬê³ł": 6855,
      "ìĹĪëĭ¤ëĬĶ": 6856,
      "Ġê¹Ģì¹ĺ": 6857,
      "ëĮĢê¹¨": 6858,
      "ĠìŀĲìĺģìĹħìŀĲëĵ¤": 6859,
      "ĠìĤ¬ìĭ¤ìĿ´": 6860,
      "Ġëªĩëªħ": 6861,
      "Ġë¹Ħíĺ¸": 6862,
      "¡Ŀ": 6863,
      "ëĮĢëıĦ": 6864,
      "ðŁĳı": 6865,
      "Ġê¹¨ëģĹíķľ": 6866,
      "Ġë°Ķìģĺ": 6867,
      "ì¤ĺìķ¼ì§Ģ": 6868,
      "ìĺĢëĦ¤": 6869,
      "ëĵľë§Į": 6870,
      "Ġìĭ¸ìĿ´": 6871,
      "Ġê·¸ëłĩëĭ¤": 6872,
      "ĠìķĪë³´ë": 6873,
      "Ġê±´ì§Ģ": 6874,
      "ìĿ´ëĿ¼ë©°": 6875,
      "ì¦Į": 6876,
      "ê²łêµ¬ëĤĺ": 6877,
      "ëĦĪë¬´": 6878,
      "ĠìĿ¼ê´Ģ": 6879,
      "ê¿Ģ": 6880,
      "Ġìĺ¤ì§Ģ": 6881,
      "ì²ľë§ĮìĽĲ": 6882,
      "ĠìłķìĿĺë¡ľìļ´": 6883,
      "ìĿ¸ê±´": 6884,
      "ë²Ĺ": 6885,
      "Ġë¯¸êµŃìĿĺ": 6886,
      "ìĪľê°Ħ": 6887,
      "ĠëģĮìĸ´ëĤ´ë": 6888,
      "Ġ.....": 6889,
      "ĠìķĬê²Į": 6890,
      "ĠìĿ´ìĬ¹": 6891,
      "Ġìŀĳìŀĳ": 6892,
      "ê²°ê³¼": 6893,
      "ĠìĿ¼ëĭ¹": 6894,
      "Ġìĭ«ìĿĢ": 6895,
      "íķĺìŀĲê³ł": 6896,
      "ĠìŀĺìĤ´": 6897,
      "Ġìĭľì¼°": 6898,
      ".........": 6899,
      "ëĭĪëĵ¤": 6900,
      "le": 6901,
      "ê°ĴìĿĦ": 6902,
      "Ġëª©íĳľ": 6903,
      "Ġê·¸ëŁ¬ê³ł": 6904,
      "80": 6905,
      "ìŀ¡ìĿ´": 6906,
      "Ġì½ľ": 6907,
      "ë¹Ļ": 6908,
      "Ġì¤ĳëĭ¨": 6909,
      "Ġì¢ħìłĦ": 6910,
      "ĠìĿ´ë£¨ìĸ´": 6911,
      "ãħĲ": 6912,
      "Ġì¡°ê¸Īë§Į": 6913,
      "Ġê¸°ìŀĲëĭĺ": 6914,
      "ĠëĪĦêµ°ê°Ģ": 6915,
      "íĢ´ë²Į": 6916,
      "ĠìĨĲíĺľ": 6917,
      "Ġëª¨ëįĶëĤĺ": 6918,
      "Ġëª¨ë¥´ëĥĲ": 6919,
      "ĠìĥĿê²": 6920,
      "Ġìĭ¤íĹĺ": 6921,
      "ĠìĹ´ë©´": 6922,
      "Ġë§ĪìĿ¸ëĵľ": 6923,
      "Ġëĭ¤ë§Į": 6924,
      "ĠëªĩìĭŃ": 6925,
      "ĠìĭľêµŃìĹĲ": 6926,
      "Ġê°ĢëĬ¥íķľ": 6927,
      "Ġê°ľìĨĮ": 6928,
      "ĠíķłìĿ¼": 6929,
      "Ġíķĺëł¤": 6930,
      "ì°Ĳ": 6931,
      "Ġë¹¤": 6932,
      "īĺ": 6933,
      "Ġëĵ±ìĭł": 6934,
      "Ġë°ĺë°ķ": 6935,
      "Ġê°Ĳë¹µ": 6936,
      "ħķ": 6937,
      "ĠìĦ¸ê¸ĪìĿĢ": 6938,
      "Ġìļķíķĺê³ł": 6939,
      "Ġë§Ĳìŀ¥ëĤľ": 6940,
      "íķĺê²łëĥĲ": 6941,
      "ìĤ¬ëĥĲ": 6942,
      "ê¹Įì§ĢëĬĶ": 6943,
      "ĠíĬ¹ì§ķ": 6944,
      "ë¬¼ìĹĲ": 6945,
      "ĠìĿ¼ë³¸ìĿĦ": 6946,
      "ĠëĤŃë¹Ħ": 6947,
      "Â·": 6948,
      "ë¦¬ì¦ĺ": 6949,
      "ë¬¼ìĿ´": 6950,
      "Ġëªĩë²Ī": 6951,
      "ë¯¼ìĿ´": 6952,
      "ĠíĥĪíĥĪ": 6953,
      "ê°ĳëĭĪëĭ¤": 6954,
      "ê²©ìĿĦ": 6955,
      "ĺ¥": 6956,
      "Ġê·¸ìłķëıĦ": 6957,
      "ìĻ¸êµĲ": 6958,
      "íĨłë¡ł": 6959,
      "Ġë¶Īë§¤ìļ´ëıĻ": 6960,
      "ĠìŀĲëıĻì°¨": 6961,
      "Ġë°©íĥĦ": 6962,
      "Ġì¤ĳêµŃëª½": 6963,
      "Ġêµ¬ìĹŃ": 6964,
      "Ġë§ŀìĿĢ": 6965,
      "Ġìĭ¶ìľ¼ë©´": 6966,
      "Ġë§Īëķħ": 6967,
      "Ġê²°ê³¼ê°Ģ": 6968,
      "ĠëģĿëĤł": 6969,
      "Ġë§ĮìĦ¸": 6970,
      "ì¹ĺëĦ¤": 6971,
      "ëĭĺìĿĦ": 6972,
      "Ġê°ľìĿ¸ìĿĺ": 6973,
      "ëĬĶê±¸": 6974,
      "ĠëģĿëĤ¬": 6975,
      "ìłģìĿ´ëĭ¤": 6976,
      "ëĬĶê²ĥëıĦ": 6977,
      "ĠíĽĪëł¨": 6978,
      "ĠëįĶëŁ½ê²Į": 6979,
      "ìķī": 6980,
      "ĠìĹ°ëĿ½": 6981,
      "ìĪĺìŀĪëĬĶ": 6982,
      "Ġë¬´ìĦľìĽĮ": 6983,
      "Ġë³´ìŀ¥": 6984,
      "ìĭłë¬¸": 6985,
      "Ġê²°êµŃìĿĢ": 6986,
      "ìĭ¸ë": 6987,
      "êµŃìľ¼ë¡ľ": 6988,
      "ĠëĤ¨ìĿ´": 6989,
      "Ġj": 6990,
      "ê²¨ëĿ¼": 6991,
      "ìĿ¼ë§Į": 6992,
      "Ġë¶ĻìĿ´": 6993,
      "Ġê°ĻëĥĲ": 6994,
      "Ġíķ©ë²ķ": 6995,
      "ìĿ¸ë§Į": 6996,
      "ìĸ¼ë": 6997,
      "ĠìķħìĿĺ": 6998,
      "êµŃíļĮ": 6999,
      "ìĿ¸ê°Ħëĵ¤": 7000,
      "Ġìŀ¬ëĤľì§ĢìĽĲê¸Ī": 7001,
      "ĠëĮĢíĨµëł¹ìľ¼ë¡ľ": 7002,
      "Ġë¶ĢëĶĶ": 7003,
      "ĠíĻĺìŀĲ": 7004,
      "ìŀħêµŃ": 7005,
      "ĠìŀĲíĻĶìŀĲ": 7006,
      "Ġãħĭãħĭãħĭãħĭãħĭãħĭãħĭãħĭãħĭãħĭ": 7007,
      "ĠìļĶì¦ĺìĿĢ": 7008,
      "Ġê°Īëĵ±": 7009,
      "ĠìĸĺëĬĶ": 7010,
      "ë§ĪìŀĲ": 7011,
      "ê°ĲìĹ¼": 7012,
      "ĠìĿ´ìľłë¡ľ": 7013,
      "Ġë°°ìļ´": 7014,
      "Ġë¬¸ìŀ¬ìĿ¸ìĿĦ": 7015,
      "ìİĦ": 7016,
      "Ġì¢ĭìķĺ": 7017,
      "Ġì§Ģê¸ĭì§Ģê¸ĭ": 7018,
      "¯¸ë": 7019,
      "Ġê°Ĳëĭ¹": 7020,
      "ĠëĨĪìĿĢ": 7021,
      "Ġë°ĽìķĦìĦľ": 7022,
      "ì³Ĳë¨¹ê³ł": 7023,
      "ĠìłĢìłķëıĦ": 7024,
      "ìłķê¶ĮìĿĺ": 7025,
      "ĠëŃĲíķĺëŁ¬": 7026,
      "Ġë³´ëĤ¸": 7027,
      "ìĥģëĤ©": 7028,
      "na": 7029,
      "ĠìĸĳëıĦ": 7030,
      "Ġì§ĳêµ¬ìĦĿ": 7031,
      "ĠêµŃê°ĢìĹĲìĦľ": 7032,
      "ê²łëĬĶê°Ģ": 7033,
      "¥´ìĭł": 7034,
      "ìĤŃ": 7035,
      "Ġë°ķíĥĪ": 7036,
      "Ġê°ľìĦł": 7037,
      "ĠìĹŃê²¨ìļ´": 7038,
      "ì§Ģê¸°": 7039,
      "ĠìŀĲìĭĿëĵ¤": 7040,
      "ĮĢíĳľ": 7041,
      "Ġì²´ë": 7042,
      "ëŀĺê¸°": 7043,
      "ĠìĿ¸ê³¼": 7044,
      "Ġì§Ģê¸ĪìĿ´": 7045,
      "Ġì²łíļĮ": 7046,
      "Ġê±¸ë¦¬ë©´": 7047,
      "Ġì¡°êµŃìĿĦ": 7048,
      "ë£©": 7049,
      "Ġìłľì£¼ëıĦ": 7050,
      "ĠìĿ¸ê°ĦìĿĺ": 7051,
      "ë¦ĩ": 7052,
      "ìĦ±ìĹĲ": 7053,
      "ë¹Ħê°Ģ": 7054,
      "--------": 7055,
      "Ġë¨¸ë¦¬ìĹĲ": 7056,
      "Ġë°ĿíĺĢëĿ¼": 7057,
      "ĠìķĮìķĺëĭ¤": 7058,
      "ĠëĤłìĿ´": 7059,
      "Ġë³´ìĪĺê°Ģ": 7060,
      "Ġê¼¬ë¦¬": 7061,
      "ĠìĽĥê³ł": 7062,
      "ĠìĭľíĤ¤ëĬĶ": 7063,
      "ĠìĽĥê¸°ê³ł": 7064,
      "Ġê°Ŀ": 7065,
      "Ġë¨¹ìĿĢ": 7066,
      "ĠìĹĨìĸ´ìł¸ìķ¼": 7067,
      "ĠëĤĺìĦľìĦľ": 7068,
      "ĠìĿ´ëģĮ": 7069,
      "ëĲĺìĸ´ìķ¼": 7070,
      "Ġãħĭãħĭãħĭãħĭãħĭãħĭãħĭãħĭãħĭãħĭãħĭãħĭãħĭãħĭãħĭãħĭãħĭãħĭãħĭãħĭ": 7071,
      "12": 7072,
      "Ġì½Ķë¯¸ëĶĶ": 7073,
      "ë²Ħë": 7074,
      "Ġê²½ìĦł": 7075,
      "Ġíľ´ëĮĢ": 7076,
      "ĠìĹĨëĦ¤ìļĶ": 7077,
      "Ġê¸ĢìĿĦ": 7078,
      "ëĮĢìĹĲ": 7079,
      "íķłíħĲëį°": 7080,
      "Ġëĭ¤ë¦Ħ": 7081,
      "°ĸìĹĲ": 7082,
      "Ġëĸ¨ìĸ´ì§ĢëĬĶ": 7083,
      "ĠìĹĨìķłê³ł": 7084,
      "ì£¼ë¥¼": 7085,
      "Ġë¹ĦìĹ´": 7086,
      "ĠP": 7087,
      "ëĭ¹ê³¼": 7088,
      "Ġê·¸ëĵ¤ìĿ´": 7089,
      "ĠëģĮëł¤": 7090,
      "ĠìĿ´ìĤ¬": 7091,
      "íķ´ìķ¼ëĲĺ": 7092,
      "ëĭµëĭĪëĭ¤": 7093,
      "Ġë¬¼ëŁ¬ëĤĺ": 7094,
      "įĺê°Ģ": 7095,
      "íĺķìĿ´": 7096,
      "Ġíķľëį°": 7097,
      "ĠìĿ¸ì§Ģ": 7098,
      "ĠìĿ¸ë¬¼ìĿ´": 7099,
      "ëģĪ": 7100,
      "ĠìĿĺëıĦ": 7101,
      "ıĻ": 7102,
      "Ġì§ĢìĭĿ": 7103,
      "ì¤ĳìĹĲëıĦ": 7104,
      "Ġì°Ĳ": 7105,
      "Ġê°Ħë": 7106,
      "Ġíĺ¼ëŀĢ": 7107,
      "ĠìĤ¼ìĦ±ìĿ´": 7108,
      "ìŀ¬íĮĲ": 7109,
      "ĠìłĢê±¸": 7110,
      "ĠìĨĮë¦¬íķĺê³ł": 7111,
      "Ġ24": 7112,
      "ĠíĽłíĽł": 7113,
      "íķĺëĿ¼ëĬĶ": 7114,
      "en": 7115,
      "ìĤ¬ìĿ´": 7116,
      "Ġê°Ģìŀħ": 7117,
      "Ġëª¨ìĬµìĿ´": 7118,
      "Ġë¹Ħíĸī": 7119,
      "ìĿ¼ëĵ¯": 7120,
      "Ġíķľê²¨": 7121,
      "ĠëĤ´ë¦¬": 7122,
      "ìĺ¬ëł¤": 7123,
      "Ġë°ķê·¼íĺľê°Ģ": 7124,
      "ë§Īëĥ¥": 7125,
      "Ġì¡°ìŀĳì§Ī": 7126,
      "ĠëıĦìŀħ": 7127,
      "Ġê³Ħë": 7128,
      "ìļ°ë¦¬ë": 7129,
      "ĠëĮĢë³ĢìĿ¸": 7130,
      "ķĮê¹Įì§Ģ": 7131,
      "ĠëĨĢëŀį": 7132,
      "Ġë§ŀëĦ¤": 7133,
      "ë¡Ńê²Į": 7134,
      "ĠìĤ´ê²Į": 7135,
      "ì²¨": 7136,
      "íķľíħĮëıĦ": 7137,
      "Ġìĸµì§Ģ": 7138,
      "Ġë¬¶": 7139,
      "Ġë§Įë§Į": 7140,
      "ë§ĮìĿĦ": 7141,
      "ĠìŀĲìľłë¥¼": 7142,
      "Ġê¸°ìĸ´": 7143,
      "Ġë¬´ê¸°ì§ķìĹŃ": 7144,
      "Ġë°ĺëıĦì²´": 7145,
      "ĠìĹ°ìŀ¥": 7146,
      "ĠìŀĳëħĦ": 7147,
      "Ġë¸ĶëŀĻ": 7148,
      "Ġëħ¸ìĿ¸": 7149,
      "Ġê°ĲìĹ¼ë": 7150,
      "ĠìŀĲêµŃ": 7151,
      "ìłĦìŀĲ": 7152,
      "ëº": 7153,
      "Ġë²ķë¬´ìŀ¥ê´Ģ": 7154,
      "ĠìŀĪìĹĪëĬĶëį°": 7155,
      "ĠëĤĺë¨¸ì§Ģ": 7156,
      "Ġì¶ľê·¼": 7157,
      "ê±¸ë¦¬": 7158,
      "ë¯¸êµŃ": 7159,
      "ĠìľĦëĮĢ": 7160,
      "ĠìĿ´ë¥¼": 7161,
      "ĠíĺĦìłķë¶Ģ": 7162,
      "Ġëĵ¤ìĸ´ìĺ¤": 7163,
      "ëĵ¤ë¡ľ": 7164,
      "ĠëĤĺê°ĢìĦľ": 7165,
      "Ġëª»ë°Ľ": 7166,
      "Ġìŀ¬ë°Į": 7167,
      "êµ¬ëĬĶ": 7168,
      "ĠíĤ¤ìĽĮ": 7169,
      "ìĿĦê±°ëĭ¤": 7170,
      "Ġìĭ¬ê°ģíķľ": 7171,
      "Ġë³´ìĨĮ": 7172,
      "Ġëį¤": 7173,
      "Ġê·¼ë¡ľ": 7174,
      "ìĬ¤íĬ¸ëĿ¼": 7175,
      "Ġìĸ´ë¦°ìĿ´": 7176,
      "ì³ĲëıĦ": 7177,
      "ê¿Ķ": 7178,
      "Ġë²ķì¹ĺ": 7179,
      "ĠíķĺëĬĶê±°ì§Ģ": 7180,
      "Ġê·¸ëĮĢ": 7181,
      "Ġê·¸ìª½": 7182,
      "íĪ¬ìŀĲ": 7183,
      "Ġì»¤ëħķ": 7184,
      "ĠíķľìĤ¬ëŀĮ": 7185,
      "ĠëĭĪëĵ¤ëıĦ": 7186,
      "Ġê°Ģê´Ģ": 7187,
      "Ġë²¼ë": 7188,
      "Ġë¯¸êµŃìĹĲ": 7189,
      "íĸīìĿĦ": 7190,
      "ĠìĦ¸ì¢ħ": 7191,
      "Ġë§ĲìĿ¸ê°Ģ": 7192,
      "ĠìĿ¸ë¥ĺ": 7193,
      "Ġë¶Īë¥ľ": 7194,
      "ĠìķĮìķĦëĿ¼": 7195,
      "ðŁĴĻðŁĴĻ": 7196,
      "Ġê³łë¯¼ìłķ": 7197,
      "Ġë²ķìłģ": 7198,
      "ĠìĿµ": 7199,
      "Ġíķłê²ĥ": 7200,
      "Ġì£¼ì°¨": 7201,
      "ëĭ´ë": 7202,
      "Ġë°ķê·¸ëĦ¤": 7203,
      "íķ´ìķ¼íķ¨": 7204,
      "ë¦¬ìĹĲ": 7205,
      "Ġì¹´ì¹´ìĺ¤": 7206,
      "ĠìķĦë¦Ħ": 7207,
      "Ġë§Ĳíķĺê³ł": 7208,
      "ĠíĺĦëªħ": 7209,
      "âĹı": 7210,
      "Ġê·¸ëĶ´": 7211,
      "ëłµ": 7212,
      "ĠëĤĺë§Į": 7213,
      "ĠìľłíĪ¬ë": 7214,
      "ë¬ĺ": 7215,
      "Ġìŀħê³ł": 7216,
      "Ġê²ĥìĿ´ê³ł": 7217,
      "Ġìĵ°ë©´": 7218,
      "Ġë§Ĳë¡ľë§Į": 7219,
      "ĠìĺĨìĹĲ": 7220,
      "ëĵ¤ìĿ´ì§Ģ": 7221,
      "Ġì°¨ëł¤ëĿ¼": 7222,
      "Ġ17": 7223,
      "ê±°ëĭĪ": 7224,
      "íķĻìĿĺ": 7225,
      "ĠìķĬìĿĮ": 7226,
      "ë¦¬ìķĦ": 7227,
      "ĠíĿ¡": 7228,
      "ëĬĶê±°ì£ł": 7229,
      "ìĭŃìĭľìĺ¤": 7230,
      "Ġìľ¤ìĦĿìĹ´ìĿĦ": 7231,
      "êµŃë¯¼ìĿĺ": 7232,
      "ìľĪ": 7233,
      "Ġê¸°ë¦Ħ": 7234,
      "Ġêµ´": 7235,
      "ĠìķĦë¬´ë§Ĳ": 7236,
      "Ġëĭ¹ìĤ¬": 7237,
      "Ġìķŀìŀ¥": 7238,
      "Ġìĸ¸ìłľëĤĺ": 7239,
      "ì§ĦìĿ´": 7240,
      "Ġê¼´ë³´": 7241,
      "ìĿ½": 7242,
      "Ġíķ´ë´Ĳ": 7243,
      "Ġíİ¸ê°Ģë¥´": 7244,
      "ĠìĤ´ë©´ìĦľ": 7245,
      "ìķĦì§ģ": 7246,
      "Ġë¨¼ì§Ģ": 7247,
      "ĠìĨĮíĨµ": 7248,
      "ĠìĺĪìłĦìĹĲ": 7249,
      "ĠìŃī": 7250,
      "Ġìĭ¬ìĥģ": 7251,
      "Ġì§Ģëł¹": 7252,
      "Ġì§Ħë³´ë": 7253,
      "Ġê³µìłķíķľ": 7254,
      "Ġì§ĢëĤĺê°ĢëĬĶ": 7255,
      "Ġìŀħë§Ľ": 7256,
      "ĠìĿ¸ê¸°": 7257,
      "ĠãħĪãĦ´": 7258,
      "Ġê°Ģíķ´ìŀĲ": 7259,
      "ĠìĹĦë²Į": 7260,
      "ì§Ģë§ĪìĦ¸ìļĶ": 7261,
      "Ġìĸ´ëĶľ": 7262,
      "Ġíķľíĳľ": 7263,
      "ëĲĲëĭ¤": 7264,
      "Ġíĭ°ë¹Ħ": 7265,
      "ë¥ľ": 7266,
      "ìħ¨ìĸ´": 7267,
      "ĠìĤ¬ìľł": 7268,
      "ëł¸ëĭ¤": 7269,
      "ë¬´ëĬ¥": 7270,
      "Ġì¤ĳêµŃìĤ°": 7271,
      "Ġíĳľë¥¼": 7272,
      "ĠíĸīëıĻìĿĦ": 7273,
      "ìļ´ìĺģ": 7274,
      "ĠêµŃìĿµ": 7275,
      "Ġì°¨ëĭ¨": 7276,
      "ìķ¼ëĲł": 7277,
      "Ġê¸°ìĹħìĿ´": 7278,
      "ì¶¤": 7279,
      "ëĨ¨": 7280,
      "ì§ĢëĭĪ": 7281,
      "¹Ħë": 7282,
      "ĠìŀĲíĻĶìŀĲì°¬": 7283,
      "Ġê·¸ë¦¼": 7284,
      "ĠìĿ´ìŀĲ": 7285,
      "Ġìłķê¶ĮìĹĲ": 7286,
      "ĠëĦĺì³Ĳ": 7287,
      "ëıĪë": 7288,
      "Ġìķłê¸°": 7289,
      "ctv": 7290,
      "ëĵŃ": 7291,
      "Ġë¬´ëĩĮ": 7292,
      "ìłľíĴĪ": 7293,
      "ê²ĥì²ĺëŁ¼": 7294,
      "Ġê°Ĳìĭľ": 7295,
      "ĠìĤ¬ëŀĮëĵ¤ìĿĦ": 7296,
      "ĠìĿ´ëŁ°ìĭĿìľ¼ë¡ľ": 7297,
      "ĠíĨµíĻĶ": 7298,
      "Ġë©Ģì©¡íķľ": 7299,
      "Ġê¶": 7300,
      "Ġìĺ¬ë¦¬ë": 7301,
      "ĠìŀĶìĿ¸": 7302,
      "Ġê³łëĵ±": 7303,
      "Ġë°©íĸ¥": 7304,
      "Ġê³łíĸ¥": 7305,
      "ì½ľ": 7306,
      "Ġë³´ê³łëıĦ": 7307,
      "ĠìĥĿê°ģíķ´": 7308,
      "ĠìĸĺëĦ¤": 7309,
      "ĠìŀħêµŃê¸Īì§Ģ": 7310,
      "Ġëªħë¶Ħ": 7311,
      "Ġê¸°ìŀĲìķ¼": 7312,
      "ĠìŀĲìĭĿìĿ´": 7313,
      "Ġë§ĲìĿ´ìķ¼": 7314,
      "Ġê¹ĢìłķìĿĢìĿ´": 7315,
      "ĠëħĢ": 7316,
      "ĠëĨĢëŁ¬": 7317,
      "ìĿ¸ê³¼": 7318,
      "ë¥´ëĦ¤": 7319,
      "Ġì¡±ìĨį": 7320,
      "Ġì¸¡ê·¼": 7321,
      "ìĩł": 7322,
      "Ġë°ĺëĮĢíķĺëĬĶ": 7323,
      "Ġê°ľê°ĻìĿĢ": 7324,
      "ë°ĺëĮĢ": 7325,
      "ëĵ¤ìĿ´ëŀĳ": 7326,
      "ìłķìĹĲ": 7327,
      "ĠìľłëĭĪ": 7328,
      "ìĬ¤ëĬĶ": 7329,
      "Ġìľ¤ëıĦ": 7330,
      "íĳ¸": 7331,
      "Ġêµ¬ë¦°": 7332,
      "ìĤ¬íĩ´": 7333,
      "ìĦľë¥¼": 7334,
      "ìĭľì¼ľìĦľ": 7335,
      "Ġìºł": 7336,
      "ĠìĺĪë°©": 7337,
      "ĠëĪĦêµ¬ë¥¼": 7338,
      "Ġì°¸ìĦĿ": 7339,
      "Ġì¤ĺëĿ¼": 7340,
      "Ġë¯¼ìĭ¬": 7341,
      "Ġë§Ŀíķľëĭ¤": 7342,
      "Ġì¦Ŀê°Ģ": 7343,
      "Ġê°ķëł¥íķľ": 7344,
      "Ġê¹ĢìĿ¼ìĦ±": 7345,
      "ĠãħĲ": 7346,
      "ĠãĦ²": 7347,
      "ĠðŁĺ": 7348,
      "Ġê±Ķ": 7349,
      "Ġë¦¬ëįĶ": 7350,
      "Ġë¹ĦìĬ·íķľ": 7351,
      "ìĬ¥": 7352,
      "ìĸĺê¸°": 7353,
      "Ġì£½ìĿ¸": 7354,
      "ìĺĢìĿĮ": 7355,
      "ĠìķĪíķĺ": 7356,
      "§ī": 7357,
      "Ġë§Ŀíķĺê²Į": 7358,
      "ê³µíķŃ": 7359,
      "ëĵ£ê³ł": 7360,
      "Ġìł¸": 7361,
      "ëĵľëł¤": 7362,
      "Ġë¬´ê³ł": 7363,
      "íĸĪëĭ¤ë©´": 7364,
      "Ġëį©": 7365,
      "Ġë§¤ì¶ľ": 7366,
      "ĠìĤ¥": 7367,
      "ĠìĿ´ìŀ¬ëªħìĿĦ": 7368,
      "Ġì¤ĳì¦Ŀ": 7369,
      "Ġëĭ¹íķľ": 7370,
      "Ġì¡Į": 7371,
      "Ġìļ¸ìĤ°": 7372,
      "Ġê·¸ëĵ¤ìĿĺ": 7373,
      "ĠëĤĺê°Ħ": 7374,
      "į¤": 7375,
      "ĠìĿĺë¬¸": 7376,
      "Ġê±´íĿ¬": 7377,
      "ĠìĿ´ìľłë¥¼": 7378,
      "Ġìĸ´ëĬĲìłķëıĦ": 7379,
      "Ġì´Ŀë¦¬": 7380,
      "Ġê¸°ìłĢ": 7381,
      "Ġëĭ¹ìĹ°íķľê±°": 7382,
      "Ġë¯¼ì£¼ëĭ¹ìĹĲ": 7383,
      "ĠìĤ¼ë": 7384,
      "ìµľê³ł": 7385,
      "ìĭľíĤ¬": 7386,
      "Ġìľ¤ìĶ¨": 7387,
      "Ġìĭ¼": 7388,
      "Ġìŀ¡ìķĦë": 7389,
      "ì§ĢëıĦìķĬ": 7390,
      "ì§ĪìĿĢ": 7391,
      "Ġíģ¬ë": 7392,
      "ĠKë°©ìĹŃ": 7393,
      "ĠëĭĪëĦ¤ê°Ģ": 7394,
      "Ġê²ĥì²ĺëŁ¼": 7395,
      "ĠìĤ¶ìĿĦ": 7396,
      "Ġíķ¸ëĵľíı°": 7397,
      "Ġë°°ëł¤": 7398,
      "ëĤĺëĭĪ": 7399,
      "íĶĶ": 7400,
      "ì£¼ëĭĪ": 7401,
      "íķĺê²łëĭ¤ëĬĶ": 7402,
      "Ġê³µëıĻ": 7403,
      "Ġëª¨ìĬµìĿĦ": 7404,
      "ĠíĻķì§ĦìŀĲê°Ģ": 7405,
      "Ġê²½ì°°ìĿĢ": 7406,
      "ìļ©ìľ¼ë¡ľ": 7407,
      "Ĥ´ëĿ¼": 7408,
      "ìĿ¼ë¶Ģ": 7409,
      "ì¡°ì§ģ": 7410,
      "Ġë¶ĦëªħíŀĪ": 7411,
      "ë°ĶëĢĮ": 7412,
      "ĠêµŃìĤ°": 7413,
      "ĠëĤ¼": 7414,
      "Ġëª©ìĨĮë¦¬": 7415,
      "Ġë¬´ëĬ¥ëł¥": 7416,
      "Ġë§ĲëĿ¼ê³ł": 7417,
      "ĠìĽĥê¸´ëĭ¤": 7418,
      "Ġíķľì°¸": 7419,
      "Ġê·¸ëĨĪìĿĺ": 7420,
      "Ġìłķìľł": 7421,
      "ìĸ´ëĤ´": 7422,
      "ìĻ¸ë": 7423,
      "ĠìĽĥê¸°ëĦ¤": 7424,
      "ìľ¼ìħ¨": 7425,
      "ĠìĿ´ìĿµìĿĦ": 7426,
      "ĠìķĦê°Ģ": 7427,
      "ìĤ¬ë©´": 7428,
      "ĠìĿ¸ìĦ±ìĿ´": 7429,
      "Ġë§ŀì¶Ķ": 7430,
      "Ġì§ķê³Ħ": 7431,
      "Ġë¬´ë£Į": 7432,
      "Ġëª»ìĤ´": 7433,
      "ìĿ¸ê±¸": 7434,
      "ìĿ´ëĿ¼ëĬĶê²Į": 7435,
      "Ġê¸°ìŀĲëĵ¤": 7436,
      "Ġn": 7437,
      "ĠìķĦìī½": 7438,
      "ĠêµŃìłķëĨįëĭ¨": 7439,
      "ĠìĿ´íķ´ì°¬": 7440,
      "Ġê·¸ëŁ¬ë©´ìĦľ": 7441,
      "Ġë§Ĳíķł": 7442,
      "Ġìķłë¯¸": 7443,
      "ĠíĶ¼ìĿĺ": 7444,
      "ĠíĻįì½©": 7445,
      "íķĺëĬĶê±°ëĭ¤": 7446,
      "ëķĮê¹Įì§Ģ": 7447,
      "Ġë°Ķë¥¸": 7448,
      "ëªħìĿĢ": 7449,
      "ë°ľìĿ´": 7450,
      "ëĵ¤ìĹ¬": 7451,
      "Ġëªħë°±": 7452,
      "ĠìĹĨêµ¬ëĤĺ": 7453,
      "ìĿĺíĺ¹": 7454,
      "Ġìĸ´ëĸ¨": 7455,
      "ĠìĽĶë¶ģ": 7456,
      "Ġë¬´ìĹĩìĿĦ": 7457,
      "ë²ĮìĿ´": 7458,
      "Ġê²Įëĭ¤ê°Ģ": 7459,
      "ĠëŃīê°Ģ": 7460,
      "Ġê°ĪëĿ¼ì¹ĺê¸°": 7461,
      "ľ¯": 7462,
      ",,,,,": 7463,
      "ê¼Ń": 7464,
      "Ġì°ĮëĿ¼ìĭľ": 7465,
      "Ġë¬´ëĭ¹": 7466,
      "ĠíĹĪêµ¬": 7467,
      "Ġê±¸ê³ł": 7468,
      "ĠíĽĦì§ĦêµŃ": 7469,
      "Ġë¯¸ê°ľíķľ": 7470,
      "Ġì¤ĺìķ¼": 7471,
      "Ġë¹Ħê²ģ": 7472,
      "ê°Ģë©´ìĦľ": 7473,
      "íĺ¸ë¥¼": 7474,
      "ìĿ´êµ¬ë§Į": 7475,
      "ĠìķĦë¬´ëĤĺ": 7476,
      "ĠìłĦëĿ¼": 7477,
      "ĠìłĦêµĲì¡°": 7478,
      "ìłģìĿĢ": 7479,
      "ĠìĹŃê²¹": 7480,
      "Ġìĭľê¸°": 7481,
      "Ġìłķì¹ĺíĮĲ": 7482,
      "ìĭłìĿĦ": 7483,
      "ê±°ì§ĵ": 7484,
      "ìĤ°ìĹħ": 7485,
      "ìĸ´ë¡ľ": 7486,
      "ĠìľĦëĵľ": 7487,
      "Ġì§ĳíķ©": 7488,
      "ìĭ¬ìľ¼ë¡ľ": 7489,
      "Ġíĺĳì¡°": 7490,
      "ìĺģìĥģ": 7491,
      "Ġìĸ´ìĦľ": 7492,
      "ĠìłĬ": 7493,
      "ê³µê°Ĳ": 7494,
      "ĠìĤ¬ë¡Ģ": 7495,
      "ĠëĿ¼ëıĦ": 7496,
      "ĠìķĦëĭĮê±°": 7497,
      "ĠëįĶë¶Īëĭ¹": 7498,
      "Ġë³¸ìĿ¸ìĿĺ": 7499,
      "Ġë¶ģíķľìľ¼ë¡ľ": 7500,
      "ëĮĵ": 7501,
      "íŀĮëĭ¤": 7502,
      "¡¤": 7503,
      "Ġê¹Ĭ": 7504,
      "íķµê´Ģ": 7505,
      "Ġë°©íķ´": 7506,
      "Ġì°¨ëŁī": 7507,
      "ĠëĤ«ì§Ģ": 7508,
      "¦°ëĭ¤": 7509,
      "ĠìŀĲë¦¬ìĹĲ": 7510,
      "Ġì£½ê³ł": 7511,
      "ĠìŀĺëĤľ": 7512,
      "ëĳ¬ëĿ¼": 7513,
      "Ġëª¨ìĹ¬": 7514,
      "Ġë¶ĢíĻľ": 7515,
      "Ġë°ľê´ĳ": 7516,
      "Ġê²½ìłľë¥¼": 7517,
      "Ġìłķì¹ĺëĬĶ": 7518,
      "ìĺģê¸¸": 7519,
      "Ġê·¸ëŁ¬ëĭ¤": 7520,
      "ãĨįãĨį": 7521,
      "ĠìŀĪìĹĪëĭ¤": 7522,
      "ëİ": 7523,
      "ĠëĮĢêµŃë¯¼": 7524,
      "ĠìĿĺë¯¸ê°Ģ": 7525,
      "ĠíĸīìĤ¬": 7526,
      "ĠìĹ¬ê²½": 7527,
      "ëĬĶê±°ëĦ¤": 7528,
      "ìĿ¸ìĹĲ": 7529,
      "íĸīëıĻ": 7530,
      "ĠíĮĮë©´": 7531,
      "ĠëĵľëĶĶìĸ´": 7532,
      "Ġëª°ê³ł": 7533,
      "Ġë°ĺìĿĳ": 7534,
      "ìķĺëĥĲ": 7535,
      "ãĥ": 7536,
      "Ġv": 7537,
      "ìķĪëĤĺ": 7538,
      "ĠìĹĨìĹĪëĭ¤": 7539,
      "Ġê²ĢíĨł": 7540,
      "ĠìĨĲìłĪ": 7541,
      "Ġíİ¸íķĺê²Į": 7542,
      "Ġë¬´ìĦľìĽĮìĦľ": 7543,
      "íķ´ìķ¼íķł": 7544,
      "ë±": 7545,
      "ëĤ´ëł¤": 7546,
      "Ġìļ°ë¦¬ëĤĺëĿ¼ëıĦ": 7547,
      "ĠëıĻìĦ±ìķł": 7548,
      "ìĿĢíĸī": 7549,
      "ĠëĦĪíĿ¬ëĵ¤ìĿ´": 7550,
      "ĠëĮĢëĭµ": 7551,
      "¬ëŀĢ": 7552,
      "ëĳ¥ìĿ´": 7553,
      "ëĭ¹ìĭľ": 7554,
      "Ġë¯¼ì£¼ëĭ¹ê³¼": 7555,
      "ĠìĨĮë¦¬ê°Ģ": 7556,
      "Ġë°Ľìľ¼ë©´": 7557,
      "Ġê±°íĴĪ": 7558,
      "íĸĪìĸ´ìļĶ": 7559,
      "ìĿ¸ê¶Į": 7560,
      "ĠíļĮë³µ": 7561,
      "ĠìĭľëģĦëŁ½": 7562,
      "Ġì¡°ê±´": 7563,
      "ŃĲ": 7564,
      "ìĹĨìĸ´ìĦľ": 7565,
      "ìĦ¼íĦ°": 7566,
      "ĠìķĪíķł": 7567,
      "ìĿĺëıĦ": 7568,
      "Ġì¢Įë¹¨ëĵ¤": 7569,
      "Ġë°©ì¹ĺ": 7570,
      "ĠëĮĢê¹¨ëĵ¤": 7571,
      "ìĨĮëħĦ": 7572,
      "ë¶Ģëĵ¤": 7573,
      "Ġíķ´ìĦĿ": 7574,
      "Ġë¬¼ëł¤": 7575,
      "íķ´ì¤Ģ": 7576,
      "Ġìłķì§ģ": 7577,
      "ĠìĿĺíķ´": 7578,
      "ë¦¬ëĭĪ": 7579,
      "Ġë§ĲìĹĲ": 7580,
      "Ġìĸ´ì¨": 7581,
      "ĠìĥģìĨį": 7582,
      "Ġì£¼ë²Ķ": 7583,
      "Ġìĥ¤": 7584,
      "Ġ//": 7585,
      "Ġë°ĿíŀĪ": 7586,
      "ê±¸ëłĪ": 7587,
      "ĠìĹĨì§Ģë§Į": 7588,
      "Ġë³´ëĭ¤ëĬĶ": 7589,
      "ĠëĨĢìķĦëĤĺ": 7590,
      "ìĹŃìĭľ": 7591,
      "ìłģìĿĦ": 7592,
      "ĠíķľëĤĺëĿ¼": 7593,
      "íĢ´ë²ĮëłĪ": 7594,
      "ĠìĹ¬ìłĦíŀĪ": 7595,
      "ì§Ģëĵ¤": 7596,
      "ĠìĤ¬ìĦľ": 7597,
      "Ġì°¨ìĿ´": 7598,
      "ĠíķĺëĬĺìĿĦ": 7599,
      "Ġë°Ķëĭ¤": 7600,
      "ĠíķĺìĪĺ": 7601,
      "Ġê¼¼ìĪĺ": 7602,
      "Ġ99": 7603,
      "ĠìĦ±ìĥģëĤ©": 7604,
      "ĠìŀħìĿĦ": 7605,
      "Ġë°±ìĭłìĿĢ": 7606,
      "ĠëĤłëĽ°": 7607,
      "ìĽĲíķ©ëĭĪëĭ¤": 7608,
      "ĠëıĦìłĢíŀĪ": 7609,
      "ĠìĿ´ìĽĥ": 7610,
      "ĠìĿ´ìļ©íķ´": 7611,
      "ĠìĤ´ë©´": 7612,
      "ìĺĢëįĺ": 7613,
      "Ġë°ĳìĹĲ": 7614,
      "ĠìĿ¸ê°ĦìĿĦ": 7615,
      "ĠìķĬìķĺëĭ¤": 7616,
      "Ġìłķì¹ĺê¶Į": 7617,
      "ìĭłê³ł": 7618,
      "ìį¨ëĿ¼": 7619,
      "ĠìĹ¬ìķ¼": 7620,
      "Ġl": 7621,
      "ĠìĤŃìłľ": 7622,
      "Ġê¹į": 7623,
      "ëĥĦ": 7624,
      "êº¼ìķ¼": 7625,
      "łģ": 7626,
      "ĠìļĶìĥĪ": 7627,
      "ëħģ": 7628,
      "ì¹´ëĵľ": 7629,
      "ìĻ¸ë¡ľ": 7630,
      "Ġë§ĲìķĦëĿ¼": 7631,
      "ãħłãħłãħłãħł": 7632,
      "Ġìķłë¥¼": 7633,
      "ĠìŀĪìĹĪëįĺ": 7634,
      "íķ´ë´¤": 7635,
      "ĠìĹĲìĦľ": 7636,
      "Ġë§īê³ł": 7637,
      "ìĻĶëĭ¤": 7638,
      "íķĺë£¨": 7639,
      "ìĪĻìĿ´": 7640,
      "Ġìļ°ë¦¬ëĤĺëĿ¼ìĹĲ": 7641,
      "ê°ĻëĦ¤": 7642,
      "ĠìķĪëĲľëĭ¤ê³ł": 7643,
      "ĠëıĪë§Į": 7644,
      "Ġìĸ´ë¨¸ëĭĪ": 7645,
      "Ġëĭ¹ìĭłëĵ¤ìĿ´": 7646,
      "Ġìĥģìĥģ": 7647,
      "Ġê³µíı¬": 7648,
      "ëĤ´ìĦľ": 7649,
      "Ġi": 7650,
      "Ġê²ł": 7651,
      "ë¶Ģìłķ": 7652,
      "ĠìĦłê´Ģ": 7653,
      "ì£¼ìĿĺìŀĲ": 7654,
      "ĠìĿ¸ìłķíķĺê³ł": 7655,
      "ë¦¬ëĬĶëį°": 7656,
      "íĶ¼ë": 7657,
      "Ġë²Ĺìĸ´ëĤĺ": 7658,
      "Ġìĸ´ë¥´ìĭł": 7659,
      "ĠëĮĢíĨµëł¹ëıĦ": 7660,
      "Ġíĩ´ì§ģ": 7661,
      "ĠìĿĮëª¨": 7662,
      "ì§Īë¡ľ": 7663,
      "íĤ¬ë": 7664,
      "Ġëĭ¬ëĿ¼ê³ł": 7665,
      "ìĭľë¡ľ": 7666,
      "Ġë¹½": 7667,
      "ĠíĶ¼íķ´ìŀĲê°Ģ": 7668,
      "ĠìĿĺìĭĿ": 7669,
      "Ġëª»íķĺë©´ìĦľ": 7670,
      "Ġë³¸ìĿ¸ìĿĢ": 7671,
      "Ġíķľëĭ¤ë©´": 7672,
      "ìĹ¬ë¡ł": 7673,
      "ĠìĿ´ê²ĥëĵ¤ìĿĢ": 7674,
      "ĠìłĢëŁ°ê²Į": 7675,
      "ĠìłĦíĮĮ": 7676,
      "Ġìĭłì²Ń": 7677,
      "ĠëıĻìĿ¼": 7678,
      "ì¥¬": 7679,
      "Ġë²ķìĽĲ": 7680,
      "ëĿ": 7681,
      "ë°ĶìĿ´": 7682,
      "ìĦ¸ìĹ°": 7683,
      "ìĿ´ëŀĢëĭ¤": 7684,
      "ĠìłľëıĦ": 7685,
      "íķĺëĬĶê²ĥëıĦ": 7686,
      "Ġìŀ¬ìĿ¸": 7687,
      "ë§ĪìĿĮ": 7688,
      "Ġìķŀìľ¼ë¡ľëıĦ": 7689,
      "Ġì¢ĭê²łëĦ¤ìļĶ": 7690,
      "Ġìĸ´ëĶĶìĹĲ": 7691,
      "ĠëĤ®ìĿĢ": 7692,
      "www": 7693,
      "íķĺëĬĲëĿ¼": 7694,
      "ìŀĸìĸ´": 7695,
      "ĠíĺķëŁī": 7696,
      "Ġì°¨ì§Ģ": 7697,
      "ìĿ¸ê°ĦìĿ´": 7698,
      "íĮ¬": 7699,
      "Ġëª°ëŀĺ": 7700,
      "ĠìĤ´ìĿ¸ìŀĲ": 7701,
      "íģĲ": 7702,
      "Ġë°¥ë¨¹": 7703,
      "Ġê·¸ìĹĲ": 7704,
      "Ġëĺĺë§ĪëĭĪ": 7705,
      "ĠëĤ´ìĿ¼": 7706,
      "ëıĪìĿ´": 7707,
      "ì¦ī": 7708,
      "ìĿ´ì§ĢìļĶ": 7709,
      "ĠìĻľìĿ´ë¦¬": 7710,
      "Ġë²Ķì£Ħë¥¼": 7711,
      "ĠìĥĿìĥī": 7712,
      "Ġê¸°ëłĪê¸°ëĵ¤": 7713,
      "ĠëĤĺìķĦ": 7714,
      "Ġë³Ħë": 7715,
      "ĠëĲĺìĹĪëĭ¤": 7716,
      "ĠìłĦìĪĺ": 7717,
      "ê±°ë¦¬ë¥¼": 7718,
      "ĠìĿ´ëŁ°ê±´": 7719,
      "Ġíķµìĭ¬": 7720,
      "Ġë¶Īë§Į": 7721,
      "ĠìĦ¬": 7722,
      "Ġì«Ĵ": 7723,
      "Ġë¬¸ìłľë¥¼": 7724,
      "ìĭŃëĭĪê¹Į": 7725,
      "ìĿĦì§Ģ": 7726,
      "ĠêµŃë°©ë¶Ģ": 7727,
      "ëŁ½ê²Į": 7728,
      "Ġê²Ģì°°ìĿĺ": 7729,
      "ĠíķĺëĬĶì§ĵìĿ´": 7730,
      "ĠêµŃë¯¼ìĹ°ê¸Ī": 7731,
      "Ġì£½ìľ¼ë©´": 7732,
      "ĠìĨĮë°©": 7733,
      "Ġë¶ĦìľĦê¸°": 7734,
      "ë§Įë°°": 7735,
      "ëĿ¼ê°Ģ": 7736,
      "ĠìłķíĻķíŀĪ": 7737,
      "ĠëĤĺëĿ¼ëıĦ": 7738,
      "ĠìłĦë©´": 7739,
      "Ġê³±": 7740,
      "ĠìĤ¬ìĭ¤ìĥģ": 7741,
      "ĠìłľëĮĢë¡ľëĲľ": 7742,
      "Ġë°ķë²Ķ": 7743,
      "ĠìĹİ": 7744,
      "Ġë£": 7745,
      "ìĽĢìĿĦ": 7746,
      "Ġìĭłê²½ìĵ°": 7747,
      "ĠìĪĺìŀĳ": 7748,
      "ìĨĮê°Ģ": 7749,
      "Ġë§Ĳíķĺë©´": 7750,
      "§ŀ": 7751,
      "ë§Įíķĺê³ł": 7752,
      "ĠìĿ¸ìĭĿ": 7753,
      "ìłĲìĿĢ": 7754,
      "ĠìĭľëĮĢìĹĲ": 7755,
      "Ġìĸ´ì©Įëĭ¤": 7756,
      "ê°ĢëĬĶêµ¬ëĤĺ": 7757,
      "ë¹¼ê³ł": 7758,
      "ĠëĲłê¹Į": 7759,
      "Ġìłķì±ħìĿ´": 7760,
      "êµ¬íķĺê³ł": 7761,
      "Ġê°Ģìķ¼ì§Ģ": 7762,
      "Ġíıīê·ł": 7763,
      "ìľĦë°ĺ": 7764,
      "ìĹ°íŀĪ": 7765,
      "ëĲĺëĭĪ": 7766,
      "Ġë²Ħë": 7767,
      "ĠìĭľëĮĢê°Ģ": 7768,
      "Ġëĭ¤ê°ĻìĿ´": 7769,
      "Ġëľ¬": 7770,
      "ëĤłìĿ´": 7771,
      "Ġìłķë¶Ģë¥¼": 7772,
      "ìĦ°": 7773,
      "Ġíľ´ëĮĢíı°": 7774,
      "ë°Ń": 7775,
      "ĠìĺĪë°°": 7776,
      "íĨ¤": 7777,
      "ĠìĤ´ìĿ¸ë§Ī": 7778,
      "ĠìłģìĿ´": 7779,
      "ĠìķĦëĭĻëĭĪê¹Į": 7780,
      "ê¸°ìľĦíķ´": 7781,
      "Ġíķĺìķ¼": 7782,
      "ĠìĽĥìĿĮ": 7783,
      "ĠìŀĪëĦ¤ìļĶ": 7784,
      "Ġê²¸": 7785,
      "ĠìĻķëĶ°": 7786,
      "ê°ĵ": 7787,
      "ĠìĿ¼ì£¼": 7788,
      "ĠìłĪëĿ¼ëıĦ": 7789,
      "Ġìłķì¹ĺê°Ģ": 7790,
      "ĠíĺĦìĭ¤ìĿĦ": 7791,
      "ìĦľê°Ģ": 7792,
      "Ġëª°ìķĦë": 7793,
      "Ġë£¨": 7794,
      "Ġëĵłëĭ¤": 7795,
      "Ġë§İìĿĮ": 7796,
      ";;;;": 7797,
      "Ġë¬¼ìĸ´ë³´": 7798,
      "ê¸°ì¤Ģ": 7799,
      "ë¦¬ëĬĶê²Į": 7800,
      "ì³Ĳìķ¼": 7801,
      "Ġì¤ĳìĨĮê¸°ìĹħ": 7802,
      "Ġë¬´ë¦İ": 7803,
      "ìķŀìĹĲìĦľ": 7804,
      "ëħĶ": 7805,
      "ĠíķľìĿ¼": 7806,
      "ĠìĤ¬íļĮìĹĲ": 7807,
      "ĠìĿ´ëŁ¬ëĭ¤": 7808,
      "ns": 7809,
      "ê²Łëĭ¤": 7810,
      "Ġê°ķíķľ": 7811,
      "Ġëª¨ë¥´ê²łëĦ¤": 7812,
      "ë¥´ëĥĲ": 7813,
      "íĦ°ë¦¬": 7814,
      "ì§ľíĶ¼": 7815,
      "¦¬ëĤĺ": 7816,
      "íĨµíķ©": 7817,
      "ê³µìŀĳ": 7818,
      "Ġìĺ¬ë°Ķë¥¸": 7819,
      "Ġë§ŀëĬĶëį°": 7820,
      "Ġë§ĪìĿĮëĮĢë¡ľ": 7821,
      "ĠëĮĢê°Ģë¦¬ê°Ģ": 7822,
      "Ġíķłë§ĲìĿ´": 7823,
      "ì»¨": 7824,
      "Ġì¡°ìĤ¬ë": 7825,
      "ĠìłķìĿĺë¥¼": 7826,
      "ĠìĥģëĮĢë°©": 7827,
      "ëŀŃ": 7828,
      "ĠìŀħíķĻ": 7829,
      "Ġê²½ìłľëĬĶ": 7830,
      "ìĦ±ìŀ¥": 7831,
      "ë¨¹ìĿĢ": 7832,
      "ìĤ°ìĿ´": 7833,
      "ĠìķĪëĭ¬": 7834,
      "Ġë°ĶëĢĮë©´": 7835,
      "Ġê°ĢëĬ¥ìĦ±ìĿ´": 7836,
      "ĠíĸĪìľ¼ëĭĪ": 7837,
      "ì°¢": 7838,
      "ĠëįĶëŁ½ê³ł": 7839,
      "âĺħ": 7840,
      "ëĤ®": 7841,
      "íģ´ë¡ľ": 7842,
      "ĠìķĦëĭĪëĦ¤": 7843,
      "Ġëĵ¤ìĿĢ": 7844,
      "ìĸ¼êµ´": 7845,
      "ĠíĽĮë¥Ńíķľ": 7846,
      "ë¬»": 7847,
      "ìĤ¬ê³¼": 7848,
      "ì¹ĺëıĦ": 7849,
      "Ġëª¨ìļķ": 7850,
      "ĠëĦĺìĸ´ê°Ģ": 7851,
      "Ġì§Ħìĥģ": 7852,
      "Ġìłľê±°": 7853,
      "Ġìĸĳìĭ¬ìĿ´": 7854,
      "ê·¸ëłĩ": 7855,
      "ĠìĥģíĻ©ìĹĲìĦľ": 7856,
      "ĠíĺĢ": 7857,
      "Ġëĵ¤ìĸ´ìĦľ": 7858,
      "ĠëģĿëĤľ": 7859,
      "ì²ĺêµ¬": 7860,
      "ìĿ´ëĵľ": 7861,
      "ĠíħĲ": 7862,
      "ìķłëĵ¤ìĿĢ": 7863,
      "Ġìľ¤ì§ľìŀ¥": 7864,
      "Ġìĵ°ì§Ģ": 7865,
      "ë¬´ìĭĿ": 7866,
      "Ġë¥¼": 7867,
      "ĠêµŃë¯¼ìĿĺì§Ĳ": 7868,
      "ĠìķĦëĭ¥": 7869,
      "ĠìľĦê¸°": 7870,
      "Ġê°Ļìľ¼ëĭĪ": 7871,
      "ê·¸ëŀ¨": 7872,
      "ĠìŀĪëıĦë¡Ŀ": 7873,
      "ĠìĤ¬ë¬´": 7874,
      "ìłĦìĿ´": 7875,
      "ĠìĻĶëĭ¤": 7876,
      "Ġëģ¼ë¦¬ë": 7877,
      "out": 7878,
      "Ġìį©ìĸ´ë": 7879,
      "Ġëĭµë³Ģ": 7880,
      "Ġê²°ê³¼ë": 7881,
      "ìĦľìļ¸": 7882,
      "ê±¸ê¹Į": 7883,
      "Ġìĸ¼ë¥¸": 7884,
      "ĠìķĦìĿ´íı°": 7885,
      "Ġìĺ¤ì§Ģê²Į": 7886,
      "Ġê¼¼": 7887,
      "íķĻìĿ´": 7888,
      "ĠëıĮìķĦëĭ¤ëĭĪ": 7889,
      "ĠëķĮê°Ģ": 7890,
      "Ġì½ĺ": 7891,
      "ëĭ¹ìĭł": 7892,
      "Ġíī¤": 7893,
      "Ġê¸Ģë¡ľ": 7894,
      "Ġíķłê±°": 7895,
      "ĠìĿ¸ê°Ģ": 7896,
      "ìĹĲê²ĮëıĦ": 7897,
      "ĠìĥģíĻ©ìĹĲ": 7898,
      "ĠìķĦëħĢ": 7899,
      "ĠìĭĿë¯¼": 7900,
      "ĠìłķìĪĺ": 7901,
      "ìĹĦë§Ī": 7902,
      "ĠíĮĶê³ł": 7903,
      "¥¼ë": 7904,
      "ĠìĿ´ì¯¤ëĲĺë©´": 7905,
      "íķĺêµ¬ëĤĺ": 7906,
      "Ġë²łëĦ¤": 7907,
      "ĠëıħìĿ¼": 7908,
      "Ġë§Įëĵ¤ìĸ´ëĿ¼": 7909,
      "Ġë³´ëĤ´ê³ł": 7910,
      "ëĭ¤ëħĢ": 7911,
      "ews": 7912,
      "Ġë¯¼ì£¼ëĭ¹ìĿĦ": 7913,
      "Ġê²Ģì°°ìĿĦ": 7914,
      "ëĲĺëĤĺ": 7915,
      "Ġìŀĺíķ´": 7916,
      "ðŁ¤£": 7917,
      "ĠìĿ¸íķľ": 7918,
      "Ġíķĺì§ĢìķĬ": 7919,
      "!!!!!!!": 7920,
      "ĠëĬ¥ëł¥ëıĦ": 7921,
      "Ġì¤ĢìĦĿìĿ´": 7922,
      "Ġìĺģë¶ĢìĿ¸": 7923,
      "ĠìĦłìłľ": 7924,
      "Ġê³µë¬´ìĽĲëĵ¤": 7925,
      "íķľê±°ìķ¼": 7926,
      "ìĸµìĶ©": 7927,
      "Ġë²ķìĿĢ": 7928,
      "Ġê°Ģì¡±ëĵ¤": 7929,
      "Ġìĭľê°Ħë": 7930,
      "Ģëĵľ": 7931,
      "ĠíķĺëıĦ": 7932,
      "ê°ĦìĿ´": 7933,
      "ìĪĺíķĺê³ł": 7934,
      "Ġì¡°ìĦłìĭľëĮĢ": 7935,
      "ĠëĤĺìĺ¤ëĦ¤": 7936,
      "ëĿ¼ë©°": 7937,
      "íĿ¬ë£¡": 7938,
      "ĠìĦľìĦľ": 7939,
      "ìĦľìĦľ": 7940,
      "ë©ĶëĶĶ": 7941,
      "ê·¸ê²Į": 7942,
      "Ġë°°ìĽł": 7943,
      "Ġìķķë°ķ": 7944,
      "~~!!": 7945,
      "Ġë¹¼ìķĹ": 7946,
      "Ġë§ŀìĿĮ": 7947,
      "Ġìĭľê°ĦìĹĲ": 7948,
      "ĠíĥĦìķķ": 7949,
      "Ġë¹łìł¸ëĤĺ": 7950,
      "Ġê³µìĭĿ": 7951,
      "ĠìĿ´ëıĻ": 7952,
      "ĠìķĪì°į": 7953,
      "ĠìŀĪëĬĶê°Ģ": 7954,
      "Ġëª¨ìĹ¬ìĦľ": 7955,
      "ê¹ľ": 7956,
      "ë¹Ħë¡ľ": 7957,
      "Ġë¹Ħë¡¯": 7958,
      "Ġëªħëł¹": 7959,
      "ĠíĮ½": 7960,
      "Ġëª»íķ´ìĦľ": 7961,
      "ĠìĤ¬íĩ´íķ´ëĿ¼": 7962,
      "Ġë²ķìľ¼ë¡ľ": 7963,
      "ĠìĹ°ê²°": 7964,
      "Ġë¹ĦíĬ¸": 7965,
      "Ġë¹Ħíķĺ": 7966,
      "Ġê³µìĤ°êµŃê°Ģ": 7967,
      "Ġë¶ģíķľìĿĺ": 7968,
      "ĠìŀĲê¸°ëĦ¤": 7969,
      "ìĸµìĽĲ": 7970,
      "Ġë§ĲìķĦìķ¼": 7971,
      "ãħĹ": 7972,
      "ê²ģëĭĪê¹Į": 7973,
      "ì½ĶíĮ¨ìĬ¤": 7974,
      "Ġëĵ¤ìĸ´ê°Ħ": 7975,
      "ë²ħ": 7976,
      "Ġì§ľìŀ¥": 7977,
      "ĠìĤ´ì§Ģ": 7978,
      "Ġì£½ìĿ´ëĬĶ": 7979,
      "Ġêµ¬ìŀħ": 7980,
      "Ġíķµë¬´": 7981,
      "Ġë©´ìĥģ": 7982,
      "Ġê°Ģëł¤": 7983,
      "ĠíķĺëĤĺëĭĺ": 7984,
      "ĠëĤĺë¶": 7985,
      "ìķĦë²Ħì§Ģ": 7986,
      "Ġë¯¼ëĤ": 7987,
      "Ġìĸ´ë§Ī": 7988,
      "Ġíĳľì°½ìŀ¥": 7989,
      "Ġì£¼ë§Ĳ": 7990,
      "ë¶Ħë": 7991,
      "Ġìłķë¶ĢìĹĲ": 7992,
      "Ġê²ĢìĤ¬ë": 7993,
      "Ġëĭ¤ìĬ¤": 7994,
      "Ġìľ¤íĽĦë³´": 7995,
      "ìĿ¸ìĤ¬": 7996,
      "Ġë¶ĢëŁ¬": 7997,
      "Ġíĩ´ìŀĦ": 7998,
      "ĠìĤ¬ëĬĶê²Į": 7999,
      "ìĭľëĦ¤ìļĶ": 8000,
      "ĠìłĢê²ĥëĵ¤": 8001,
      "Ġê¶Įëł¥ìĹĲ": 8002,
      "ĠìĨĲíķ´ë": 8003,
      "Ġë¨¹ìĹ¬": 8004,
      "ë§ĮìĿĺ": 8005,
      "ì§Ģë§ĲìŀĲ": 8006,
      "ĠìŀĳìĹħ": 8007,
      "ë¿Į": 8008,
      "Ġìĸ¹": 8009,
      "ĠëĦĵ": 8010,
      "ìĸ´ì£½": 8011,
      "ìĸ´ë´ĲëĿ¼": 8012,
      "Ġë§Įëĵ¤ìĸ´ìķ¼": 8013,
      "Ġë§¤ëħĦ": 8014,
      "ë°į": 8015,
      "Ġíķĳê³Ħ": 8016,
      "ìķĦìĽĥ": 8017,
      "Ġíķĺë£¨ë¹¨ë¦¬": 8018,
      "?.": 8019,
      "ëĤĺê°Ģ": 8020,
      "ìĭłë¶Ħ": 8021,
      "Ġì§ĢìĨį": 8022,
      "ê²©ë¦¬": 8023,
      "êµŃìĿĢ": 8024,
      "Ġëħ¸ëĭµ": 8025,
      "ëį¸": 8026,
      "ĠìķĦìłĢìĶ¨": 8027,
      "Ġì¹´íİĺ": 8028,
      "ĠìĿ¼ìľ¼íĤ¤": 8029,
      "íķĺìŀĲëĬĶ": 8030,
      "ìłģëıĦ": 8031,
      "ë°ķê·¼íĺľ": 8032,
      "Ġëĭ¥ì¹ĺê³ł": 8033,
      "ì°¨ë¥¼": 8034,
      "ĠìĤ¬íļĮê°Ģ": 8035,
      "Ġo": 8036,
      "ì§ķê¸Ģ": 8037,
      "êº¼ë©´": 8038,
      "ĠìĦłíĥĿìłģ": 8039,
      "ì¡°ìĽĲ": 8040,
      "Ġìŀĺëª»ìĿ´": 8041,
      "Ħë³´ëĭ¤": 8042,
      "Ġë§Ĳíķ´": 8043,
      "ĠìĥĢ": 8044,
      "ìĶĮ": 8045,
      "Ġíİ¸ìĿĺ": 8046,
      "Ġë§ŀëĭ¤ê³ł": 8047,
      "ĠìĹĨëĬĶê±°": 8048,
      "íķĺìŀĸìķĦ": 8049,
      "ĠìļĶì²Ń": 8050,
      "Ġì¹¨ë¬µ": 8051,
      "ĠìĬ¬ìĬ¬": 8052,
      "Ġë§ĲëĮĢë¡ľ": 8053,
      "ê²łêµ¬ë§Į": 8054,
      "ĠìĿ´ë£¨": 8055,
      "Ġìĸ´ì©ĮëĿ¼ê³ł": 8056,
      "ĠíĹĪìļ©": 8057,
      "Ġìľłì¹ĺìĽĲ": 8058,
      "Ġëª¸ë": 8059,
      "ìĿ´ë²Ī": 8060,
      "ê»į": 8061,
      "Ġê²ĥë§Į": 8062,
      "ìĺ¤ì§Ģ": 8063,
      "Ġë¶Īê°Ģ": 8064,
      "ĠìĿ´ëĤĺ": 8065,
      "ĠìķĦìĿ´ëĵ¤ìĿ´": 8066,
      "Ġìłľê³µ": 8067,
      "Ġê·¸ëŁ°ê°Ģ": 8068,
      "íĮĮìķħ": 8069,
      "ì¾Į": 8070,
      "ĠíĽĦìĽĲ": 8071,
      "ì¹ľêµ¬": 8072,
      "Ġë²¤": 8073,
      "ĠìĿ¸ì¢ħ": 8074,
      "Ġíķłëĵ¯": 8075,
      "Ġìĭ¶ìĸ´ìĦľ": 8076,
      "ĠìķĦìĿ´ë¥¼": 8077,
      "ê±´ëıĦ": 8078,
      "ìłķë³´": 8079,
      "ĠëĤĺìĺ¤ëĬĶëį°": 8080,
      "Ġë¹łì§Ħ": 8081,
      "ĠëĪĦê°Ģë´ĲëıĦ": 8082,
      "ĠìĤ´ìķĦìŀĪëĬĶ": 8083,
      "ĠãħĬ": 8084,
      "Ġê°Ħëĭ¨": 8085,
      "Ġìļ°ëįľ": 8086,
      "ìľĦì¡°": 8087,
      "ìĸ¸ë": 8088,
      "ĠìĤ´ìķĦëĤ¨": 8089,
      "Ġê±¸ëł¸": 8090,
      "ê¸°íļĮ": 8091,
      "ĠìŀĺíĸĪëĭ¤": 8092,
      "Ġì¢Įìļ°": 8093,
      "ĠìĪ«ìŀĲ": 8094,
      "ê²½ê¶ģ": 8095,
      "Ġì¢Įíĳľ": 8096,
      "Ġë§ĪìĿĮìĹĲ": 8097,
      "ĠìĨ¡ìĺģê¸¸": 8098,
      "ĠëĮĢíĨµëł¹ìĿĺ": 8099,
      "Ġíİ¸íĮĮ": 8100,
      "Ġì¹ĺëĬĶ": 8101,
      "ĠìķĪëĤ¨": 8102,
      "Ġì¿łíĮ¡": 8103,
      "Ġê³łë§Ļëĭ¤": 8104,
      "ĠíĺĦìŀ¥": 8105,
      "ĠìŀĲê¸°ëĵ¤ìĿ´": 8106,
      "ì§ĪìĹĲ": 8107,
      "ëŀľëĵľ": 8108,
      "ë¬¸íĻĶ": 8109,
      "Ġë¹Ħìłķìĥģ": 8110,
      "ĠìĪĺëĭ¨": 8111,
      "Ġì¤ĳêµŃìĿĦ": 8112,
      "Ġë§ŀìĬµëĭĪëĭ¤": 8113,
      "Ġìŀ¥ìłľìĽĲ": 8114,
      "Ġì£Ħë": 8115,
      "ëĭ¤ëĬĶëį°": 8116,
      "Ġê²½ê³ł": 8117,
      "ê°ķê°Ħ": 8118,
      "ĠìĥģíĻ©ìĿĦ": 8119,
      "ĠíĽĦë³´ë¡ľ": 8120,
      "ĠìĭĿìľ¼ë¡ľ": 8121,
      "Ġì£¼ëĳ¥ìķĦ": 8122,
      "ìĨĮëĤĺ": 8123,
      "ĠìľĦíĹĺíķľ": 8124,
      "ê°Ģê²©": 8125,
      "ĠíķľìŀĲë¦¬": 8126,
      "ĠìĨĮìľł": 8127,
      "ìĿĺë¡ľ": 8128,
      "ĠìłģìŀĲ": 8129,
      "íĩ´ë": 8130,
      "ĠìĨĲë°Ķëĭ¥": 8131,
      "ëĮĢìĿĳ": 8132,
      "ĠìķĪëĲĺëĬĶëį°": 8133,
      "íķ´ìķ¼íķ©ëĭĪëĭ¤": 8134,
      "ĠíĻķìĭ¤íķľ": 8135,
      "Ġê²ĥìĿ¸ê°Ģ": 8136,
      "íķĺêµ¬": 8137,
      "ĠëįĶë¸Ķ": 8138,
      "ìŀ¥ìķł": 8139,
      "Ġë³¸ìĿ¸ëĵ¤": 8140,
      "Ġíķľìª½": 8141,
      "ĠìĥģìĭĿìĿ´": 8142,
      "ĠìĹ°íķ©": 8143,
      "ĠëĤĺìĻĢëıĦ": 8144,
      "íĻĺê²½": 8145,
      "ĠìĥĿê°ģì¢Ģ": 8146,
      "ĠìĤ¬ìķħíķľ": 8147,
      "Ġíķłëł¤ê³ł": 8148,
      "Ġë°ľëª©": 8149,
      "ìħ¨ìĸ´ìļĶ": 8150,
      "Ġìĸ´ëĸ¡": 8151,
      "Ġê°ľë¬´ìĭľ": 8152,
      "ĠëĮĵê¸ĢìĿĦ": 8153,
      "ĠëģĿëĤĺë©´": 8154,
      "ì¶©ëĵ¤": 8155,
      "Ġìłľìĭľ": 8156,
      "ìļ°ë¦¬ëĤĺëĿ¼": 8157,
      "Ġê½ģ": 8158,
      "Ġê¶ĮìĦ±": 8159,
      "Ġê°ĲìĦ±íĮĶìĿ´": 8160,
      "ĠìķĮìķĺëĬĶëį°": 8161,
      "ë¬´ë¥¼": 8162,
      "ê°ľë¥¼": 8163,
      "ĳ¥": 8164,
      "ĠëĥĦìĥĪê°Ģ": 8165,
      "ĠìĤ´ìŀĲ": 8166,
      "Ġê¶Įíķľ": 8167,
      "ĠìķĶíĬ¼": 8168,
      "Ġìłķì¹ĺìĿ¸ìĿ´": 8169,
      "Ġê¸Īìķ¡": 8170,
      "ì¼ĵ": 8171,
      "ĠJ": 8172,
      "ĠëĮĢëĭ¤ìĪĺ": 8173,
      "ĠìĦ¸ìĽĮ": 8174,
      "Ġì¢ħë¶ĢìĦ¸": 8175,
      "íĮ½": 8176,
      "Ġì²ĺë²ĮìĿĦ": 8177,
      "ĠìĿ´ìĦ±ìľ¤": 8178,
      "Ġì°įìĨĮë¦¬": 8179,
      "¸ë¦¬ëĬĶ": 8180,
      "Ġíģ´ëŁ½": 8181,
      "ĠìĨĮìĥģê³µìĿ¸": 8182,
      "ĠìĹŃìĤ¬ë¥¼": 8183,
      "êµŃë¯¼ëĵ¤ìĿ´": 8184,
      "Ġê±¸ë¡ľ": 8185,
      "Ġê¹Ŀ": 8186,
      "ĠìĦ¹": 8187,
      "ŁŃ": 8188,
      "ĠìŀĺëĿ¼": 8189,
      "Ġì±Ħë": 8190,
      "Ġìŀĺíķľ": 8191,
      "Ĳëĭ¤": 8192,
      "ìĿ´ëŀĢê²Į": 8193,
      "Ġìĸµì§Ģë¡ľ": 8194,
      "Ġë¹Ħíķĺë©´": 8195,
      "ìĤ´ìĿ¸": 8196,
      "ëĮĢìĦł": 8197,
      "ĠìŀĲëĵ¤ìĿ´": 8198,
      "ĠìĻ¸ë©´": 8199,
      "ëĬĶê²ĥìĿĢ": 8200,
      "ĠëĮĵê¸Ģëĵ¤": 8201,
      "Ġìĺģíĺ¼": 8202,
      "Ġì¢ĭê²Į": 8203,
      "ĠíĥĪë¶ģ": 8204,
      "ĠìķĦëĭĪìŀĸìķĦ": 8205,
      "ëį°ë¡ľ": 8206,
      "ìĿ¸ëį°ëıĦ": 8207,
      "---": 8208,
      "ĠêµŃë¯¼ëĵ¤ëıĦ": 8209,
      "Ġë©ĭì§Ħ": 8210,
      "Ġê¸Īë°©": 8211,
      "Ġì¤ĳêµŃê³¼": 8212,
      "Ġíİ¼": 8213,
      "ì´Ŀë¦¬": 8214,
      "íħĮê³ł": 8215,
      "ìļ°ê¸°": 8216,
      "ìĸ´ë§Ī": 8217,
      "ë§ģ": 8218,
      "ê¸ĪìĿ´": 8219,
      "Ġìĭľì¼ľìķ¼": 8220,
      "ģ¼ë": 8221,
      "ĠìĹĨìĸ´ëıĦ": 8222,
      "íĶĮëłĪìĿ´": 8223,
      "ìĸ´ëĨĵ": 8224,
      "íģ¬ë¡ł": 8225,
      "ìĸµìĿĦ": 8226,
      "ìĤ¬ìĿĺ": 8227,
      "ĠìĹĨìĹĪ": 8228,
      "ĠìĻĪ": 8229,
      "Ġìłķë¶ĢìĻĢ": 8230,
      "Ġì§Ħìĺģ": 8231,
      "íĶĦëĭ¤": 8232,
      "ìĬ¤ëŁ½ê³ł": 8233,
      "ìĦ±ê³¼": 8234,
      "ĠëĤĺëĿ¼ë¡ľ": 8235,
      "ìŀĲíķľ": 8236,
      "ĠëĤ¯": 8237,
      "ĠìĹĨëĬĶê²Į": 8238,
      "ìľ¼ëł¤ëĬĶ": 8239,
      "ĠëĤĺëĿ¼ëĭ¤": 8240,
      "ê²ĥëĦ¤": 8241,
      "Ġìĭ¸ê°Ģì§Ģ": 8242,
      "Ġë¯¸ìĦ±": 8243,
      "Ġë¬´ëĬ¥íķĺê³ł": 8244,
      "Ġìŀ¡ìķĦìĦľ": 8245,
      "Ġëª¨ë¥´ë©´": 8246,
      "ĠìĹŃìĤ¬ìĹĲ": 8247,
      "ĠëĮĵê¸ĢìĿ´": 8248,
      "Ġêµ¬ê±¸": 8249,
      "ĠíĶĦ": 8250,
      "ĠíķĺëĤĺë§Į": 8251,
      "ìĸ´ëĸ»": 8252,
      "´ëıĦ": 8253,
      "ëĤ³": 8254,
      "ĠíķłìĪĺìŀĪ": 8255,
      "ë¹Į": 8256,
      "ĠìĦłê±°ëķĮ": 8257,
      "ìłĲìĹĲ": 8258,
      "Ġë§Īêµ¬": 8259,
      "Ġë¯¸íĨµëĭ¹": 8260,
      "ĠëıĦì¿": 8261,
      "ĠíĮĮê´´": 8262,
      "ĠìĿ´ì¤ĢìĦĿìĿĢ": 8263,
      "Ġëį®ìĸ´": 8264,
      "Ġê·¹íĺĲ": 8265,
      "ĠìłĦìŀĲ": 8266,
      "ĠìłĦêµŃë¯¼ìĿ´": 8267,
      "ĠìķĦê¹Į": 8268,
      "Ġy": 8269,
      "ĠëįĶëįĶ": 8270,
      "ìłĢë¶Ħ": 8271,
      "Ġêµ¬ê²½": 8272,
      "ĠíķĦìļĶìĹĨëĭ¤": 8273,
      "ìĬ¬ë": 8274,
      "ì§ĢìķĬëĤĺ": 8275,
      "ĠìŀĪëįĶ": 8276,
      "ĠìŀĪëĭ¤ê°Ģ": 8277,
      "Ġì¢ħìĭĿ": 8278,
      "Ġë§ĪíĬ¸": 8279,
      "Ġë³´ìĹ¬ì£¼ëĬĶ": 8280,
      "ĠìķĦìĬ¤íĬ¸ëĿ¼": 8281,
      "ìłķë¶ĢíĮ¨": 8282,
      "ìĭ¤íŀĪ": 8283,
      "Ġì¢ĮíĮĮëĵ¤ìĿĢ": 8284,
      "ĠëĲĺëĭĪ": 8285,
      "Ġìĵ¸ëį°ìĹĨëĬĶ": 8286,
      "Ġê°ĵ": 8287,
      "ĠìķĪì²łìĪĺëĬĶ": 8288,
      "ë¦¬ë©°": 8289,
      "ĠìłģìĿĢ": 8290,
      "Ġì§ĳìĸ´": 8291,
      "ìĭľë§Ī": 8292,
      "ìĨįìľ¼ë¡ľ": 8293,
      "Ġì¹ľë¶ģ": 8294,
      "ĠëĤĺë©´": 8295,
      "ë¹ĦëĤĺ": 8296,
      "ĠìŀĲìĭłìĿĦ": 8297,
      "Ġì§ĢìĿĢ": 8298,
      "Ġìĸ´ì²ĺêµ¬": 8299,
      "ĠìĤ¬ëŀĮë§Į": 8300,
      "ĠíĪ¬ëªħ": 8301,
      "??????": 8302,
      "ëª»íķľ": 8303,
      "Ġíı¬ë": 8304,
      "ĩ¨": 8305,
      "Ġêµ¬ëĤĺ": 8306,
      "ìĬ¤ë¥¼": 8307,
      "Ġìĸ´ì§ľíĶ¼": 8308,
      "ĠíĺĪìĦ¸": 8309,
      "ĠìĹ¼ë³ĳ": 8310,
      "ìĺĢê³ł": 8311,
      "ìĿ´íģ¬": 8312,
      "íķľê±°ëĥĲ": 8313,
      "ĠìķĪë¯¿": 8314,
      "ëħĦë§ĮìĹĲ": 8315,
      "Ġì¢ģ": 8316,
      "Ġëıķ": 8317,
      "ê³³ìĹĲìĦľ": 8318,
      "ĠëŃĲê³ł": 8319,
      "21": 8320,
      "ĠìķĪëĲĺëĤĺ": 8321,
      "ĠíĬ¹ìĪĺ": 8322,
      "ĠíĻĺìĺģ": 8323,
      "Ġë®": 8324,
      "Ġë¬´ì£¼íĥĿ": 8325,
      "ĠìŀĳíĴĪ": 8326,
      "ĠíķĻíıŃ": 8327,
      "ĠëıĻì°¸": 8328,
      "ĠìĻľëĥĲ": 8329,
      "Ġì¢ĭê³ł": 8330,
      "ìŀ¬ë¡ľ": 8331,
      "Ġìĸ´ë²": 8332,
      "ĠìĹĶ": 8333,
      "ãħĭãħĭãħĭãħĭãħĭãħĭãħĭãħĭãħĭãħĭãħĭãħĭãħĭãħĭãħĭãħĭãħĭãħĭãħĭãħĭãħĭãħĭãħĭãħĭãħĭãħĭãħĭãħĭãħĭãħĭãħĭãħĭãħĭãħĭãħĭãħĭãħĭãħĭãħĭãħĭãħĭãħĭãħĭãħĭãħĭãħĭãħĭãħĭãħĭãħĭãħĭãħĭãħĭãħĭãħĭãħĭãħĭãħĭãħĭãħĭãħĭãħĭãħĭãħĭ": 8334,
      "ĠíĶ¼ëĪ": 8335,
      "ĠíĶ¼ê³¤": 8336,
      "Ġê³łìĬ¤": 8337,
      "Ġì§Īì§Ī": 8338,
      "ĠìĬĪ": 8339,
      "ĠíĹĪìľĦìĤ¬ìĭ¤": 8340,
      "ĠíĬ¸ëŁ¼íĶĦê°Ģ": 8341,
      "Ġì½ĶìĬ¤íĶĦëłĪ": 8342,
      "news": 8343,
      "ìĺĢìĸ´": 8344,
      "ëŁŃ": 8345,
      "Ġê¸°ëłĪê¸°ìķ¼": 8346,
      "ĠìķĦìļ°": 8347,
      "ìĿ´ê±°": 8348,
      "ê°ľìŀħ": 8349,
      "ìĤ°ëĭ¤": 8350,
      "Ġì§ķê¸Ģ": 8351,
      "ì²ŃìĽĲ": 8352,
      "ĠìĭľëıĦ": 8353,
      "ĠìķĪíķľ": 8354,
      "ðŁĺ¡": 8355,
      "Ġëª°ëĿ¼ìĦľ": 8356,
      "Ġì¢ĢëįĶ": 8357,
      "ì¢ĥ": 8358,
      "Ġì¤ĳê°Ħ": 8359,
      "ì¹ĺê²Į": 8360,
      "ìĭ¤íĮ¨": 8361,
      "ĠíķĻëĮĢ": 8362,
      "Ġìĸ¼êµ´ìĹĲ": 8363,
      "ĠíĻķìĭ¤íķĺê²Į": 8364,
      "ĠìłķíĻķíķľ": 8365,
      "ìĹĺëĿ¼": 8366,
      "íķĺëĬĶê°Ģ": 8367,
      "ĠMBC": 8368,
      "ĠìŀĳìłĦ": 8369,
      "Ġì·¨ìŀĦ": 8370,
      "ĠíĶĦëŀĳ": 8371,
      "ĠíĨµìĭł": 8372,
      "ìķĦëĮĢ": 8373,
      "Ġë°Ľì§Ģ": 8374,
      "Ġë¼Ī": 8375,
      "ĠìĤ¼ê°Ģ": 8376,
      "ìĥģìĬ¹": 8377,
      "Ġëª¨ìŀĦ": 8378,
      "ĠìĨĲíĺľìĽĲ": 8379,
      "Ġìµľê°ķ": 8380,
      "ë¹ĦëĬĶ": 8381,
      "Ġê·¸ëĵ¤ìĿĢ": 8382,
      "Ġê·¸ëĭĪê¹Į": 8383,
      "ìłģìĿ´ì§Ģ": 8384,
      "Ġì£½ìĿĦëķĮ": 8385,
      "ķĮë§Īëĭ¤": 8386,
      "íļ¨ê³¼": 8387,
      "íķĺê¸°ëıĦ": 8388,
      "ì¹´íİĺ": 8389,
      "¬¸ìłľ": 8390,
      "ĠìłĦìłķê¶Į": 8391,
      "ì²Ńìŀ¥": 8392,
      "íĻĺìŀĲ": 8393,
      "ìłķíķľ": 8394,
      "ë§ĮìĽĲìĶ©": 8395,
      "ëŀ¬": 8396,
      "ì§Ħë³´": 8397,
      "Ġì§Ģë°°": 8398,
      "Ġê¹Įê³ł": 8399,
      "ĠF": 8400,
      "Ġë¯¿ìĸ´": 8401,
      "Ġìŀ¬ìķĻìķĦ": 8402,
      "Ġê²ĢìĥĪ": 8403,
      "ĠíĮį": 8404,
      "ê°ľëĬĶ": 8405,
      "ĠìĤ¬ê³¼ë¥¼": 8406,
      "Ġë±ī": 8407,
      "ĠëĦĺìĿ´": 8408,
      "ì£Ħê°Ģ": 8409,
      "ĠìŀĲê·¹": 8410,
      "Ġê°ĲëıĻ": 8411,
      "ĠìĹ¬ê¸°ìĹĲ": 8412,
      "Ġì²ĺëĭ¨": 8413,
      "Ġê°Ŀê´Ģ": 8414,
      "ĠëıĮíĮĮ": 8415,
      "Ġëļ«": 8416,
      "ì§ĢëĥĲ": 8417,
      "ĠìķĦìĭľ": 8418,
      "ê³³ìĿĢ": 8419,
      "Ġê·¸ëŁ¬ì§Ģ": 8420,
      "ë°ĶìĿ´ëŁ¬ìĬ¤": 8421,
      "ìĪĺì¤ĢìĿ´": 8422,
      "Ġë¯¸êµŃìĹĲìĦľ": 8423,
      "ì²ľìĽĲ": 8424,
      "ë§ĪìłĢ": 8425,
      "Ġëĭ´ëĭ¹": 8426,
      "Ġìķ¼ê¶Į": 8427,
      "ìłĲìĹĲìĦľ": 8428,
      "¸ëĥĲ": 8429,
      "ver": 8430,
      "Ġê°ķíķĺê²Į": 8431,
      "áĨŀ": 8432,
      "ĠìķĦëĬĶê²Į": 8433,
      "ĠìľłëĭĪíģ´ë¡ľ": 8434,
      "Ġë°©êµ¬ìĦĿ": 8435,
      "ê°ľëħĲ": 8436,
      "ĠíĥĪì¶ľ": 8437,
      "ì§ĢìķĬìĿĢ": 8438,
      "Ġê¸°ìłĢì§ĪíĻĺ": 8439,
      "Ġë©°ì¹ł": 8440,
      "ĠìĿ´ê¸°ìłģìĿ¸": 8441,
      "ĠìĿ´ëŀ": 8442,
      "Ġcctv": 8443,
      "Ġì¢ĭì§Ģ": 8444,
      "íĥĦë": 8445,
      "íĺ¼ìŀĲ": 8446,
      "ĠëĦĺëĬĶ": 8447,
      "¨¹ê³ł": 8448,
      "ìķĦë³´ê³ł": 8449,
      "Ġìļ©ìĤ°": 8450,
      "Ġê½Ĥ": 8451,
      ".?": 8452,
      "ëľ©": 8453,
      "ìĸĳìķĦì¹ĺ": 8454,
      "ĠìĸĳìĦ±": 8455,
      "Ġëĭ¨ì§Ģ": 8456,
      "ĠTV": 8457,
      "ì£¼ìĤ¬": 8458,
      "ë¯¸ë¥¼": 8459,
      "íķłëŀĺ": 8460,
      "Ġì§Ħì§ľë¡ľ": 8461,
      "Ġìĭ«ìĸ´ìĦľ": 8462,
      "ĠìĽĲíĿ¬ë£¡": 8463,
      "ëĤ«": 8464,
      "Ġê±´ëĵ¤": 8465,
      "Ġê¶¤": 8466,
      "ĠëĮĢíĨµëł¹ëĲĺë©´": 8467,
      "Ġì£¼ì§Ģ": 8468,
      "ë¶ķ": 8469,
      "ĠíıĲìĩĦ": 8470,
      "ĠëıĻìĥĿ": 8471,
      "Ġìĭ¤ì²ľ": 8472,
      "íĺ¼ë": 8473,
      "Ġì°¨ê³ł": 8474,
      "Ġê³³ìĿ´": 8475,
      "ì¯Ķ": 8476,
      "Ġë¹¨ê°Ħ": 8477,
      "ĠíĬ¸ì§ĳ": 8478,
      "ĠëģĦ": 8479,
      "Ġë§¤ìĪĺ": 8480,
      "ĠìĹīëļ±": 8481,
      "Ġíİĺë¯¸ëĭĪì¦ĺ": 8482,
      "ìĨĮë¥¼": 8483,
      "ĠíĻ§": 8484,
      "ìĭľíĹĺ": 8485,
      "Ġì±Ħìļ©": 8486,
      "Ġ201": 8487,
      "ìĻĦë°ķ": 8488,
      "Ġê¸°íļį": 8489,
      "Ġì¶©ê²©": 8490,
      "Ġëģ¼ë¦¬ëģ¼ë¦¬": 8491,
      "ìłķíķĺê³ł": 8492,
      "Ġë§ŀìľ¼ë©´": 8493,
      "ë´ħëĭĪëĭ¤": 8494,
      "Ġëĺĳëĺĳíķľ": 8495,
      "Ġìŀ¡ìĿĦ": 8496,
      "ĠëĴ¤íĨµìĪĺ": 8497,
      "Ġë¬¸ì£ĦìķĻ": 8498,
      "Ġë²ķìķĪ": 8499,
      "ìĨĮìĹĲ": 8500,
      "Ġê¹Ģë¶ĢìĦł": 8501,
      "Ġì±ħìŀĦìĿĢ": 8502,
      "íĺ¸ì¤ĳ": 8503,
      "ĠìłķìĭłìĿĦ": 8504,
      "íģ¬ë¡ľ": 8505,
      "ĠìĦ¤ê³Ħ": 8506,
      "ë¯¸íģ¬ë¡ł": 8507,
      "ĠìĤ¬ëŀĮìĹĲê²Į": 8508,
      "íķ´ì§Ħ": 8509,
      "ĠìŀĲì¹Ń": 8510,
      "ìĥģìĹĲìĦľ": 8511,
      "ĠëĤĺìĺ¬ë": 8512,
      "ĠìĨĮìļ©": 8513,
      "ìĹ¬ìĦ±": 8514,
      "ìĸ´ëĤ¬": 8515,
      "ĠìłĦì§ģ": 8516,
      "ëĲĺê²Į": 8517,
      "Ġìłķê²½ìĭ¬": 8518,
      "Ġíķ´ì³Ĳë¨¹": 8519,
      "Ġê¹ĢíķĻìĿĺ": 8520,
      "êµ¬ëł¤": 8521,
      "ĠëĤĺëĿ¼ë§Ŀ": 8522,
      "Ġìŀħë²ķ": 8523,
      "Ġìłķì¹ĺíķĺëĬĶ": 8524,
      "ìľ¼ë¡ľë§Į": 8525,
      "ĠìĪľìĪĺ": 8526,
      "íķĺê³łëıĦ": 8527,
      "ĠëĤĺìĿĢ": 8528,
      "ìĭ«ëĭ¤": 8529,
      "Ġëī´": 8530,
      "ĠìķĦíĶĪ": 8531,
      "Ġëª©ìĪ¨ìĿĦ": 8532,
      "Ġãħİãħİãħİãħİ": 8533,
      "ĠìķĬëĤĺìļĶ": 8534,
      "ìŀĲê²©": 8535,
      "ĠëĬĺìĸ´": 8536,
      "ĠìķĪê°Ħëĭ¤": 8537,
      "ì¡ĮëĬĶëį°": 8538,
      "ìŀĪëįĺ": 8539,
      "Ġíģ°ìĨĮë¦¬": 8540,
      "ë¦¬ëĬĶê±°": 8541,
      "ëĮĢì²´": 8542,
      "ĠíĸĪê³ł": 8543,
      "Ġë§ĪëħĢ": 8544,
      "ĠìĦĿëł¬": 8545,
      "ĠìĽĲìĿ¸": 8546,
      "Ġë¯¼ì£¼ëħ¸ì´Ŀ": 8547,
      "Ġëĸ¨ìĸ´ì§Ī": 8548,
      "ì¡°ì¹ĺ": 8549,
      "ìļ°ì§Ģ": 8550,
      "Ġë°ľìķħìĿĦ": 8551,
      "ìĪĺë°ĸìĹĲ": 8552,
      "ê±´ì¶ķ": 8553,
      "ĠëıĮëĮĢê°Ģë¦¬": 8554,
      "ĠìĦłê±°ìĹĲ": 8555,
      "Ġëľ¯ìĸ´": 8556,
      "Ġì¹ĺíĤ¨": 8557,
      "Ġë°©ë¬¸": 8558,
      "įĺì§Ģ": 8559,
      "ĠëĶ´ë": 8560,
      "ìĸ´ë§Į": 8561,
      "ëª¨ë¥´": 8562,
      "ëĵ¤ìĿ´ìķ¼": 8563,
      "íŀĪë©´": 8564,
      "ê±°íĴĪ": 8565,
      "ãħĩãħĩ": 8566,
      "ĠíķĻìĽĲ": 8567,
      "ĠãħħãĦ²": 8568,
      "Ġìį©ìĿĦ": 8569,
      "Ġê¸°ì´Ī": 8570,
      "ì¡Įìľ¼ë©´": 8571,
      "Ġë§ĲìĿ´ëĥĲ": 8572,
      "Ġê³µíķŃ": 8573,
      "íĮĲê²°": 8574,
      "ë§Įíķĺë©´": 8575,
      "Ġë³´ëĤ´ëĿ¼": 8576,
      "ĠìĬ¤íĨł": 8577,
      "Ġê³µìĿµ": 8578,
      "ĠëıĻëĤ¨": 8579,
      "ĠíĭĢëĭĪ": 8580,
      "Ġì£½ìĹ¬ë": 8581,
      "êµŃìĿĦ": 8582,
      "Ġê°ĢìĦ¸ìĹ°": 8583,
      "Ġë°ĶíĢ´ë²ĮëłĪ": 8584,
      "ĠëĲłëĵ¯": 8585,
      "ë°ĶëĿ¼": 8586,
      "Ġëª»ë¯¿": 8587,
      "êµŃë¯¼ìĿĦ": 8588,
      "ĠíĮĲìĤ¬ê°Ģ": 8589,
      "Ġê³łë§Į": 8590,
      "Ġëĭ¤ìĸĳ": 8591,
      "ĠìĿ´ìĭľêµŃìĹĲ": 8592,
      "ĠìĿ´ê°Ħ": 8593,
      "Ġëª¨ëĵłê±¸": 8594,
      "Ġê·¸ëĤł": 8595,
      "ĠìĿ´ëª¨ìĸĳ": 8596,
      "ê²ĮìŀĦ": 8597,
      "Ġë¶ĢëĮĢ": 8598,
      "íķĺê²łìĬµëĭĪëĭ¤": 8599,
      "ìīĲ": 8600,
      "ĠìķīìķĦìĦľ": 8601,
      "Ġë¬´ìĥģ": 8602,
      "ìĤ¬ëŀĮëıĦ": 8603,
      "ĠìľłìĿ¼íķľ": 8604,
      "Ġëĭµëĭ¤": 8605,
      "ĠíĸĪìĿĦ": 8606,
      "ĠìķĦëĭĪëĭĪ": 8607,
      "ĠìĿ¼ë³¸ìľ¼ë¡ľ": 8608,
      "Ġë°ķì§ĢìĽĲ": 8609,
      "ĠìĻĦë": 8610,
      "Ġìķ¼ìĿ´": 8611,
      "ë¶ĢëıĻìĤ°": 8612,
      "ĠìĿ´ê²ĥëĵ¤": 8613,
      "ĠìķĪëĲĲ": 8614,
      "ĠíĹĪê°Ģ": 8615,
      "ĠëģĿëĤ´": 8616,
      "ìľ¼ë¡ľìį¨": 8617,
      "ìĸ¼ë§": 8618,
      "Ġê±°ê¸°ëĭ¤": 8619,
      "Ġê±¸ëł¤ìĦľ": 8620,
      "Ġìķ¼ëĭ¹ìĿ´": 8621,
      "Ġë³´ìĹ¬ì£¼": 8622,
      "ìķĪë³´": 8623,
      "ĠìĿ´ëĭĪ": 8624,
      "ê°ĦíŀĪ": 8625,
      "ìĦłìĥĿ": 8626,
      "ĠìĹł": 8627,
      "Ġë¶ģíķľìĿĦ": 8628,
      "ĠìłķëıĦëĬĶ": 8629,
      "ê±°íĭ°ë¸Į": 8630,
      "Ġì´Īê¸°": 8631,
      "ĠìľłëıĻ": 8632,
      "ìķ¼íķł": 8633,
      "Ġë¶ĢëģĦëŁ½ëĭ¤": 8634,
      "ìŀĲë£Į": 8635,
      "ìĹĪì§Ģë§Į": 8636,
      "ĠëĪĦêµ¬ëĬĶ": 8637,
      "ĠìĦľë¹ĦìĬ¤": 8638,
      "Ġë½ĳìķĺ": 8639,
      "ĠìĤ¬ìĦ¸ìļĶ": 8640,
      "ê¾¸ëĿ¼": 8641,
      "ë¦¬ëĵ¤": 8642,
      "ĠëıĦë¦¬ëıĦ": 8643,
      "¼ë§¤": 8644,
      "ëĮĢê°ķ": 8645,
      "ĠìķĪíķ´ëıĦ": 8646,
      "ëĤ¼": 8647,
      "íħħ": 8648,
      "Ġì½Ķë©ĶëĶĶ": 8649,
      "Ġë²ķëĮĢë¡ľ": 8650,
      "Ġëª¨ë¥´ê²łì§Ģë§Į": 8651,
      "Ġê·¸ëĦ¤": 8652,
      "ĠìĿ´ìłľìķ¼": 8653,
      "Ġìĸ´ì©ľ": 8654,
      "ĠëĶ°ëľ»": 8655,
      "Ġê°ĳëĭĪëĭ¤": 8656,
      "Ġë¹ĦíĬ¸ì½Ķ": 8657,
      "ê°Ļìľ¼ë©´": 8658,
      "ì¤ĳìĿ¸": 8659,
      "ê°ĢëĥĲ": 8660,
      "ëĤ¬ëĦ¤": 8661,
      "ë²ĶìĿ´": 8662,
      "ĠêµŃë¯¼ê³¼": 8663,
      "ĠìĹŃìłģ": 8664,
      "ìĿ¼íħĲëį°": 8665,
      "Ġë¬¸ëĭ«": 8666,
      "Ġìµľìŀ¬": 8667,
      "ĠìŀĲìłľ": 8668,
      "ĠìĤ¬ìłĦíĪ¬íĳľ": 8669,
      "ìĽĶìĹĲ": 8670,
      "ìŀħê³ł": 8671,
      "Ġê´Ģìĭ¬ìĿ´": 8672,
      "ê°Īëĵ±": 8673,
      "ĠìĦ¸ê¸ĪëıĦ": 8674,
      "ĠìĥĿê°ģë§Į": 8675,
      "ĠìĿ´ëŁ´ëķĮ": 8676,
      "Ġë©Ģë¦¬": 8677,
      "Ġì³Ĳëĭ¤": 8678,
      "íĻĶëĬĶ": 8679,
      "ĠëĬ¬": 8680,
      "ìħĶìļĶ": 8681,
      "ìĦłìĹĲìĦľ": 8682,
      "ĠëĤĻíĥľ": 8683,
      "ĠëĽ°ìĸ´": 8684,
      "Ġë¶Īê³µìłķ": 8685,
      "Ġì£¼ìŀ¥íķĺëĬĶ": 8686,
      "íķĺê³łìĭ¶": 8687,
      "íĨµìĹĲ": 8688,
      "ĠìķĦìī¬": 8689,
      "Ġë§ĪìĿĮìĿĦ": 8690,
      "ĠëĮĢë¶ģ": 8691,
      "Ġìĭ¤ìĹħ": 8692,
      "ĺĲ": 8693,
      "Ġë§ŀìķĦìķ¼": 8694,
      "Ġë§ŀëĥĲ": 8695,
      "ĠìĥĿê²¨": 8696,
      "ëĦĺìĿ´": 8697,
      "ì§ĳìĹĲìĦľ": 8698,
      "Ġì§ĵìĿ´": 8699,
      "ĠëĪĦêµ°ì§Ģ": 8700,
      "\"\"": 8701,
      "ëĵłëĭ¤": 8702,
      "ë¯¸ê°Ģ": 8703,
      "Ġëĺĳê°ĻëĦ¤": 8704,
      "ìĥģê´Ģ": 8705,
      "Ġëıħìŀ¬ìŀĲ": 8706,
      "ê¸°ìķ¼": 8707,
      "ê³łë§Į": 8708,
      "ê¾¸ë¡ľ": 8709,
      "ìĿ¼ëķĮ": 8710,
      "Ġì¤ĢìĦĿìķĦ": 8711,
      "ĠìĿ´ìļ©íķ´ìĦľ": 8712,
      "Ġë¯¸êµŃê³¼": 8713,
      "Ġê´ĳìļ°": 8714,
      "ìĤ¬ë¬´": 8715,
      "ãħ¡ãħ¡ãħ¡": 8716,
      "ìĤ¬íķŃ": 8717,
      "ĠìĥĿê°ģíķ´ë³´": 8718,
      "íķ´ë³´ë©´": 8719,
      "Ġãħĭãħĭãħĭãħĭãħĭãħĭãħĭãħĭãħĭãħĭãħĭ": 8720,
      "Ġì§Ħëĭ¨": 8721,
      "ìŀĲëĵ¤ëıĦ": 8722,
      "ĠìĹ´ëĵ±": 8723,
      "ìľ¼ëł¤ë©´": 8724,
      "ĠìĿ´ìģĺ": 8725,
      "Ġíľĺëĳĺ": 8726,
      "Ġë³´ê³łìĭ¶": 8727,
      "ìĥ·": 8728,
      "ìĤ¬ë§Į": 8729,
      "ìķ¼íķ¨": 8730,
      "íķłê±°ëĭ¤": 8731,
      "ĠìĿ´ë²ĪìĹĲëĬĶ": 8732,
      "Ġë¬´ìĨĮ": 8733,
      "íĽ¼ìĨĲ": 8734,
      "Ġìĭľê³¨": 8735,
      "ĠìĺĪìķ½": 8736,
      "ë³´ìĨĮ": 8737,
      "kr": 8738,
      "Ġìļ°ë¡±": 8739,
      "TV": 8740,
      "ĠëĶ¸ìĿ´": 8741,
      "Ġìĭ¸ê²Į": 8742,
      "ĠìĿ¸ëł¥": 8743,
      "Ġ2000": 8744,
      "ëª»íķ´": 8745,
      "ĠìĿĺìĤ¬ê°Ģ": 8746,
      "Ġëĵ¤ìĸ´ê°ĢìĦľ": 8747,
      "Ġë§¤ëıĦ": 8748,
      "Ġë¨¸ê°Ģ": 8749,
      "ì¢ħêµĲ": 8750,
      "ë¦Ħë": 8751,
      "Ġëĭ¤ì£½": 8752,
      "Ġë¶Ģíĥģëĵľë¦½ëĭĪëĭ¤": 8753,
      "ìĪĺìĹĲ": 8754,
      "ĠìķĦë§ĪëıĦ": 8755,
      "ìķĦë¨¹ëĬĶ": 8756,
      "ìĪĺìĻĦë°ķ": 8757,
      "ĠìķĮìĪĺ": 8758,
      "Ġìłķì²´": 8759,
      "Ġìĸ´ëĶ¨": 8760,
      "ĠìĦľì´Ī": 8761,
      "Ġì·¨ìŀ¬": 8762,
      "ë½ķ": 8763,
      "!?": 8764,
      "ĠëĮĵê¸ĢìĹĲ": 8765,
      "Ġë°Ľê²Į": 8766,
      "Ġê³µë¬´ìĽĲìĿ´": 8767,
      "ĠìĨĲìĭ¤": 8768,
      "ë¬¸ìŀ¬ìķĻ": 8769,
      "Ġë³´ê²Į": 8770,
      "ĠëıħëıĦ": 8771,
      "Ġë¬¸ìŀ¬ìķĻê³¼": 8772,
      "ĠìĻ¸ì¹ĺëĬĶ": 8773,
      "íĵ°": 8774,
      "ĠìľĦìŀ¥": 8775,
      "ë²Ħë¦°": 8776,
      "ë§ĪëĤĺ": 8777,
      "ĠëŃĲíķĺê³ł": 8778,
      "ìĤ¬ëŀĮìĿĦ": 8779,
      "ĨĪìĿ´": 8780,
      "Ġìĺ¤ëŀľ": 8781,
      "ĠKBS": 8782,
      "Ġìĭ«ìĸ´íķĺëĬĶ": 8783,
      "ĠìĹĨëįĺ": 8784,
      "ĠìĪĺëł¹": 8785,
      "Ħëł¥": 8786,
      "ê±°ë¦¬ê³ł": 8787,
      "ë¥´ìĬ¤": 8788,
      "Ġìŀ¡ìľ¼ë©´": 8789,
      "Ġë¹Ħìĥģ": 8790,
      "êµĲì²´": 8791,
      "ĠìĹĦì¤ĳ": 8792,
      "ë°Ł": 8793,
      "Ġì°įê³ł": 8794,
      "Ġì¢ĭìķĦìĦľ": 8795,
      "ĠíĬ¹ê¶Į": 8796,
      "ëĮĢìŀ¥": 8797,
      "Ġêµ½": 8798,
      "ìĽĮìļĶ": 8799,
      "ĠëªħíĴĪ": 8800,
      "ĠíĸĪëĭ¤ëĬĶ": 8801,
      "ðŁĺ±": 8802,
      "ìľĦíķ´ìĦľ": 8803,
      "Ġìłķê¶Įìŀ¡": 8804,
      "ĠìĹ°ê´Ģ": 8805,
      "ìĪĺìłĢ": 8806,
      "ì²´ëıĦ": 8807,
      "Ġê¾¸ë": 8808,
      "Ġëĭ¤ìĿ´": 8809,
      "¦´ë": 8810,
      "Ġë¶Ģìłķë¶ĢíĮ¨": 8811,
      "ĠìĿ½ê³ł": 8812,
      "Ġì§Ģê²½": 8813,
      "Ġë¬¸ìĬ¬ëŀĮ": 8814,
      "Ġì¹ľë¬¸": 8815,
      "ĠìĪĺìĪĺ": 8816,
      "Ġì²ľìķĪíķ¨": 8817,
      "ĠìĿ¼ê°ľ": 8818,
      "Ġ[": 8819,
      "!!!!!!!!!!!!!!!!": 8820,
      "ë¡ľëĬĶ": 8821,
      "Ġìľ¤íķµê´Ģ": 8822,
      "ĠíĻķìłķ": 8823,
      "@@": 8824,
      "ĠìĿĺëĮĢ": 8825,
      "íģ´": 8826,
      "Ġë¯¸êµŃëıĦ": 8827,
      "ĠëĤĺëĪĦ": 8828,
      "ìŀĦëĮĢ": 8829,
      "ëħ¼": 8830,
      "ĠìŀĲì¡´ìĭ¬": 8831,
      "Ġíļ¡ëł¹": 8832,
      "Ġì°°": 8833,
      "Ġì¡°ì¹ĺ": 8834,
      "Ġê²ĥìŀĦ": 8835,
      "Ġì£¼ëıĦ": 8836,
      "Ġë°©ë²ķìĿ´": 8837,
      "ĠìŀĺëıĦ": 8838,
      "ëª»íķĺê³ł": 8839,
      "Ġê°ģìŀĲ": 8840,
      "ĠìĤ¬íĳľ": 8841,
      "ëĭ¹ìľ¼ë¡ľ": 8842,
      "ĠìĽĲìŀĲ": 8843,
      "ĠíķĺëĤĺìļĶ": 8844,
      "ĠìŀĲìĤ°": 8845,
      "Ġì¤ĳê³ł": 8846,
      "Ġë¬´ì±ħìŀĦ": 8847,
      "ĠíķľëĳĲë²Ī": 8848,
      "ìĹĨìľ¼ëĭĪ": 8849,
      "Ġë§ŀëĤĺ": 8850,
      "ë¡ľìĦľ": 8851,
      "Ġíķ´ìļĶ": 8852,
      "ê°ĸê³ł": 8853,
      "Ġíģ´ëĿ¼ìĬ¤": 8854,
      "ìĸ´ëĸ»ê²Į": 8855,
      "ĠíķĺëįĶëĿ¼": 8856,
      "Ġë¬¼ìĸ´": 8857,
      "al": 8858,
      "ê·ľëª¨": 8859,
      "ĠëĪĦêµ¬ëĥĲ": 8860,
      "ë¦¬ëĿ¼ê³ł": 8861,
      "íı¬ì¸ł": 8862,
      "ìłĵ": 8863,
      "ĠíĹĽìĨĮ": 8864,
      "Ġê·¸ë¦ĩ": 8865,
      "Ġìŀĺíķ´ëĿ¼": 8866,
      "ê¹Įì§ĢëıĦ": 8867,
      "ìŀĲëĿ¼": 8868,
      "Ġì°¨ìĿ´ê°Ģ": 8869,
      "Ġë²ķì¡°": 8870,
      "Ġëĵ¤ìĸ´ê°Ķ": 8871,
      "Ġëļľ": 8872,
      "Ġë¬´ìĹĩìĿ´": 8873,
      "Ġì¦īìĭľ": 8874,
      "ëģ¼ë": 8875,
      "ë²ķìĿĢ": 8876,
      "Ġê¹ľë°©": 8877,
      "²¨": 8878,
      "Ġê²½ëł¥": 8879,
      "ĠëĤ¨ìŀĲëĬĶ": 8880,
      "ĠíĪ¬ìŀħ": 8881,
      "Ġìĸ´ì©Įêµ¬": 8882,
      "ĦĪë": 8883,
      "Ġë¯¼ìłķ": 8884,
      "Ġëĺĳê°Ļëĭ¤": 8885,
      "Ġë³ĳìĹŃ": 8886,
      "ĠìĹħì²´": 8887,
      "¶Ļ": 8888,
      "..........": 8889,
      "ìŀĲë¦¬ìĹĲ": 8890,
      "ĠìĨĲìŀ¡ê³ł": 8891,
      "ĠìŀĪê²łì§Ģ": 8892,
      "ĠìłĢëħģ": 8893,
      "ìĨĮìĪĺ": 8894,
      "Ġëĭµëĭµíķĺëĭ¤": 8895,
      "Ġìĸ¸ë¡łìĤ¬": 8896,
      "Ġìķ¼ë¹Ħ": 8897,
      "ĠìķĪëĵ¤ìĸ´": 8898,
      "ĠìŀĲìĦ¸": 8899,
      "ĠìłĦìĹ¼ë³ĳ": 8900,
      "Ġë§ŀìķĦìļĶ": 8901,
      "ë°ĸ": 8902,
      "ìĭĿìĿĢ": 8903,
      "Ġì¢Ĩ": 8904,
      "Ġë§Ŀì³Ĳ": 8905,
      "ĠìĹŃìĭľëĤĺ": 8906,
      "Ŀ¼ëıĦ": 8907,
      "ĠìĻĢìĿ´íĶĦ": 8908,
      "ĠëĲĲëĭ¤": 8909,
      "ĠíĸīìľĦ": 8910,
      "ĠãĦ·ãĦ·": 8911,
      "Ġëªĩë°±": 8912,
      "ĠìķĦëŀ": 8913,
      "£¹": 8914,
      "ĠëĨĵìĿĢ": 8915,
      "Ġë³´ìĪĺëĬĶ": 8916,
      "ìĹĲëĤĺ": 8917,
      "ëª»íķĺëĬĶ": 8918,
      "ìłĪíķľ": 8919,
      "Ġìŀĺëª»íķľ": 8920,
      "Ġê³µê¸°ìĹħ": 8921,
      "ëŀ«": 8922,
      "ìĺĢëĤĺ": 8923,
      "ìĿ¸ë¬¼": 8924,
      "Ġêº¼ì§Ģ": 8925,
      "ì¡°ë¥¼": 8926,
      "Ġëª¨ë¥´ì§Ģ": 8927,
      "ĠëĤ´ëĤ´": 8928,
      "Ġì¢ĮíĮĮëĬĶ": 8929,
      "ê²ĥê°Ļëĭ¤": 8930,
      "Ġíķĺëĵł": 8931,
      "Ġë¬¸ìŀ¬ìĿ¸ëĮĢíĨµëł¹": 8932,
[...]
